{
  "version": "1.0",
  "truncation": null,
  "padding": null,
  "added_tokens": [
    {
      "id": 0,
      "content": "<s>",
      "single_word": false,
      "lstrip": false,
      "rstrip": false,
      "normalized": false,
      "special": true
    },
    {
      "id": 1,
      "content": "<pad>",
      "single_word": false,
      "lstrip": false,
      "rstrip": false,
      "normalized": false,
      "special": true
    },
    {
      "id": 2,
      "content": "</s>",
      "single_word": false,
      "lstrip": false,
      "rstrip": false,
      "normalized": false,
      "special": true
    },
    {
      "id": 3,
      "content": "<unk>",
      "single_word": false,
      "lstrip": false,
      "rstrip": false,
      "normalized": false,
      "special": true
    },
    {
      "id": 4,
      "content": "<mask>",
      "single_word": false,
      "lstrip": false,
      "rstrip": false,
      "normalized": false,
      "special": true
    }
  ],
  "normalizer": {
    "type": "Sequence",
    "normalizers": [
      {
        "type": "NFD"
      },
      {
        "type": "Lowercase"
      }
    ]
  },
  "pre_tokenizer": {
    "type": "ByteLevel",
    "add_prefix_space": true,
    "trim_offsets": true,
    "use_regex": true
  },
  "post_processor": {
    "type": "TemplateProcessing",
    "single": [
      {
        "SpecialToken": {
          "id": "<s>",
          "type_id": 0
        }
      },
      {
        "Sequence": {
          "id": "A",
          "type_id": 0
        }
      },
      {
        "SpecialToken": {
          "id": "</s>",
          "type_id": 0
        }
      }
    ],
    "pair": [
      {
        "SpecialToken": {
          "id": "<s>",
          "type_id": 0
        }
      },
      {
        "Sequence": {
          "id": "A",
          "type_id": 0
        }
      },
      {
        "SpecialToken": {
          "id": "</s>",
          "type_id": 0
        }
      },
      {
        "Sequence": {
          "id": "B",
          "type_id": 1
        }
      },
      {
        "SpecialToken": {
          "id": "</s>",
          "type_id": 1
        }
      }
    ],
    "special_tokens": {
      "</s>": {
        "id": "</s>",
        "ids": [
          2
        ],
        "tokens": [
          "</s>"
        ]
      },
      "<s>": {
        "id": "<s>",
        "ids": [
          0
        ],
        "tokens": [
          "<s>"
        ]
      }
    }
  },
  "decoder": {
    "type": "ByteLevel",
    "add_prefix_space": true,
    "trim_offsets": true,
    "use_regex": true
  },
  "model": {
    "type": "BPE",
    "dropout": null,
    "unk_token": "<unk>",
    "continuing_subword_prefix": null,
    "end_of_word_suffix": null,
    "fuse_unk": false,
    "byte_fallback": false,
    "ignore_merges": false,
    "vocab": {
      "<s>": 0,
      "<pad>": 1,
      "</s>": 2,
      "<unk>": 3,
      "<mask>": 4,
      "!": 5,
      "\"": 6,
      "#": 7,
      "$": 8,
      "%": 9,
      "&": 10,
      "'": 11,
      "(": 12,
      ")": 13,
      "*": 14,
      "+": 15,
      ",": 16,
      "-": 17,
      ".": 18,
      "/": 19,
      "0": 20,
      "1": 21,
      "2": 22,
      "3": 23,
      "4": 24,
      "5": 25,
      "6": 26,
      "7": 27,
      "8": 28,
      "9": 29,
      ":": 30,
      ";": 31,
      "<": 32,
      "=": 33,
      ">": 34,
      "?": 35,
      "@": 36,
      "A": 37,
      "B": 38,
      "C": 39,
      "D": 40,
      "E": 41,
      "F": 42,
      "G": 43,
      "H": 44,
      "I": 45,
      "J": 46,
      "K": 47,
      "L": 48,
      "M": 49,
      "N": 50,
      "O": 51,
      "P": 52,
      "Q": 53,
      "R": 54,
      "S": 55,
      "T": 56,
      "U": 57,
      "V": 58,
      "W": 59,
      "X": 60,
      "Y": 61,
      "Z": 62,
      "[": 63,
      "\\": 64,
      "]": 65,
      "^": 66,
      "_": 67,
      "`": 68,
      "a": 69,
      "b": 70,
      "c": 71,
      "d": 72,
      "e": 73,
      "f": 74,
      "g": 75,
      "h": 76,
      "i": 77,
      "j": 78,
      "k": 79,
      "l": 80,
      "m": 81,
      "n": 82,
      "o": 83,
      "p": 84,
      "q": 85,
      "r": 86,
      "s": 87,
      "t": 88,
      "u": 89,
      "v": 90,
      "w": 91,
      "x": 92,
      "y": 93,
      "z": 94,
      "{": 95,
      "|": 96,
      "}": 97,
      "~": 98,
      "¡": 99,
      "¢": 100,
      "£": 101,
      "¤": 102,
      "¥": 103,
      "¦": 104,
      "§": 105,
      "¨": 106,
      "©": 107,
      "ª": 108,
      "«": 109,
      "¬": 110,
      "®": 111,
      "¯": 112,
      "°": 113,
      "±": 114,
      "²": 115,
      "³": 116,
      "´": 117,
      "µ": 118,
      "¶": 119,
      "·": 120,
      "¸": 121,
      "¹": 122,
      "º": 123,
      "»": 124,
      "¼": 125,
      "½": 126,
      "¾": 127,
      "¿": 128,
      "À": 129,
      "Á": 130,
      "Â": 131,
      "Ã": 132,
      "Ä": 133,
      "Å": 134,
      "Æ": 135,
      "Ç": 136,
      "È": 137,
      "É": 138,
      "Ê": 139,
      "Ë": 140,
      "Ì": 141,
      "Í": 142,
      "Î": 143,
      "Ï": 144,
      "Ð": 145,
      "Ñ": 146,
      "Ò": 147,
      "Ó": 148,
      "Ô": 149,
      "Õ": 150,
      "Ö": 151,
      "×": 152,
      "Ø": 153,
      "Ù": 154,
      "Ú": 155,
      "Û": 156,
      "Ü": 157,
      "Ý": 158,
      "Þ": 159,
      "ß": 160,
      "à": 161,
      "á": 162,
      "â": 163,
      "ã": 164,
      "ä": 165,
      "å": 166,
      "æ": 167,
      "ç": 168,
      "è": 169,
      "é": 170,
      "ê": 171,
      "ë": 172,
      "ì": 173,
      "í": 174,
      "î": 175,
      "ï": 176,
      "ð": 177,
      "ñ": 178,
      "ò": 179,
      "ó": 180,
      "ô": 181,
      "õ": 182,
      "ö": 183,
      "÷": 184,
      "ø": 185,
      "ù": 186,
      "ú": 187,
      "û": 188,
      "ü": 189,
      "ý": 190,
      "þ": 191,
      "ÿ": 192,
      "Ā": 193,
      "ā": 194,
      "Ă": 195,
      "ă": 196,
      "Ą": 197,
      "ą": 198,
      "Ć": 199,
      "ć": 200,
      "Ĉ": 201,
      "ĉ": 202,
      "Ċ": 203,
      "ċ": 204,
      "Č": 205,
      "č": 206,
      "Ď": 207,
      "ď": 208,
      "Đ": 209,
      "đ": 210,
      "Ē": 211,
      "ē": 212,
      "Ĕ": 213,
      "ĕ": 214,
      "Ė": 215,
      "ė": 216,
      "Ę": 217,
      "ę": 218,
      "Ě": 219,
      "ě": 220,
      "Ĝ": 221,
      "ĝ": 222,
      "Ğ": 223,
      "ğ": 224,
      "Ġ": 225,
      "ġ": 226,
      "Ģ": 227,
      "ģ": 228,
      "Ĥ": 229,
      "ĥ": 230,
      "Ħ": 231,
      "ħ": 232,
      "Ĩ": 233,
      "ĩ": 234,
      "Ī": 235,
      "ī": 236,
      "Ĭ": 237,
      "ĭ": 238,
      "Į": 239,
      "į": 240,
      "İ": 241,
      "ı": 242,
      "Ĳ": 243,
      "ĳ": 244,
      "Ĵ": 245,
      "ĵ": 246,
      "Ķ": 247,
      "ķ": 248,
      "ĸ": 249,
      "Ĺ": 250,
      "ĺ": 251,
      "Ļ": 252,
      "ļ": 253,
      "Ľ": 254,
      "ľ": 255,
      "Ŀ": 256,
      "ŀ": 257,
      "Ł": 258,
      "ł": 259,
      "Ń": 260,
      "en": 261,
      "er": 262,
      "Ġd": 263,
      "ch": 264,
      "in": 265,
      "un": 266,
      "ÌĪ": 267,
      "ie": 268,
      "Ġs": 269,
      "Ġa": 270,
      "ei": 271,
      "Ġw": 272,
      "es": 273,
      "Ġdie": 274,
      "Ġun": 275,
      "Ġb": 276,
      "st": 277,
      "ich": 278,
      "ein": 279,
      "on": 280,
      "Ġv": 281,
      "Ġm": 282,
      "Ġg": 283,
      "an": 284,
      "ung": 285,
      "te": 286,
      "Ġder": 287,
      "Ġz": 288,
      "Ġf": 289,
      "sch": 290,
      "ti": 291,
      "Ġund": 292,
      "Ġein": 293,
      "Ġh": 294,
      "Ġk": 295,
      "Ġi": 296,
      "or": 297,
      "Ġau": 298,
      "Ġda": 299,
      "Ġin": 300,
      "ra": 301,
      "Ġn": 302,
      "ten": 303,
      "ll": 304,
      "ur": 305,
      "it": 306,
      "em": 307,
      "ss": 308,
      "Ġp": 309,
      "ar": 310,
      "den": 311,
      "hr": 312,
      "ge": 313,
      "gen": 314,
      "al": 315,
      "Ġzu": 316,
      "der": 317,
      "ter": 318,
      "ir": 319,
      "Ġl": 320,
      "Ġver": 321,
      "lich": 322,
      "el": 323,
      "Ġan": 324,
      "et": 325,
      "re": 326,
      "Ġu": 327,
      "ro": 328,
      "Ġer": 329,
      "mm": 330,
      "eit": 331,
      "Ġwir": 332,
      "Ġden": 333,
      "Ġt": 334,
      "ber": 335,
      "ent": 336,
      "at": 337,
      "Ġmit": 338,
      "Ġvon": 339,
      "Ġfu": 340,
      "Ġauf": 341,
      "isch": 342,
      "la": 343,
      "de": 344,
      "icht": 345,
      "ier": 346,
      "ÃŁ": 347,
      "Ġe": 348,
      "Ġdas": 349,
      "Ġo": 350,
      "Ġge": 351,
      "Ġko": 352,
      "tion": 353,
      "Ġbe": 354,
      "ben": 355,
      "Ġist": 356,
      "Ġdies": 357,
      "Ġsie": 358,
      "au": 359,
      "ol": 360,
      "ach": 361,
      "ru": 362,
      "Ġdes": 363,
      "Ġj": 364,
      "ig": 365,
      "ck": 366,
      "Ġsch": 367,
      "is": 368,
      "Ġst": 369,
      "Ġaus": 370,
      "Ġso": 371,
      "and": 372,
      "ft": 373,
      "Ġim": 374,
      "Ġeine": 375,
      "ungen": 376,
      "rei": 377,
      "Ġwer": 378,
      "nen": 379,
      "Ġes": 380,
      "Ġsich": 381,
      "Ġvor": 382,
      "Ġnicht": 383,
      "le": 384,
      "pa": 385,
      "ind": 386,
      "men": 387,
      "Ġre": 388,
      "Ġdem": 389,
      "ischen": 390,
      "eu": 391,
      "ff": 392,
      "ion": 393,
      "il": 394,
      "Ġum": 395,
      "Ġich": 396,
      "sp": 397,
      "kt": 398,
      "eh": 399,
      "Ġwerden": 400,
      "ell": 401,
      "Ġha": 402,
      "Ġbes": 403,
      "Ġal": 404,
      "Ġdass": 405,
      "Ġuns": 406,
      "tz": 407,
      "Ġent": 408,
      "Ġges": 409,
      "ri": 410,
      "uro": 411,
      "ation": 412,
      "Ġc": 413,
      "ahr": 414,
      "Ġihr": 415,
      "sa": 416,
      "Ġauch": 417,
      "ann": 418,
      "iss": 419,
      "Ġber": 420,
      "Ġeuro": 421,
      "Ġunter": 422,
      "chen": 423,
      "Ġbei": 424,
      "as": 425,
      "ien": 426,
      "ehr": 427,
      "Ġall": 428,
      "zu": 429,
      "ah": 430,
      "Ġpro": 431,
      "etz": 432,
      "Ġmo": 433,
      "gt": 434,
      "Ġher": 435,
      "Ġwie": 436,
      "Ġals": 437,
      "ges": 438,
      "Ġeuropa": 439,
      "Ġsind": 440,
      "Ġ1": 441,
      "be": 442,
      "scha": 443,
      "mmen": 444,
      "Ġab": 445,
      "fu": 446,
      "Ġmu": 447,
      "ungs": 448,
      "Ġ(": 449,
      "cht": 450,
      "Ġr": 451,
      "Ġho": 452,
      "ver": 453,
      "se": 454,
      "Ġwird": 455,
      "wei": 456,
      "ern": 457,
      "hal": 458,
      "iel": 459,
      "sten": 460,
      "si": 461,
      "ssen": 462,
      "rau": 463,
      "Ġnach": 464,
      "âĢ": 465,
      "om": 466,
      "sta": 467,
      "tel": 468,
      "am": 469,
      "Ġ2": 470,
      "ort": 471,
      "och": 472,
      "lie": 473,
      "Ġsein": 474,
      "end": 475,
      "00": 476,
      "tig": 477,
      "eil": 478,
      "Ġhat": 479,
      "Ġla": 480,
      "Ġzur": 481,
      "Ġoder": 482,
      "Ġar": 483,
      "schaft": 484,
      "Ġsp": 485,
      "eich": 486,
      "sen": 487,
      "lu": 488,
      "enn": 489,
      "Ġunser": 490,
      "urch": 491,
      "Ġhaben": 492,
      "he": 493,
      "und": 494,
      "Ġ-": 495,
      "ing": 496,
      "lichen": 497,
      "fa": 498,
      "Ġeiner": 499,
      "Ġkon": 500,
      "ische": 501,
      "tet": 502,
      "for": 503,
      "Ġkomm": 504,
      "Ġdurch": 505,
      "Ġma": 506,
      "lo": 507,
      "ger": 508,
      "li": 509,
      "ha": 510,
      "Ġdiese": 511,
      "dern": 512,
      "schen": 513,
      "aus": 514,
      "hen": 515,
      "um": 516,
      "Ġeinen": 517,
      "lle": 518,
      "heit": 519,
      "eiten": 520,
      "anz": 521,
      "ho": 522,
      "keit": 523,
      "ang": 524,
      "ma": 525,
      "iti": 526,
      "Ġsta": 527,
      "ed": 528,
      "Ġra": 529,
      "Ġpar": 530,
      "elt": 531,
      "ita": 532,
      "ko": 533,
      "ta": 534,
      "fen": 535,
      "tiv": 536,
      "ne": 537,
      "wer": 538,
      "Ġwur": 539,
      "nnen": 540,
      "llen": 541,
      "Ġherr": 542,
      "che": 543,
      "Ġwei": 544,
      "tra": 545,
      "liche": 546,
      "Ġpra": 547,
      "mit": 548,
      "Ġwenn": 549,
      "ĠâĢ": 550,
      "Ġzum": 551,
      "wa": 552,
      "du": 553,
      "Ġste": 554,
      "tern": 555,
      "Ġjahr": 556,
      "ot": 557,
      "zi": 558,
      "Ġam": 559,
      "Ġkommiss": 560,
      "ut": 561,
      "ess": 562,
      "ht": 563,
      "Ġgro": 564,
      "us": 565,
      "rie": 566,
      "Ġwar": 567,
      "ken": 568,
      "chte": 569,
      "Ġwo": 570,
      "ste": 571,
      "Ġeinem": 572,
      "Ġwa": 573,
      "stell": 574,
      "her": 575,
      "beit": 576,
      "ul": 577,
      "ment": 578,
      "igen": 579,
      "hl": 580,
      "qu": 581,
      "glich": 582,
      "Ġnur": 583,
      "Ġneu": 584,
      "mmer": 585,
      "Ġkann": 586,
      "aten": 587,
      "eine": 588,
      "..": 589,
      "Ġander": 590,
      "ieren": 591,
      "ktion": 592,
      "Ġdieser": 593,
      "iert": 594,
      "Ġman": 595,
      "utz": 596,
      "bar": 597,
      "ran": 598,
      "ab": 599,
      "me": 600,
      "oliti": 601,
      "Ġhin": 602,
      "Ġde": 603,
      "wi": 604,
      "Ġbet": 605,
      "pf": 606,
      "lei": 607,
      "Ġgem": 608,
      "Ġmehr": 609,
      "ahl": 610,
      "Ġaber": 611,
      "ffen": 612,
      "geb": 613,
      "bt": 614,
      "Ġverb": 615,
      "ren": 616,
      "Ġfa": 617,
      "est": 618,
      "nd": 619,
      "siden": 620,
      "ik": 621,
      "Ġen": 622,
      "ehmen": 623,
      "ist": 624,
      "Ġgen": 625,
      "Ġkommission": 626,
      "Ġihre": 627,
      "ierung": 628,
      "rit": 629,
      "Ġzw": 630,
      "Ġnoch": 631,
      "ige": 632,
      "pp": 633,
      "nder": 634,
      "ĠdaÃŁ": 635,
      "ga": 636,
      "tier": 637,
      "Ġsoll": 638,
      "Ġle": 639,
      "Ġfor": 640,
      "Ġih": 641,
      "Ġ\"": 642,
      "Ġgegen": 643,
      "ner": 644,
      "Ġwas": 645,
      "sident": 646,
      "gra": 647,
      "Ġwurde": 648,
      "Ġte": 649,
      "ers": 650,
      "ts": 651,
      "Ġzusa": 652,
      "ÃŁen": 653,
      "Ġgesch": 654,
      "Ġbu": 655,
      "alen": 656,
      "ic": 657,
      "Ġsa": 658,
      "ord": 659,
      "glie": 660,
      "rund": 661,
      "Ġfin": 662,
      "Ġreg": 663,
      "wick": 664,
      "Ġna": 665,
      "Ġwe": 666,
      "tigen": 667,
      "Ġweiter": 668,
      "ok": 669,
      "Ġsehr": 670,
      "stu": 671,
      "Ġalle": 672,
      "Ġfra": 673,
      "Ġbis": 674,
      "Ġgel": 675,
      "Ġch": 676,
      "ekt": 677,
      "Ìģ": 678,
      "form": 679,
      "Ġta": 680,
      "Ġsow": 681,
      "Ġhotel": 682,
      "Ġparla": 683,
      "Ġro": 684,
      "Ġhier": 685,
      "ehen": 686,
      "lin": 687,
      "nah": 688,
      "Ġmen": 689,
      "Ġparlament": 690,
      "etzt": 691,
      "bei": 692,
      "fahr": 693,
      "eigen": 694,
      "rin": 695,
      "iz": 696,
      "gel": 697,
      "ant": 698,
      "Ġmitglie": 699,
      "Ġlie": 700,
      "di": 701,
      "Ġ200": 702,
      "Ġmein": 703,
      "Ġje": 704,
      "kte": 705,
      "Ġdiesem": 706,
      "Ġlo": 707,
      "Ġsu": 708,
      "atz": 709,
      "Ġentwick": 710,
      "pro": 711,
      "tschaft": 712,
      "Ġunion": 713,
      "Ġzwei": 714,
      "Ġpa": 715,
      "mal": 716,
      "Ġarbeit": 717,
      "Ġger": 718,
      "ÃŁer": 719,
      "Ġzusammen": 720,
      "mo": 721,
      "ill": 722,
      "wend": 723,
      "leich": 724,
      "fol": 725,
      "hn": 726,
      "Ġgemein": 727,
      "Ġdieses": 728,
      "lau": 729,
      "Ġto": 730,
      "unden": 731,
      "Ġgi": 732,
      "Ġru": 733,
      "Ġviel": 734,
      "sche": 735,
      "fer": 736,
      "Ġzeit": 737,
      "vor": 738,
      "Ġbeg": 739,
      "onder": 740,
      "bl": 741,
      "Ġsicher": 742,
      "dem": 743,
      "lung": 744,
      "schie": 745,
      "halten": 746,
      "Ġthe": 747,
      "chn": 748,
      "Ġgeb": 749,
      "yst": 750,
      "zen": 751,
      "teil": 752,
      "Ġihnen": 753,
      "Ġkl": 754,
      "Ġgew": 755,
      "to": 756,
      "Ġrecht": 757,
      "tung": 758,
      "ationen": 759,
      "ystem": 760,
      "og": 761,
      "Ġbesch": 762,
      "Ġ3": 763,
      "mp": 764,
      "Ġmitglied": 765,
      "Ġwich": 766,
      "gan": 767,
      "kommen": 768,
      "Ġeines": 769,
      "ale": 770,
      "Ġet": 771,
      "Ġpoliti": 772,
      "Ġintern": 773,
      "Ġvom": 774,
      "Ġunsere": 775,
      "Ġmar": 776,
      "oll": 777,
      "Ġeu": 778,
      "ĠâĢĵ": 779,
      "land": 780,
      "bil": 781,
      "fe": 782,
      "Ġson": 783,
      "Ġ19": 784,
      "Ġex": 785,
      "schla": 786,
      "tige": 787,
      "Ġjed": 788,
      "timm": 789,
      "Ġpo": 790,
      "nehmen": 791,
      "Ġins": 792,
      "Ġwelt": 793,
      "ka": 794,
      "Ġgrund": 795,
      "Ġhand": 796,
      "we": 797,
      "Ġfrau": 798,
      "zie": 799,
      "Ġland": 800,
      "Ġse": 801,
      "ster": 802,
      "Ġmenschen": 803,
      "Ġrat": 804,
      "gung": 805,
      "Ġsowie": 806,
      "Ġzwischen": 807,
      "Ġqu": 808,
      "os": 809,
      "llt": 810,
      "Ġgibt": 811,
      "Ġunterstu": 812,
      "igkeit": 813,
      "wir": 814,
      "Ġbericht": 815,
      "Ġdu": 816,
      "Ġmach": 817,
      "Ġwu": 818,
      "Ġsel": 819,
      "staaten": 820,
      "ad": 821,
      "ser": 822,
      "lan": 823,
      "Ġbereit": 824,
      "issen": 825,
      "ften": 826,
      "war": 827,
      "gem": 828,
      "ke": 829,
      "Ġganz": 830,
      "ze": 831,
      "Ġentsch": 832,
      "Ġbeste": 833,
      "halb": 834,
      "trag": 835,
      "Âł": 836,
      "Ġeigen": 837,
      "blem": 838,
      "bst": 839,
      "iele": 840,
      "Ġinter": 841,
      "ktiv": 842,
      "lieÃŁ": 843,
      "Ġlei": 844,
      "cken": 845,
      "Ġteil": 846,
      "Ġwieder": 847,
      "Ġheu": 848,
      "Ġprodu": 849,
      "Ġku": 850,
      "eut": 851,
      "Ġob": 852,
      "Ġwirtschaft": 853,
      "Ġmuss": 854,
      "setz": 855,
      "ku": 856,
      "Ġor": 857,
      "Ġinform": 858,
      "hand": 859,
      "hren": 860,
      "Ġth": 861,
      "Ġihrer": 862,
      "Ġange": 863,
      "Ġkeine": 864,
      "Ġdamit": 865,
      "Ġrei": 866,
      "Ġgu": 867,
      "bes": 868,
      "Ġpers": 869,
      "mer": 870,
      "Ġbie": 871,
      "nis": 872,
      "Ġtra": 873,
      "Ġvers": 874,
      "per": 875,
      "Ġdann": 876,
      "ler": 877,
      "ia": 878,
      "Ġanderen": 879,
      "...": 880,
      "Ġproblem": 881,
      "rechen": 882,
      "ellen": 883,
      "Ġverfu": 884,
      "ÃŁe": 885,
      "Ġsol": 886,
      "wo": 887,
      "cher": 888,
      "zeu": 889,
      "geben": 890,
      "Ġne": 891,
      "Ġimmer": 892,
      "iger": 893,
      "gramm": 894,
      "pt": 895,
      "Ġdar": 896,
      "chten": 897,
      "art": 898,
      "imm": 899,
      "itu": 900,
      "Ġstra": 901,
      "Ġmitgliedstaaten": 902,
      "ĠâĢŀ": 903,
      "forder": 904,
      "id": 905,
      "Ġnat": 906,
      "gesch": 907,
      "ce": 908,
      "eln": 909,
      "Ġka": 910,
      "ischer": 911,
      "keiten": 912,
      "gie": 913,
      "Ġdeut": 914,
      "schu": 915,
      "Ġben": 916,
      "dt": 917,
      "Ġel": 918,
      "weise": 919,
      "Ġvert": 920,
      "Ġeben": 921,
      "Ġleben": 922,
      "unkt": 923,
      "nung": 924,
      "innen": 925,
      "gend": 926,
      "Ġ.": 927,
      "Ġdiesen": 928,
      "sicht": 929,
      "Ġselbst": 930,
      "ker": 931,
      "Ġ,": 932,
      "Ġhaus": 933,
      "hin": 934,
      "Ġdi": 935,
      "Ġga": 936,
      "no": 937,
      "Ġdan": 938,
      "Ġgleich": 939,
      "Ġbef": 940,
      "nahmen": 941,
      "ding": 942,
      "Ġgru": 943,
      "Ġscha": 944,
      "Ġ5": 945,
      "Ġres": 946,
      "âĢľ": 947,
      "ng": 948,
      "Ġfinanz": 949,
      "ffent": 950,
      "fach": 951,
      "Ġem": 952,
      "Ġbede": 953,
      "Ġwurden": 954,
      "lt": 955,
      "Ġheute": 956,
      "stellen": 957,
      "einen": 958,
      "arbeit": 959,
      "hrt": 960,
      "Ġseine": 961,
      "Ġ4": 962,
      "alita": 963,
      "dung": 964,
      "hne": 965,
      "kla": 966,
      "fra": 967,
      "Ġihren": 968,
      "Ġbil": 969,
      "Ġja": 970,
      "Ġdenn": 971,
      "auf": 972,
      "Ġinternation": 973,
      "tur": 974,
      "ndern": 975,
      "gang": 976,
      "richt": 977,
      "Ġwen": 978,
      "mittel": 979,
      "Ġand": 980,
      "alt": 981,
      "Ġfol": 982,
      "Ġwichtig": 983,
      "Ġunserer": 984,
      "spiel": 985,
      "Ġausge": 986,
      "ffe": 987,
      "ard": 988,
      "ve": 989,
      "satz": 990,
      "luss": 991,
      "ett": 992,
      "reichen": 993,
      "Ġvorschla": 994,
      "ionen": 995,
      "isse": 996,
      "Ġmin": 997,
      "so": 998,
      "schieden": 999,
      "Ġzi": 1000,
      "Ġjedoch": 1001,
      "Ġwel": 1002,
      "Ġco": 1003,
      "io": 1004,
      "Ġunternehmen": 1005,
      "wort": 1006,
      "Ġfre": 1007,
      "fahren": 1008,
      "kon": 1009,
      "min": 1010,
      "Ġhabe": 1011,
      "ativ": 1012,
      "Ġsondern": 1013,
      "att": 1014,
      "zei": 1015,
      "olog": 1016,
      "dru": 1017,
      "Ġneue": 1018,
      "Ġmich": 1019,
      "zeit": 1020,
      "tik": 1021,
      "Ġgemeinsa": 1022,
      "Ġfrei": 1023,
      "elle": 1024,
      "Ġwor": 1025,
      "Ġfest": 1026,
      "bs": 1027,
      "vo": 1028,
      "Ġsozi": 1029,
      "rger": 1030,
      "Ġser": 1031,
      "ĠmaÃŁ": 1032,
      "bli": 1033,
      "itz": 1034,
      "reich": 1035,
      "Ġeinz": 1036,
      "Ġverein": 1037,
      "pra": 1038,
      ").": 1039,
      "Ġwirk": 1040,
      "Ġkolle": 1041,
      "Ġbereits": 1042,
      "Ġmittel": 1043,
      "Ġdaru": 1044,
      "Ġmon": 1045,
      "Ġohne": 1046,
      "Ġberu": 1047,
      "Ġsollte": 1048,
      "Ġli": 1049,
      "tionen": 1050,
      "halt": 1051,
      "Ġju": 1052,
      "alis": 1053,
      "Ġzahl": 1054,
      "licher": 1055,
      "zeich": 1056,
      "ritt": 1057,
      "tzen": 1058,
      "Ġsei": 1059,
      "fall": 1060,
      "Ġbo": 1061,
      "res": 1062,
      "Ġbesonder": 1063,
      "stru": 1064,
      "Ġaller": 1065,
      "sse": 1066,
      "Ġdazu": 1067,
      "Ġnot": 1068,
      "net": 1069,
      "kehr": 1070,
      "nn": 1071,
      "Ġwissen": 1072,
      "Ġentwicklung": 1073,
      "Ġandere": 1074,
      "Ġme": 1075,
      "Ġhau": 1076,
      "sto": 1077,
      "Ġerfol": 1078,
      "Ġviele": 1079,
      "Ġspiel": 1080,
      "Ġneuen": 1081,
      "legen": 1082,
      "kten": 1083,
      "olitik": 1084,
      "Ġnutz": 1085,
      "Ġ20": 1086,
      "Ġpri": 1087,
      "tisch": 1088,
      "onen": 1089,
      "Ġbereich": 1090,
      "Ġsollten": 1091,
      "tieren": 1092,
      "Ġentschei": 1093,
      "rat": 1094,
      "Ġentsp": 1095,
      "Ġdarau": 1096,
      "hrung": 1097,
      "hmen": 1098,
      "lage": 1099,
      "Ġfrage": 1100,
      "Ġgescha": 1101,
      "raum": 1102,
      "Ġjahren": 1103,
      "kun": 1104,
      "indet": 1105,
      "sich": 1106,
      "enz": 1107,
      "Ġseit": 1108,
      "bu": 1109,
      "fern": 1110,
      "Ġdaten": 1111,
      "Ġtechn": 1112,
      "Ġvoll": 1113,
      "hrend": 1114,
      "Ġverw": 1115,
      "inn": 1116,
      "Ġdoch": 1117,
      "Ġspe": 1118,
      "stand": 1119,
      "Ġdir": 1120,
      "Ġjetzt": 1121,
      "mus": 1122,
      "Ġfinden": 1123,
      "ĠauÃŁer": 1124,
      "Ġverschieden": 1125,
      "Ġsicherheit": 1126,
      "Ġricht": 1127,
      "essen": 1128,
      "Ġdenen": 1129,
      "Ġnie": 1130,
      "Ġfo": 1131,
      "Ġeinige": 1132,
      "co": 1133,
      "Ġflu": 1134,
      "sser": 1135,
      "Ġlu": 1136,
      "Ġur": 1137,
      "Ġstand": 1138,
      "nisse": 1139,
      "nahme": 1140,
      "Ġdis": 1141,
      "mar": 1142,
      "Ġbel": 1143,
      "ierte": 1144,
      "pl": 1145,
      "Ġdien": 1146,
      "Ġweil": 1147,
      "Ġeinfach": 1148,
      "ven": 1149,
      "tigt": 1150,
      "tei": 1151,
      "Ġziel": 1152,
      "Ġletz": 1153,
      "Ġmeine": 1154,
      "tischen": 1155,
      "Ġkur": 1156,
      "nf": 1157,
      "Ġkomp": 1158,
      "Ġgut": 1159,
      "ommen": 1160,
      "tro": 1161,
      "uer": 1162,
      "Ġnation": 1163,
      "ungsan": 1164,
      "rde": 1165,
      "da": 1166,
      "ktur": 1167,
      "Ġbietet": 1168,
      "),": 1169,
      "stat": 1170,
      "Ġmachen": 1171,
      "bau": 1172,
      "rt": 1173,
      "Ġhal": 1174,
      "Ġnun": 1175,
      "els": 1176,
      "zahl": 1177,
      "Ġper": 1178,
      "Ġsystem": 1179,
      "unktion": 1180,
      "Ġallen": 1181,
      "stellung": 1182,
      "tal": 1183,
      "Ġfall": 1184,
      "Ġof": 1185,
      "ichte": 1186,
      "acht": 1187,
      "welt": 1188,
      "Ġliegt": 1189,
      "Ġschw": 1190,
      "Ġtran": 1191,
      "oren": 1192,
      "tens": 1193,
      "lagen": 1194,
      "Ġdafu": 1195,
      "Ġtat": 1196,
      "Ġkein": 1197,
      "Ġthem": 1198,
      "Ġbestimm": 1199,
      "kunft": 1200,
      "ander": 1201,
      "Ġdarauf": 1202,
      "gs": 1203,
      "Ġstu": 1204,
      "tellt": 1205,
      "wor": 1206,
      "Ġis": 1207,
      "Ġfru": 1208,
      "ks": 1209,
      "kann": 1210,
      "Ġschon": 1211,
      "Ġseiner": 1212,
      "under": 1213,
      "Ġbeispiel": 1214,
      "Ġbit": 1215,
      "dien": 1216,
      "ierten": 1217,
      "Ġschn": 1218,
      "Ġdo": 1219,
      "chs": 1220,
      "teg": 1221,
      "bewer": 1222,
      "tiert": 1223,
      "leist": 1224,
      "Ġvo": 1225,
      "igung": 1226,
      "Ġgar": 1227,
      "stra": 1228,
      "reis": 1229,
      "Ġnatu": 1230,
      "Ġy": 1231,
      "Ġno": 1232,
      "Ġersten": 1233,
      "len": 1234,
      "ice": 1235,
      "Ġauss": 1236,
      "gar": 1237,
      "Ġba": 1238,
      "gu": 1239,
      "ganis": 1240,
      "Ġgeht": 1241,
      "ringen": 1242,
      "Ġrahmen": 1243,
      "Ġlage": 1244,
      "Ġbeit": 1245,
      "Ġat": 1246,
      "Ġget": 1247,
      "Ġlin": 1248,
      "Ġabge": 1249,
      "ĠmaÃŁnahmen": 1250,
      "Ġzuru": 1251,
      "Ġdaher": 1252,
      "nst": 1253,
      "Ġzimmer": 1254,
      "Ġinformationen": 1255,
      "gehen": 1256,
      "Ġmir": 1257,
      "Ġon": 1258,
      "Ġ6": 1259,
      "Ġbin": 1260,
      "Ġwaren": 1261,
      "beiten": 1262,
      "Ġzent": 1263,
      "Ġter": 1264,
      "lossen": 1265,
      "Ġstadt": 1266,
      "Ġkosten": 1267,
      "stimm": 1268,
      "fin": 1269,
      "Ġkom": 1270,
      "ris": 1271,
      "esen": 1272,
      "Ġgewa": 1273,
      "reten": 1274,
      "Ġspa": 1275,
      "Ġherrn": 1276,
      "Ġdabei": 1277,
      "ultur": 1278,
      "Ġlassen": 1279,
      "grund": 1280,
      "Ġprogramm": 1281,
      "je": 1282,
      "nde": 1283,
      "uten": 1284,
      "Ġener": 1285,
      "su": 1286,
      "ba": 1287,
      "ordnung": 1288,
      "Ġfr": 1289,
      "heiten": 1290,
      "Ġrich": 1291,
      "Ġallem": 1292,
      "Ġkommissar": 1293,
      "Ġnotwend": 1294,
      "Ġhei": 1295,
      "Ġform": 1296,
      "Ġrechts": 1297,
      "was": 1298,
      "lichkeit": 1299,
      "ite": 1300,
      "Ġregel": 1301,
      "man": 1302,
      "Ġdrei": 1303,
      "Ġcon": 1304,
      "tzung": 1305,
      "Ġsehen": 1306,
      "Ġdemok": 1307,
      "Ġjahre": 1308,
      "schuss": 1309,
      "aler": 1310,
      "zent": 1311,
      "Ġkli": 1312,
      "Ġwollen": 1313,
      "besonder": 1314,
      "ĠgroÃŁ": 1315,
      "zug": 1316,
      "na": 1317,
      "bo": 1318,
      "Ġkin": 1319,
      "Ġstar": 1320,
      "pe": 1321,
      "hol": 1322,
      "Ġhil": 1323,
      "besondere": 1324,
      "punkt": 1325,
      "Ġca": 1326,
      "Ġgesam": 1327,
      "Ġunseren": 1328,
      "hlen": 1329,
      "ds": 1330,
      "kra": 1331,
      "Ġfunktion": 1332,
      "recht": 1333,
      "Ġdeshalb": 1334,
      "Ġbeim": 1335,
      "genommen": 1336,
      "Ġgera": 1337,
      "Ġinsbesondere": 1338,
      "Ġhoch": 1339,
      "Ġbar": 1340,
      "antwort": 1341,
      "Ġfort": 1342,
      "Ġverbess": 1343,
      "eig": 1344,
      "lungen": 1345,
      "Ġumwelt": 1346,
      "tze": 1347,
      "tigung": 1348,
      "Ġop": 1349,
      "neh": 1350,
      "Ġglau": 1351,
      "spru": 1352,
      "Ġwes": 1353,
      "Ġstehen": 1354,
      "Ġsor": 1355,
      "Ġklar": 1356,
      "Ġarbeits": 1357,
      "va": 1358,
      "Ġaut": 1359,
      "Ġgemeinschaft": 1360,
      "spro": 1361,
      "Ġregion": 1362,
      "pu": 1363,
      "anden": 1364,
      "Ġfragen": 1365,
      "Ġbed": 1366,
      "Ġetwas": 1367,
      "fte": 1368,
      "Ġsti": 1369,
      "Ġsagen": 1370,
      "Ġscho": 1371,
      "ange": 1372,
      "sam": 1373,
      "Ġparlaments": 1374,
      "Ġalso": 1375,
      "Ġeinzel": 1376,
      "ÃŁt": 1377,
      "ph": 1378,
      "Ġkommen": 1379,
      "vi": 1380,
      "stitu": 1381,
      "Ġberich": 1382,
      "enden": 1383,
      "vers": 1384,
      "rlich": 1385,
      "linie": 1386,
      "ine": 1387,
      "Ġinner": 1388,
      "rden": 1389,
      "ckt": 1390,
      "Ġnamen": 1391,
      "arbei": 1392,
      "Ġ199": 1393,
      "ina": 1394,
      "Ġeinmal": 1395,
      "ron": 1396,
      "Ġmed": 1397,
      "wu": 1398,
      "tische": 1399,
      "Ġkunden": 1400,
      "zw": 1401,
      "Ġ7": 1402,
      "setzung": 1403,
      "Ġtun": 1404,
      "lieÃŁlich": 1405,
      "Ġerhalten": 1406,
      "Ġmarkt": 1407,
      "schaften": 1408,
      "rum": 1409,
      "Ġcom": 1410,
      "fft": 1411,
      "Ġstaat": 1412,
      "Ġerst": 1413,
      "Ġstellen": 1414,
      "Ġ[": 1415,
      "ert": 1416,
      "sung": 1417,
      "gleich": 1418,
      "strie": 1419,
      "ssung": 1420,
      "fri": 1421,
      "Ġfahr": 1422,
      "Ġlang": 1423,
      "Ġgeben": 1424,
      "unde": 1425,
      "Ġ8": 1426,
      "rich": 1427,
      "Ġanges": 1428,
      "Ġihrem": 1429,
      "Ġletzten": 1430,
      "yp": 1431,
      "Ġposi": 1432,
      "falls": 1433,
      "ahn": 1434,
      "zo": 1435,
      "gangen": 1436,
      "Ġverantwort": 1437,
      "rank": 1438,
      "Ġwi": 1439,
      "des": 1440,
      "gru": 1441,
      "Ġjeder": 1442,
      "amil": 1443,
      "Ġkam": 1444,
      "Ġerfolg": 1445,
      "gabe": 1446,
      "Ġart": 1447,
      "iet": 1448,
      "glichkeit": 1449,
      "Ġbenutz": 1450,
      "nderungsan": 1451,
      "Ġwelche": 1452,
      "Ġenergie": 1453,
      "Ġerkla": 1454,
      "ellschaft": 1455,
      "Ġ10": 1456,
      "von": 1457,
      "Ġkultur": 1458,
      "Ġide": 1459,
      "Ġbescha": 1460,
      "Ġgeho": 1461,
      "ations": 1462,
      "Ġwill": 1463,
      "Ġstatt": 1464,
      "ere": 1465,
      "po": 1466,
      "000": 1467,
      "tzt": 1468,
      "Ġaktiv": 1469,
      "Ġti": 1470,
      "Ġzusammenarbeit": 1471,
      "Ġoffen": 1472,
      "Ġheraus": 1473,
      "ktu": 1474,
      "Ġbesser": 1475,
      "gefu": 1476,
      "Ġempf": 1477,
      "Ġhaupt": 1478,
      "Ġtu": 1479,
      "ismus": 1480,
      "Ġbitte": 1481,
      "Ġfolgen": 1482,
      "lungs": 1483,
      "ca": 1484,
      "Ġangeb": 1485,
      "Ġvorschlag": 1486,
      "ware": 1487,
      "rder": 1488,
      "chst": 1489,
      "Ġbesteht": 1490,
      "do": 1491,
      "Ġserv": 1492,
      "Ġtro": 1493,
      "im": 1494,
      "zess": 1495,
      "Ġwahr": 1496,
      "Ġbedeut": 1497,
      "wie": 1498,
      "Ġbem": 1499,
      "Ġlebens": 1500,
      "10": 1501,
      "druck": 1502,
      "tes": 1503,
      "schri": 1504,
      "gestellt": 1505,
      "lex": 1506,
      "wendung": 1507,
      "Ġmill": 1508,
      "Ġentsprechen": 1509,
      "los": 1510,
      "ank": 1511,
      "ppen": 1512,
      "markt": 1513,
      "Ġseinen": 1514,
      "gaben": 1515,
      "Ġorganis": 1516,
      "Ġzun": 1517,
      "setzen": 1518,
      "Ġmeiner": 1519,
      "rk": 1520,
      "Ġsteht": 1521,
      "Ġbau": 1522,
      "ppe": 1523,
      "Ġweitere": 1524,
      "ache": 1525,
      "Ġweb": 1526,
      "isten": 1527,
      "Ġflug": 1528,
      "wirtschaft": 1529,
      "Ġbetra": 1530,
      "iell": 1531,
      "Ġseiten": 1532,
      "Ġvielen": 1533,
      "zieh": 1534,
      "ĠgroÃŁen": 1535,
      "erung": 1536,
      "Ġgele": 1537,
      "stimmung": 1538,
      "ign": 1539,
      "angen": 1540,
      "Ġwett": 1541,
      "tu": 1542,
      "Ġqualita": 1543,
      "esse": 1544,
      "Ġpart": 1545,
      "Ġweg": 1546,
      "bel": 1547,
      "nden": 1548,
      "Ġbekann": 1549,
      "ag": 1550,
      "rz": 1551,
      "Ġinternet": 1552,
      "Ġmei": 1553,
      "eren": 1554,
      "cke": 1555,
      "terstat": 1556,
      "Ġgra": 1557,
      "Ġentfern": 1558,
      "ĠgroÃŁe": 1559,
      "Ġdienst": 1560,
      "Ġgesetz": 1561,
      "fort": 1562,
      "ndig": 1563,
      "Ġfamil": 1564,
      "Ġak": 1565,
      "sk": 1566,
      "fiz": 1567,
      "Ġkollegen": 1568,
      "die": 1569,
      "bung": 1570,
      "ichts": 1571,
      "rechte": 1572,
      "Ġregierung": 1573,
      "licht": 1574,
      "Ġbesu": 1575,
      "Ġ9": 1576,
      "Ġalles": 1577,
      "Ġdirekt": 1578,
      "hil": 1579,
      "reffen": 1580,
      "ĠmuÃŁ": 1581,
      "stehen": 1582,
      "Ġthema": 1583,
      "unter": 1584,
      "Ġworden": 1585,
      "Ġblei": 1586,
      "Ġmacht": 1587,
      "Ġversu": 1588,
      "jekt": 1589,
      "Ġant": 1590,
      "mlich": 1591,
      "Ġderen": 1592,
      "eichen": 1593,
      "ian": 1594,
      "zep": 1595,
      "tigkeit": 1596,
      "Ġschnell": 1597,
      "undheit": 1598,
      "Ġir": 1599,
      "dingungen": 1600,
      "erik": 1601,
      "Ġdort": 1602,
      "gri": 1603,
      "Ġkontro": 1604,
      "bereich": 1605,
      "Ġbesonders": 1606,
      "politik": 1607,
      "Ġus": 1608,
      "glichen": 1609,
      "Ġvol": 1610,
      "Ġ...": 1611,
      "Ġinternationalen": 1612,
      "fang": 1613,
      "Ġbas": 1614,
      "Ġaktu": 1615,
      "Ġlau": 1616,
      "Ġergeb": 1617,
      "Ġprof": 1618,
      "ja": 1619,
      "schied": 1620,
      "Ġabsch": 1621,
      "Ġmal": 1622,
      "beh": 1623,
      "taur": 1624,
      "Ġbedeutung": 1625,
      "Ġvertrag": 1626,
      "fel": 1627,
      "Ġpl": 1628,
      "spra": 1629,
      "Ġschutz": 1630,
      "Ġad": 1631,
      "rem": 1632,
      "fon": 1633,
      "Ġseite": 1634,
      "halts": 1635,
      "our": 1636,
      "Ġzukunft": 1637,
      "ohl": 1638,
      "Ġsowohl": 1639,
      "ial": 1640,
      "ald": 1641,
      "Ġpolitik": 1642,
      "Ġmor": 1643,
      "Ġkinder": 1644,
      "Ġbild": 1645,
      "Ġbrau": 1646,
      "legt": 1647,
      "Ġdeutsch": 1648,
      "Ġhervor": 1649,
      "Ġdavon": 1650,
      "ens": 1651,
      "Ġwettbewer": 1652,
      "Ġgenau": 1653,
      "Ġinv": 1654,
      "nu": 1655,
      "Ġermo": 1656,
      "flu": 1657,
      "ktionen": 1658,
      "Ġtex": 1659,
      "Ġerwei": 1660,
      "sst": 1661,
      "bet": 1662,
      "Ġbegru": 1663,
      "Ġbeitra": 1664,
      "schutz": 1665,
      "wirk": 1666,
      "Ġfeh": 1667,
      "Ġnah": 1668,
      "Ġgegenu": 1669,
      "lker": 1670,
      "Ġweise": 1671,
      "mb": 1672,
      "ÌĢ": 1673,
      "Ġsitu": 1674,
      "Ġerreichen": 1675,
      "Ġspra": 1676,
      "Ġbieten": 1677,
      "Ġberichterstat": 1678,
      "fre": 1679,
      "lassen": 1680,
      "Ġ15": 1681,
      "Ġerforder": 1682,
      "blick": 1683,
      "Ġ%": 1684,
      "arte": 1685,
      "rise": 1686,
      "rd": 1687,
      "Ġnor": 1688,
      "kenn": 1689,
      "Ġwahl": 1690,
      "tem": 1691,
      "Ġpol": 1692,
      "ws": 1693,
      "fs": 1694,
      "Ġende": 1695,
      "rung": 1696,
      "Ġperson": 1697,
      "glichkeiten": 1698,
      "spe": 1699,
      "hang": 1700,
      "rand": 1701,
      "eta": 1702,
      "nnte": 1703,
      "Ġzwar": 1704,
      "Ġkra": 1705,
      "Ġweit": 1706,
      "Ġinnerhalb": 1707,
      "Ġtransp": 1708,
      "rieden": 1709,
      "Ġprobleme": 1710,
      "wach": 1711,
      "Ġfer": 1712,
      "Ġgren": 1713,
      "gesetzt": 1714,
      "Ġvi": 1715,
      "ative": 1716,
      "Ġfrauen": 1717,
      "ffiz": 1718,
      "Ġeigenen": 1719,
      "Ġdank": 1720,
      "Ġrel": 1721,
      "Ġpolitischen": 1722,
      "com": 1723,
      "ritte": 1724,
      "Ġpla": 1725,
      "Ġbefindet": 1726,
      "mente": 1727,
      "Ġinstitu": 1728,
      "atte": 1729,
      "ziel": 1730,
      "fassen": 1731,
      "Ġwach": 1732,
      "ium": 1733,
      "Ġtag": 1734,
      "Ġschwer": 1735,
      "Ġdeb": 1736,
      "Ġrestaur": 1737,
      "mu": 1738,
      "Ġindu": 1739,
      "Ġwirklich": 1740,
      "neten": 1741,
      "lob": 1742,
      "ister": 1743,
      "Ġap": 1744,
      "Ġhatte": 1745,
      "Ġdisku": 1746,
      "tell": 1747,
      "nger": 1748,
      "Ġversch": 1749,
      "Ġallgem": 1750,
      "Ġ18": 1751,
      "Ġgelegen": 1752,
      "inden": 1753,
      "ket": 1754,
      "ÂłÂł": 1755,
      "Ġwohl": 1756,
      "ast": 1757,
      "Ġstaaten": 1758,
      "anischen": 1759,
      "Ġausschuss": 1760,
      "Ġschu": 1761,
      "tikel": 1762,
      "Ġzentra": 1763,
      "oma": 1764,
      "Ġverschiedenen": 1765,
      "Ġforsch": 1766,
      "rieben": 1767,
      "Ġkurz": 1768,
      "schein": 1769,
      "tlich": 1770,
      "bilita": 1771,
      "Ġverbrau": 1772,
      "reise": 1773,
      "Ġentfernt": 1774,
      "gte": 1775,
      "ys": 1776,
      "Ġgesundheit": 1777,
      "Ġend": 1778,
      "werk": 1779,
      "Ġpersonen": 1780,
      "Ġberichterstatter": 1781,
      "Ġern": 1782,
      "tis": 1783,
      "fts": 1784,
      "Ġerwar": 1785,
      "Ġeinge": 1786,
      "Ġgo": 1787,
      "Ġeinzu": 1788,
      "cen": 1789,
      "ress": 1790,
      "Ġpreis": 1791,
      "rifft": 1792,
      "ierungs": 1793,
      "Ġrolle": 1794,
      "ĠÂłÂł": 1795,
      "Ġklein": 1796,
      "dings": 1797,
      "igt": 1798,
      "liegen": 1799,
      "za": 1800,
      "indung": 1801,
      "igkeiten": 1802,
      "schriften": 1803,
      "Ġpf": 1804,
      "eid": 1805,
      "racht": 1806,
      "system": 1807,
      "Ġkre": 1808,
      "ftware": 1809,
      "Ġkri": 1810,
      "Ġbehand": 1811,
      "hau": 1812,
      "Ġerste": 1813,
      "Ġglob": 1814,
      "Ġ12": 1815,
      "urg": 1816,
      "Ġbest": 1817,
      "Ġverpf": 1818,
      "Ġneben": 1819,
      "Ġsan": 1820,
      "oten": 1821,
      "Ġverl": 1822,
      "Ġmil": 1823,
      "eicht": 1824,
      "chsten": 1825,
      "Ġgef": 1826,
      "Ġort": 1827,
      "agt": 1828,
      "zip": 1829,
      "Ġfir": 1830,
      "Ġschwier": 1831,
      "Ġallerdings": 1832,
      "Ġperso": 1833,
      "ï¿": 1834,
      "Ġmeinung": 1835,
      "ï¿½": 1836,
      "weit": 1837,
      "uÃŁer": 1838,
      "Ġrichtlinie": 1839,
      "reifen": 1840,
      "Ġhinter": 1841,
      "zeug": 1842,
      "ĠauÃŁerdem": 1843,
      "Ġsozial": 1844,
      "Ġkor": 1845,
      "Ġanzu": 1846,
      "Ġwasser": 1847,
      "Ġhinaus": 1848,
      "ehn": 1849,
      "Ġvier": 1850,
      "Ġunterschied": 1851,
      "zimmer": 1852,
      "igten": 1853,
      "Ġusa": 1854,
      "Ġmodern": 1855,
      "Ġgefa": 1856,
      "spolitik": 1857,
      "tin": 1858,
      "ologie": 1859,
      "ring": 1860,
      "Ġaufge": 1861,
      "eist": 1862,
      "eg": 1863,
      "durch": 1864,
      "Ġbi": 1865,
      "sweise": 1866,
      "sidentin": 1867,
      "staat": 1868,
      "Ġkonn": 1869,
      "Ġnutzen": 1870,
      "Ġsk": 1871,
      "Ġleist": 1872,
      "Ġsy": 1873,
      "tegie": 1874,
      "Ġgerade": 1875,
      "dition": 1876,
      "weisen": 1877,
      "voll": 1878,
      "Ġgesellschaft": 1879,
      "mals": 1880,
      "Ġindustrie": 1881,
      "ure": 1882,
      "ala": 1883,
      "Ġsto": 1884,
      "achten": 1885,
      "chlich": 1886,
      "Ġhel": 1887,
      "one": 1888,
      "Ġgener": 1889,
      "Ġbestehen": 1890,
      "Ġklima": 1891,
      "pru": 1892,
      "Ġversta": 1893,
      "Ġuhr": 1894,
      "Ġerho": 1895,
      "merk": 1896,
      "Ġpartner": 1897,
      "Ġwesent": 1898,
      "Ġspezi": 1899,
      "haus": 1900,
      "wand": 1901,
      "Ġerweiter": 1902,
      "cks": 1903,
      "hof": 1904,
      "Ġkommt": 1905,
      "Ġbezug": 1906,
      "Ġph": 1907,
      "timmt": 1908,
      "Ġzusammenhang": 1909,
      "gement": 1910,
      "nehmer": 1911,
      "stall": 1912,
      "zogen": 1913,
      "Ġnehmen": 1914,
      "Ġsituation": 1915,
      "Ġnu": 1916,
      "fassung": 1917,
      "Ġbeiden": 1918,
      "Ġabgeord": 1919,
      "]]": 1920,
      "erne": 1921,
      "Ġjeden": 1922,
      "ilt": 1923,
      "Ġunserem": 1924,
      "mpf": 1925,
      "line": 1926,
      "Ġarbeiten": 1927,
      "rfen": 1928,
      "ct": 1929,
      "Ġdemokra": 1930,
      "gegen": 1931,
      "sichtlich": 1932,
      "bern": 1933,
      "Ġindem": 1934,
      "stum": 1935,
      "reg": 1936,
      "Ġdaran": 1937,
      "ĠentschlieÃŁ": 1938,
      "Ġverm": 1939,
      "Ġwert": 1940,
      "Ġartikel": 1941,
      "Ġas": 1942,
      "Ġausges": 1943,
      "Ġverhand": 1944,
      "Ġeng": 1945,
      "wert": 1946,
      "Ġgemeinsamen": 1947,
      "Ġgefu": 1948,
      "rieb": 1949,
      "ierungen": 1950,
      "Ġaufgrund": 1951,
      "tte": 1952,
      "uf": 1953,
      "Ġ'": 1954,
      "Ġschluss": 1955,
      "teilung": 1956,
      "Ġforder": 1957,
      "Ġetwa": 1958,
      "ity": 1959,
      "ferenz": 1960,
      "ps": 1961,
      "zeitig": 1962,
      "Ġstru": 1963,
      "baren": 1964,
      "Ġschul": 1965,
      "Ġstellt": 1966,
      "Ġnatur": 1967,
      "Ġruss": 1968,
      "Ġhilfe": 1969,
      "Ġbringen": 1970,
      "ieten": 1971,
      "Ġtour": 1972,
      "Ġweniger": 1973,
      "Ġbru": 1974,
      "Ġvera": 1975,
      "ffentlichen": 1976,
      "Ġdru": 1977,
      "frage": 1978,
      "go": 1979,
      "Ġ0": 1980,
      "ĠÂ": 1981,
      "lieÃŁen": 1982,
      "Ġsogar": 1983,
      "Ġentscheiden": 1984,
      "200": 1985,
      "sik": 1986,
      "hei": 1987,
      "anken": 1988,
      "leistungen": 1989,
      "Ġ[[": 1990,
      "Ġanst": 1991,
      "reiben": 1992,
      "Ġkonk": 1993,
      "bri": 1994,
      "Ġbzw": 1995,
      "Ġunver": 1996,
      "eitung": 1997,
      "wohl": 1998,
      "Ġverk": 1999,
      "Ġebenfalls": 2000,
      "forderungen": 2001,
      "rak": 2002,
      "Ġhe": 2003,
      "Ġgilt": 2004,
      "Ġfraktion": 2005,
      "Ġdarf": 2006,
      "reiche": 2007,
      "Ġverkehr": 2008,
      "alisierung": 2009,
      "Ġverfahren": 2010,
      "Ġkla": 2011,
      "Ġgesagt": 2012,
      "Ġdeutschland": 2013,
      "Ġschri": 2014,
      "Ġgute": 2015,
      "Ġveran": 2016,
      "Ġerfahr": 2017,
      "Ġital": 2018,
      "Ġdarin": 2019,
      "ly": 2020,
      "Ġunab": 2021,
      "Ġhaushalts": 2022,
      "tive": 2023,
      "Ġkonf": 2024,
      "einander": 2025,
      "stadt": 2026,
      "Ġnichts": 2027,
      "Ġstruktur": 2028,
      "Ġx": 2029,
      "cksich": 2030,
      "Ġrates": 2031,
      "tragen": 2032,
      "ssystem": 2033,
      "bahn": 2034,
      "Ġjahres": 2035,
      "mon": 2036,
      "Ġpunkt": 2037,
      "ug": 2038,
      "Ġschi": 2039,
      "tions": 2040,
      "Ġeuropas": 2041,
      "sei": 2042,
      "op": 2043,
      "Ġwider": 2044,
      "site": 2045,
      "hunder": 2046,
      "Ġinves": 2047,
      "verkehr": 2048,
      "roffen": 2049,
      "Ġgehen": 2050,
      "Ġprodukte": 2051,
      "Ġihm": 2052,
      "etzen": 2053,
      "ielleicht": 2054,
      "Ġfern": 2055,
      "wendet": 2056,
      "Ġhotels": 2057,
      "tat": 2058,
      "Ġdel": 2059,
      "Ġerwa": 2060,
      "Ġpolitische": 2061,
      "ĠauÃŁen": 2062,
      "Ġvergangen": 2063,
      "Ġihn": 2064,
      "fla": 2065,
      "Ġvielleicht": 2066,
      "prache": 2067,
      "nderungen": 2068,
      "Ġschla": 2069,
      "Ġweiterhin": 2070,
      "ak": 2071,
      "Ġrechte": 2072,
      "ratie": 2073,
      "produ": 2074,
      "ember": 2075,
      "Ġdessen": 2076,
      "Ġmeisten": 2077,
      "Ġsoftware": 2078,
      "wahl": 2079,
      "20": 2080,
      "sti": 2081,
      "Ġiniti": 2082,
      "Ġgeld": 2083,
      "Ġverbunden": 2084,
      "Ġfil": 2085,
      "Ġbetrifft": 2086,
      "ali": 2087,
      "urs": 2088,
      "Ġgleichzeitig": 2089,
      "gten": 2090,
      "altung": 2091,
      "Ġzugang": 2092,
      "Ġspezie": 2093,
      "rom": 2094,
      "are": 2095,
      "Ġerfu": 2096,
      "Ġseinem": 2097,
      "ital": 2098,
      "Ġprojekt": 2099,
      "Ġgemacht": 2100,
      "Ġ&": 2101,
      "hlt": 2102,
      "arbeiten": 2103,
      "Ġfortsch": 2104,
      "inen": 2105,
      "Ġschrift": 2106,
      "Ġ2009": 2107,
      "Ġfreu": 2108,
      "Ġservice": 2109,
      "leben": 2110,
      "Ġport": 2111,
      "Ġsteuer": 2112,
      "liches": 2113,
      "alog": 2114,
      "Ġinteress": 2115,
      "ob": 2116,
      "Ġbeteil": 2117,
      "Ġbus": 2118,
      "isches": 2119,
      "Ġamerik": 2120,
      "Ġschaffen": 2121,
      "ennen": 2122,
      "Ġgenann": 2123,
      "istor": 2124,
      "llung": 2125,
      "reicht": 2126,
      "Ġtrotz": 2127,
      "Ġglaube": 2128,
      "ches": 2129,
      "arten": 2130,
      "sungen": 2131,
      "nete": 2132,
      "Ġpriv": 2133,
      "Ġebenso": 2134,
      "ĠÐ": 2135,
      "ase": 2136,
      "Ġuni": 2137,
      "Ġnationalen": 2138,
      "ssel": 2139,
      "atur": 2140,
      "aut": 2141,
      "tag": 2142,
      "Ġsolche": 2143,
      "gebung": 2144,
      "programm": 2145,
      "itzen": 2146,
      "gern": 2147,
      "Ġitalien": 2148,
      "prochen": 2149,
      "Ġproduktion": 2150,
      "Ġkenn": 2151,
      "Ġzer": 2152,
      "esten": 2153,
      "tien": 2154,
      "Ġdok": 2155,
      "utet": 2156,
      "Ġwirtschafts": 2157,
      "sol": 2158,
      "Ġauto": 2159,
      "Ġfar": 2160,
      "Ġeinigen": 2161,
      "Ġmeer": 2162,
      "Ġkommun": 2163,
      "ari": 2164,
      "Ġeinsch": 2165,
      "pla": 2166,
      "Ġsollen": 2167,
      "Ġmillionen": 2168,
      "Ġac": 2169,
      "Ġplan": 2170,
      "hnt": 2171,
      "itt": 2172,
      "Ġverbraucher": 2173,
      "Ġmet": 2174,
      "Ġstandard": 2175,
      "Ġjahrhunder": 2176,
      "ate": 2177,
      "Ġgenie": 2178,
      "higkeit": 2179,
      "Ġentwicklungs": 2180,
      "frei": 2181,
      "Ġbrauchen": 2182,
      "Ġunabha": 2183,
      "Ġausfu": 2184,
      "nderungsantra": 2185,
      "zer": 2186,
      "lick": 2187,
      "port": 2188,
      "Ġ30": 2189,
      "Ġsitz": 2190,
      "zufu": 2191,
      "Ġinstru": 2192,
      "bare": 2193,
      "bru": 2194,
      "eigt": 2195,
      "llig": 2196,
      "Ġhandelt": 2197,
      "age": 2198,
      "Ġgol": 2199,
      "Ġkeinen": 2200,
      "ÌĮ": 2201,
      "komm": 2202,
      "alten": 2203,
      "nov": 2204,
      "eits": 2205,
      "Ġaussprache": 2206,
      "Ġkolleg": 2207,
      "Ġapp": 2208,
      "Ġtatsa": 2209,
      "Ġbesten": 2210,
      "Ġbezieh": 2211,
      "ator": 2212,
      "ech": 2213,
      "verb": 2214,
      "Ġ/": 2215,
      "unkte": 2216,
      "Ġfot": 2217,
      "Ġoft": 2218,
      "ativen": 2219,
      "Ġwohn": 2220,
      "hnen": 2221,
      "Ġbevor": 2222,
      "Ġzie": 2223,
      "ziehen": 2224,
      "Ġkun": 2225,
      "Ġbekannt": 2226,
      "Ġstimm": 2227,
      "ror": 2228,
      "Ġhistor": 2229,
      "Ġkonta": 2230,
      "Ġpass": 2231,
      "hem": 2232,
      "Ġzuna": 2233,
      "Ġumfassen": 2234,
      "Ġebene": 2235,
      "laub": 2236,
      "ies": 2237,
      "immt": 2238,
      "Ġbeno": 2239,
      "Ġgemeinsam": 2240,
      "Ġvertrau": 2241,
      "Ġwenig": 2242,
      "Ġbemu": 2243,
      "ance": 2244,
      "Ġbeho": 2245,
      "stellt": 2246,
      "Ġtradition": 2247,
      "Ġobwohl": 2248,
      "renz": 2249,
      "Ġbedeutet": 2250,
      "bi": 2251,
      "ore": 2252,
      "verfahren": 2253,
      "Ġpark": 2254,
      "Ġei": 2255,
      "Ġwebsite": 2256,
      "maÃŁ": 2257,
      "Ġvereinbar": 2258,
      "Ġpru": 2259,
      "Ġbew": 2260,
      "Ġprak": 2261,
      "Ġpu": 2262,
      "Ġwichtige": 2263,
      "Ġfrank": 2264,
      "zeichnet": 2265,
      "Ġgegeben": 2266,
      "Ġabstimmung": 2267,
      "Ġinstall": 2268,
      "umen": 2269,
      "Ġfischer": 2270,
      "Ġonline": 2271,
      "Ġkat": 2272,
      "Ġprodukt": 2273,
      "Ġgemeinsame": 2274,
      "Ġeinfu": 2275,
      "Ġdeutlich": 2276,
      "Ġbevo": 2277,
      "Ġfe": 2278,
      "od": 2279,
      "Ġelekt": 2280,
      "Ġaner": 2281,
      "Ġnetz": 2282,
      "tzlich": 2283,
      "Ġober": 2284,
      "Ġeinger": 2285,
      "Ġrund": 2286,
      "Ġfla": 2287,
      "gelegt": 2288,
      "Ġdarum": 2289,
      "Ġmus": 2290,
      "Ġjo": 2291,
      "ĠweiÃŁ": 2292,
      "Ġbeispielsweise": 2293,
      "Ġspan": 2294,
      "Ġvorgesch": 2295,
      "berein": 2296,
      "ktor": 2297,
      "Ġnieder": 2298,
      "ument": 2299,
      "Ġauszu": 2300,
      "Ġwegen": 2301,
      "ana": 2302,
      "asst": 2303,
      "haltung": 2304,
      "Ġsen": 2305,
      "Ġwissenschaft": 2306,
      "Ġmenschenrechte": 2307,
      "Ġdemokratie": 2308,
      "ffung": 2309,
      "Ġfindet": 2310,
      "fung": 2311,
      "rinzip": 2312,
      "achen": 2313,
      "Ġ25": 2314,
      "Ġri": 2315,
      "euer": 2316,
      "Ġhu": 2317,
      "Ġumsetzung": 2318,
      "Ġsport": 2319,
      "Ġkunst": 2320,
      "Ġrichtung": 2321,
      "org": 2322,
      "sache": 2323,
      "versta": 2324,
      "wn": 2325,
      "Ġag": 2326,
      "ins": 2327,
      "rderung": 2328,
      "mt": 2329,
      "Ġinnov": 2330,
      "vent": 2331,
      "pan": 2332,
      "Ġ14": 2333,
      "chter": 2334,
      "treten": 2335,
      "Ġihres": 2336,
      "Ġansicht": 2337,
      "terial": 2338,
      "berzeu": 2339,
      "blik": 2340,
      "reiten": 2341,
      "platz": 2342,
      "Ġpara": 2343,
      "richtung": 2344,
      "Ġkap": 2345,
      "orien": 2346,
      "Ġabkommen": 2347,
      "Ġdrit": 2348,
      "con": 2349,
      "Ġbuch": 2350,
      "Ġwettbewerbs": 2351,
      "jen": 2352,
      "Ġwerde": 2353,
      "Ġempfeh": 2354,
      "scht": 2355,
      "Ġjede": 2356,
      "leichen": 2357,
      "Ġansch": 2358,
      "Ġherren": 2359,
      "Ġbesta": 2360,
      "Ġero": 2361,
      "Ġwachstum": 2362,
      "Ġnotwendig": 2363,
      "Ġjedes": 2364,
      "gungen": 2365,
      "ret": 2366,
      "Ġanwendung": 2367,
      "frist": 2368,
      "Ġunbe": 2369,
      "struktur": 2370,
      "Ġkleinen": 2371,
      "Ġaussch": 2372,
      "Ġluft": 2373,
      "ĠschlieÃŁlich": 2374,
      "Ġ16": 2375,
      "Ġtages": 2376,
      "Ġ11": 2377,
      "dio": 2378,
      "Ġschritt": 2379,
      "cker": 2380,
      "Ġweiteren": 2381,
      "Ġverantwortung": 2382,
      "Ġerziel": 2383,
      "Ġbedingungen": 2384,
      "Ġhandel": 2385,
      "Ġles": 2386,
      "wiesen": 2387,
      "Ġkm": 2388,
      "burg": 2389,
      "ement": 2390,
      "wirkungen": 2391,
      "Ġinternationale": 2392,
      "Ġsprechen": 2393,
      "Ġbra": 2394,
      "Ġbeka": 2395,
      "Ġren": 2396,
      "Ġentscheidung": 2397,
      "Ġhoffe": 2398,
      "ou": 2399,
      "linien": 2400,
      "Ġpe": 2401,
      "Ġ17": 2402,
      "Ġpartei": 2403,
      "Ġaben": 2404,
      "resse": 2405,
      "Ġplatz": 2406,
      "Ġgebiet": 2407,
      "Ġwort": 2408,
      "ffizien": 2409,
      "Ġliegen": 2410,
      "iges": 2411,
      "Ġris": 2412,
      "jahr": 2413,
      "lkerung": 2414,
      "ichtet": 2415,
      "Ġjewei": 2416,
      "âĢĿ": 2417,
      "Ġdin": 2418,
      "Ġjen": 2419,
      "Ġhalten": 2420,
      "Ġziele": 2421,
      "Ġaufmerk": 2422,
      "Ġeinsatz": 2423,
      "Ġ|": 2424,
      "Ġsozialen": 2425,
      "emen": 2426,
      "Ġinteresse": 2427,
      "Ġit": 2428,
      "Ġgrundlage": 2429,
      "Ġverpflich": 2430,
      "sion": 2431,
      "Ġtele": 2432,
      "Ġvollsta": 2433,
      "Ġraum": 2434,
      "gew": 2435,
      "Ġbisher": 2436,
      "Ġmusik": 2437,
      "Ġvis": 2438,
      "iten": 2439,
      "teilen": 2440,
      "Ġverwendet": 2441,
      "Ġverschiedene": 2442,
      "Ġenthalten": 2443,
      "Ġkrie": 2444,
      "Ġcha": 2445,
      "Ġhar": 2446,
      "tten": 2447,
      "Ġmitarbei": 2448,
      "por": 2449,
      "ip": 2450,
      "Ġeinzelnen": 2451,
      "Ġindi": 2452,
      "ende": 2453,
      "greifen": 2454,
      "Ð¾": 2455,
      "uni": 2456,
      "Ġfrieden": 2457,
      "Ġangelegen": 2458,
      "Ġlandwirtschaft": 2459,
      "arbeitung": 2460,
      "Ġliefer": 2461,
      "Ġnord": 2462,
      "Ġvero": 2463,
      "Ġbleiben": 2464,
      "Ġerreicht": 2465,
      "Ġlange": 2466,
      "plan": 2467,
      "all": 2468,
      "Ġfast": 2469,
      "bildung": 2470,
      "Ġfamilien": 2471,
      "Ġinte": 2472,
      "Ġreihe": 2473,
      "ÌĤ": 2474,
      "nnten": 2475,
      "lang": 2476,
      "Ġgeschichte": 2477,
      "Ġbewe": 2478,
      "ette": 2479,
      "Ġza": 2480,
      "amt": 2481,
      "jekte": 2482,
      "auft": 2483,
      "weis": 2484,
      "zustellen": 2485,
      "Ġarbeitsp": 2486,
      "par": 2487,
      "ndlich": 2488,
      "orden": 2489,
      "Ġkraft": 2490,
      "Ġweltweit": 2491,
      "Ġleider": 2492,
      "det": 2493,
      "Ġaufmerksam": 2494,
      "isierung": 2495,
      "berpru": 2496,
      "hstu": 2497,
      "Ġbri": 2498,
      "Ġopti": 2499,
      "techn": 2500,
      "ters": 2501,
      "ble": 2502,
      "Ġdebatte": 2503,
      "Ġbefu": 2504,
      "sehen": 2505,
      "Ġdamen": 2506,
      "Ġfranz": 2507,
      "th": 2508,
      "glicht": 2509,
      "Ġunivers": 2510,
      "nderungsantrag": 2511,
      "tungen": 2512,
      "ffentlich": 2513,
      "Ġeinzi": 2514,
      "Ġrestaurant": 2515,
      "Ġlok": 2516,
      "anten": 2517,
      "vis": 2518,
      "Ġschlu": 2519,
      "Ġchina": 2520,
      "Ġersch": 2521,
      "âĢĻ": 2522,
      "dungen": 2523,
      "zeigt": 2524,
      "Ġnachhal": 2525,
      "mitteln": 2526,
      "Ġvorgeschlagen": 2527,
      "Ġhinblick": 2528,
      "Ġblick": 2529,
      "Ġsicherheits": 2530,
      "dat": 2531,
      "aren": 2532,
      "erk": 2533,
      "Ġterror": 2534,
      "Ġblo": 2535,
      "eiden": 2536,
      "tex": 2537,
      "Ġ13": 2538,
      "auss": 2539,
      "fo": 2540,
      "bank": 2541,
      "ektor": 2542,
      "ĠâĢľ": 2543,
      "Ġfreund": 2544,
      "kom": 2545,
      "standen": 2546,
      "indest": 2547,
      "Ġinvesti": 2548,
      "ith": 2549,
      "met": 2550,
      "Ġfes": 2551,
      "Ġ50": 2552,
      "Ġlandes": 2553,
      "Ġminuten": 2554,
      "yn": 2555,
      "Ġgelten": 2556,
      "atten": 2557,
      "Ġmensch": 2558,
      "Ġkau": 2559,
      "Ġarch": 2560,
      "Ġ2010": 2561,
      "gesehen": 2562,
      "orita": 2563,
      "Ġfinanzie": 2564,
      "Ġforschung": 2565,
      "gi": 2566,
      "Ġautoma": 2567,
      "ings": 2568,
      "Ġakzep": 2569,
      "Ġ2008": 2570,
      "Ġinstitutionen": 2571,
      "Ġzeigt": 2572,
      "Ġstrategie": 2573,
      "Ġdiskuss": 2574,
      "Ġverfol": 2575,
      "Ġprozess": 2576,
      "Ġwind": 2577,
      "Ġerhe": 2578,
      "Ġauswirkungen": 2579,
      "Ġerforderlich": 2580,
      "Ġhol": 2581,
      "gliche": 2582,
      "mel": 2583,
      "-,": 2584,
      "Ġabzu": 2585,
      "teile": 2586,
      "Ġuntersu": 2587,
      "Ġergebnis": 2588,
      "Ġbinnen": 2589,
      "mail": 2590,
      "fragen": 2591,
      "ichten": 2592,
      "ingt": 2593,
      "iko": 2594,
      "Ġzentrum": 2595,
      "Ġdienstleistungen": 2596,
      "Ġhatten": 2597,
      "Ġgesamten": 2598,
      "jenigen": 2599,
      "Ġleg": 2600,
      "Ġwunder": 2601,
      "agement": 2602,
      "Ġtatsache": 2603,
      "tter": 2604,
      "auer": 2605,
      "Ġausdruck": 2606,
      "ote": 2607,
      "Ġdatei": 2608,
      "Ġwirtschaftlichen": 2609,
      "nissen": 2610,
      "dit": 2611,
      "Ġentde": 2612,
      "Ġsorgen": 2613,
      "Ġsicht": 2614,
      "erheit": 2615,
      "Ġangesichts": 2616,
      "Ìĥ": 2617,
      "Ġdanken": 2618,
      "lauf": 2619,
      "Ġregionen": 2620,
      "steh": 2621,
      "Ġdefin": 2622,
      "ms": 2623,
      "istischen": 2624,
      "laden": 2625,
      "Ġbr": 2626,
      "Ġsin": 2627,
      "Ġinteressen": 2628,
      "Ġsetzen": 2629,
      "nschen": 2630,
      "als": 2631,
      "Ġabgeordneten": 2632,
      "vidu": 2633,
      "Ġgegenwa": 2634,
      "ight": 2635,
      "tete": 2636,
      "Ġdadurch": 2637,
      "ragen": 2638,
      "sidentschaft": 2639,
      "Ġ100": 2640,
      "mpfung": 2641,
      "Ġtreffen": 2642,
      "dell": 2643,
      "tiger": 2644,
      "Ġanal": 2645,
      "Ġzwe": 2646,
      "Ġkolleginnen": 2647,
      "Ġgestal": 2648,
      "inter": 2649,
      "Ġhohen": 2650,
      "Ġanspru": 2651,
      "Ġentwickelt": 2652,
      "eile": 2653,
      "ndigen": 2654,
      "Ġgab": 2655,
      "Ġzudem": 2656,
      "Ġtext": 2657,
      "fi": 2658,
      "Ġangenommen": 2659,
      "Ġzusta": 2660,
      "teilt": 2661,
      "arita": 2662,
      "Ġgaran": 2663,
      "ogra": 2664,
      "Ġwarum": 2665,
      "ktive": 2666,
      "Ġindividu": 2667,
      "sidenten": 2668,
      "Ġveranst": 2669,
      "Ġunge": 2670,
      "ci": 2671,
      "Ġspielen": 2672,
      "uropa": 2673,
      "Ġdenke": 2674,
      "Ġjedem": 2675,
      "ndert": 2676,
      "Ġmitglieder": 2677,
      "Ġanw": 2678,
      "rieren": 2679,
      "geschlossen": 2680,
      "rechts": 2681,
      "Ġfach": 2682,
      "Ġmorgen": 2683,
      "Ġversion": 2684,
      "Ġherz": 2685,
      "Ġkompl": 2686,
      "nderung": 2687,
      "fik": 2688,
      "Ġanb": 2689,
      "cu": 2690,
      "Ġvereinigten": 2691,
      "rop": 2692,
      "Ġverhandlungen": 2693,
      "Ġbeginn": 2694,
      "Ġbereichen": 2695,
      "Ġantwort": 2696,
      "hinder": 2697,
      "Ġschwei": 2698,
      "Ġbefinden": 2699,
      "Ġfranzo": 2700,
      "Ġkomfort": 2701,
      "ap": 2702,
      "hend": 2703,
      "Ġair": 2704,
      "gbar": 2705,
      "Ġkleine": 2706,
      "arbeitet": 2707,
      "Ġvide": 2708,
      "rf": 2709,
      "tiges": 2710,
      "Ġgere": 2711,
      "Ġderzeit": 2712,
      "Ġgema": 2713,
      "Ġblu": 2714,
      "Ġkonnte": 2715,
      "iere": 2716,
      "Ġbewer": 2717,
      "tattet": 2718,
      "Ġbedeuten": 2719,
      "ry": 2720,
      "ÃŁig": 2721,
      "Ġhinsichtlich": 2722,
      "daten": 2723,
      "zun": 2724,
      "edig": 2725,
      "Ġgerne": 2726,
      "Ġbeziehungen": 2727,
      "sitz": 2728,
      "Ġtau": 2729,
      "oche": 2730,
      "schn": 2731,
      "ĠheiÃŁt": 2732,
      "serv": 2733,
      "Ġeffe": 2734,
      "ordin": 2735,
      "Ġmehrere": 2736,
      "Ġ24": 2737,
      "Ġhaushalt": 2738,
      "hrungs": 2739,
      "kan": 2740,
      "bin": 2741,
      "Ġdire": 2742,
      "Ġverha": 2743,
      "tifiz": 2744,
      "Ġwerk": 2745,
      "nig": 2746,
      "Ġdurchfu": 2747,
      "Ġhelfen": 2748,
      "Ġunseres": 2749,
      "ments": 2750,
      "Ġsinn": 2751,
      "hotel": 2752,
      "Ġwebs": 2753,
      "\",": 2754,
      "Ġ2007": 2755,
      "ÃŁten": 2756,
      "Ġnahe": 2757,
      "arf": 2758,
      "rkei": 2759,
      "Ġpala": 2760,
      "rist": 2761,
      "Ġganzen": 2762,
      "Ġangem": 2763,
      "formen": 2764,
      "Ġruh": 2765,
      "Ġthemen": 2766,
      "Ġgewalt": 2767,
      "Ġganze": 2768,
      "Ġvolk": 2769,
      "Ġflex": 2770,
      "Ġmeinen": 2771,
      "Ġdruck": 2772,
      "Ġrussland": 2773,
      "Ġfischerei": 2774,
      "Ġtie": 2775,
      "ive": 2776,
      "ame": 2777,
      "Ġsomit": 2778,
      "auber": 2779,
      "ont": 2780,
      "Ġimm": 2781,
      "richtungen": 2782,
      "Ġaufgabe": 2783,
      "Ġbal": 2784,
      "Ġreform": 2785,
      "Ġflugha": 2786,
      "ls": 2787,
      "Ġgast": 2788,
      "Ġdesign": 2789,
      "Ðµ": 2790,
      "denken": 2791,
      "Ġmiss": 2792,
      "pen": 2793,
      "tiven": 2794,
      "Ġmeines": 2795,
      "tember": 2796,
      "Ġdialog": 2797,
      "ftigung": 2798,
      "ino": 2799,
      "Ġliste": 2800,
      "bedingungen": 2801,
      "Ð¸": 2802,
      "inner": 2803,
      "Ġdra": 2804,
      "Ġschlussel": 2805,
      "Ġgestellt": 2806,
      "Ġintegra": 2807,
      "Ġkontrolle": 2808,
      "Ġwichtigen": 2809,
      "Ġfehler": 2810,
      "Ġbelie": 2811,
      "Ġmilita": 2812,
      "iv": 2813,
      "fonds": 2814,
      "Ġaugen": 2815,
      "nge": 2816,
      "Ġverbindung": 2817,
      "Ġkampf": 2818,
      "ration": 2819,
      "klu": 2820,
      "Ġerweiterung": 2821,
      "Ġtier": 2822,
      "Ġhandels": 2823,
      "ppel": 2824,
      "ehm": 2825,
      "Ġbleibt": 2826,
      "Ġstre": 2827,
      "ngig": 2828,
      "Ð°": 2829,
      "wur": 2830,
      "Ġinteg": 2831,
      "Ġbeein": 2832,
      "Ġangebot": 2833,
      "Ġschein": 2834,
      "Ġumfang": 2835,
      "Ġgestimmt": 2836,
      "entwick": 2837,
      "ix": 2838,
      "Ġrichtig": 2839,
      "Ġreise": 2840,
      "ater": 2841,
      "Ġsal": 2842,
      "Ġausschusses": 2843,
      "Ġleu": 2844,
      "50": 2845,
      "worten": 2846,
      "Ġged": 2847,
      "mitglie": 2848,
      "untern": 2849,
      "zunehmen": 2850,
      "Ġbekommen": 2851,
      "Ġgeba": 2852,
      "Ġrechn": 2853,
      "Ġ:": 2854,
      "Ġverteid": 2855,
      "abon": 2856,
      "Ġstaats": 2857,
      "lass": 2858,
      "Ġverordnung": 2859,
      "scher": 2860,
      "Ġstrand": 2861,
      "ĠentschlieÃŁung": 2862,
      "Ġnutzung": 2863,
      "schlag": 2864,
      "rungen": 2865,
      "Ġind": 2866,
      "gro": 2867,
      "ans": 2868,
      "Ġinformation": 2869,
      "folge": 2870,
      "stoff": 2871,
      "Ġfalls": 2872,
      "Ġanfang": 2873,
      "Ġtechnolog": 2874,
      "erv": 2875,
      "Ġcar": 2876,
      "Ġstrateg": 2877,
      "ĠfuÃŁ": 2878,
      "Ġerlau": 2879,
      "Ġtrans": 2880,
      "ufig": 2881,
      "ĠgenieÃŁen": 2882,
      "dienst": 2883,
      "onnen": 2884,
      "30": 2885,
      "ire": 2886,
      "rdern": 2887,
      "Ġtyp": 2888,
      "rker": 2889,
      "Ġmitarbeiter": 2890,
      "Ġmul": 2891,
      "Ġverwenden": 2892,
      "Ġchar": 2893,
      "Ġalt": 2894,
      "Ġstimme": 2895,
      "kraft": 2896,
      "Ġvertre": 2897,
      "Ġbro": 2898,
      "Ġflexi": 2899,
      "Ġernst": 2900,
      "Ġaufent": 2901,
      "here": 2902,
      "Ġeur": 2903,
      "haft": 2904,
      "Ġwichtigsten": 2905,
      "rper": 2906,
      "Ġlux": 2907,
      "19": 2908,
      "Ġentha": 2909,
      "Ġeinzig": 2910,
      "Ġzuge": 2911,
      "Ġbeitrag": 2912,
      "ober": 2913,
      "sh": 2914,
      "Ġwochen": 2915,
      "issabon": 2916,
      "Ġkir": 2917,
      "griff": 2918,
      "Ġschle": 2919,
      "Ġvorzu": 2920,
      "hungen": 2921,
      "ngen": 2922,
      "Ġeinheit": 2923,
      "Ġstelle": 2924,
      "Ġmag": 2925,
      "stellungen": 2926,
      "gesamt": 2927,
      "ziert": 2928,
      "ingen": 2929,
      "Ġirgend": 2930,
      "Ġverla": 2931,
      "ffer": 2932,
      "hm": 2933,
      "spha": 2934,
      "Ġkoordin": 2935,
      "ld": 2936,
      "Ġlissabon": 2937,
      "Ġ-,": 2938,
      "Ġkrise": 2939,
      "Ġisra": 2940,
      "les": 2941,
      "Ġsub": 2942,
      "lieÃŁend": 2943,
      "Ġhohe": 2944,
      "Ġfrankreich": 2945,
      "Ġstark": 2946,
      "Ġwobei": 2947,
      "part": 2948,
      "Ġaufzu": 2949,
      "reu": 2950,
      "Ġverbesserung": 2951,
      "besch": 2952,
      "Ġwest": 2953,
      "toko": 2954,
      "hrer": 2955,
      "vorschriften": 2956,
      "Ġsc": 2957,
      "eller": 2958,
      "Ġberlin": 2959,
      "Ġaktivita": 2960,
      "Ġgeeig": 2961,
      "Ġgruppe": 2962,
      "sor": 2963,
      "Ġzeigen": 2964,
      "sab": 2965,
      "Ġkonzent": 2966,
      "Ġauswahl": 2967,
      "wander": 2968,
      "obil": 2969,
      "Ġliber": 2970,
      "Ġdeta": 2971,
      "Ġbetroffen": 2972,
      "indu": 2973,
      "finden": 2974,
      "Ġvorber": 2975,
      "handen": 2976,
      "brigen": 2977,
      "fahrt": 2978,
      "Ġwith": 2979,
      "up": 2980,
      "Ġzweiten": 2981,
      "deu": 2982,
      "chan": 2983,
      "pfer": 2984,
      "publik": 2985,
      "Ġallein": 2986,
      "ÃŁte": 2987,
      "Ġbinnenmarkt": 2988,
      "Ġvorher": 2989,
      "Ġabsol": 2990,
      "Ġinsgesamt": 2991,
      "Ġguten": 2992,
      "halte": 2993,
      "Ġjan": 2994,
      "usst": 2995,
      "sprechen": 2996,
      "Ġcompu": 2997,
      "Ġjuni": 2998,
      "Ġleicht": 2999,
      "Ġteam": 3000,
      "Ġschaffung": 3001,
      "glicher": 3002,
      "Ġgrundsa": 3003,
      "Ġgea": 3004,
      "Ġacht": 3005,
      "Ġnational": 3006,
      "\".": 3007,
      "Ġferien": 3008,
      "ringt": 3009,
      "Ġmitt": 3010,
      "Ġgelegenheit": 3011,
      "Ġpriorita": 3012,
      "Ġkern": 3013,
      "Ġneuer": 3014,
      "Ġroom": 3015,
      "mut": 3016,
      "oper": 3017,
      "etzung": 3018,
      "Ġinternational": 3019,
      "Ġgrie": 3020,
      "Ġallgemeinen": 3021,
      "steller": 3022,
      "rkte": 3023,
      "Ġvorhanden": 3024,
      "kennen": 3025,
      "Ġnachdem": 3026,
      "weg": 3027,
      "Ġcam": 3028,
      "Ġkontroll": 3029,
      "Ġeink": 3030,
      "Ġmehrheit": 3031,
      "Ġinsel": 3032,
      "eten": 3033,
      "Ġbenutzer": 3034,
      "bild": 3035,
      "Ġzahlreiche": 3036,
      "Ġverwendung": 3037,
      "ome": 3038,
      "feld": 3039,
      "hung": 3040,
      "kri": 3041,
      "Ġsoziale": 3042,
      "etten": 3043,
      "Ġverbessern": 3044,
      "Ġsho": 3045,
      "hilfe": 3046,
      "Ġprofess": 3047,
      "miss": 3048,
      "Ġergebnisse": 3049,
      "Ġtragen": 3050,
      "Ġjugend": 3051,
      "ness": 3052,
      "Ġklicken": 3053,
      "Ġgeschlossen": 3054,
      "heim": 3055,
      "Ġchin": 3056,
      "Ġanti": 3057,
      "alter": 3058,
      "ĠgroÃŁer": 3059,
      "Ġdauer": 3060,
      "eite": 3061,
      "vil": 3062,
      "Ġnotwendigkeit": 3063,
      "Ġaktion": 3064,
      "Ġwein": 3065,
      "Ġerach": 3066,
      "Ġeigene": 3067,
      "Ġdennoch": 3068,
      "ute": 3069,
      "gessen": 3070,
      "ffnet": 3071,
      "Ġherzen": 3072,
      "fordert": 3073,
      "minister": 3074,
      "Ġanzahl": 3075,
      "riter": 3076,
      "Ġposition": 3077,
      "ude": 3078,
      "reisen": 3079,
      "geln": 3080,
      "tor": 3081,
      "Ġengl": 3082,
      "Ġdurchgefu": 3083,
      "Ġkar": 3084,
      "cklich": 3085,
      "Ġ2000": 3086,
      "Ġselbstversta": 3087,
      "dr": 3088,
      "bringen": 3089,
      "Ġmai": 3090,
      "Ġvorauss": 3091,
      "haupt": 3092,
      "Ġtranspar": 3093,
      "Ġneues": 3094,
      "Ġzeitpunkt": 3095,
      "Ġvolks": 3096,
      "Ġeffizien": 3097,
      "kam": 3098,
      "ume": 3099,
      "Ġcan": 3100,
      "Ġangemessen": 3101,
      "Ġwoche": 3102,
      "Ġformul": 3103,
      "ngt": 3104,
      "stimmen": 3105,
      "tiver": 3106,
      "berwach": 3107,
      "Ġredu": 3108,
      "Ġenga": 3109,
      "vention": 3110,
      "Ġbesitz": 3111,
      "Ġmeinem": 3112,
      "hu": 3113,
      "sterreich": 3114,
      "Ġstimmen": 3115,
      "ourcen": 3116,
      "chste": 3117,
      "Ġzentral": 3118,
      "maÃŁnahmen": 3119,
      "schuÃŁ": 3120,
      "Ġgesamte": 3121,
      "uld": 3122,
      "Ġsommer": 3123,
      "Ġdig": 3124,
      "rm": 3125,
      "Ġbein": 3126,
      "reibung": 3127,
      "undes": 3128,
      "rken": 3129,
      "Ġafri": 3130,
      "Ġgleichen": 3131,
      "Ġprivat": 3132,
      "sive": 3133,
      "lose": 3134,
      "Ġtage": 3135,
      "unternehmen": 3136,
      "Ġbezu": 3137,
      "splan": 3138,
      "Ġkennt": 3139,
      "Ġarbeitspla": 3140,
      "uren": 3141,
      "frieden": 3142,
      "ausschuss": 3143,
      "Ġinnen": 3144,
      "bersch": 3145,
      "agen": 3146,
      "hrlich": 3147,
      "Ġarbei": 3148,
      "Ġglu": 3149,
      "zept": 3150,
      "'s": 3151,
      "Ġverstehen": 3152,
      "Ġeindeu": 3153,
      "Ġminister": 3154,
      "Ġaltern": 3155,
      "leisten": 3156,
      "Ġnew": 3157,
      "schinen": 3158,
      "industrie": 3159,
      "Ġkompro": 3160,
      "griffen": 3161,
      "Ġledig": 3162,
      "ww": 3163,
      "Ġ21": 3164,
      "Ġdeutschen": 3165,
      "Ġlediglich": 3166,
      "Ġerha": 3167,
      "ller": 3168,
      "scho": 3169,
      "ftig": 3170,
      "Ġkonferenz": 3171,
      "Ġerfahrung": 3172,
      "Ġ198": 3173,
      "Ġversuchen": 3174,
      "Ġregierungen": 3175,
      "Ġentwickeln": 3176,
      "Ġsolid": 3177,
      "uÃŁerst": 3178,
      "Ġschriftlich": 3179,
      "Ġsep": 3180,
      "Ġlog": 3181,
      "ants": 3182,
      "hnung": 3183,
      "ried": 3184,
      "vol": 3185,
      "Ġstellung": 3186,
      "Ġabend": 3187,
      "tum": 3188,
      "tzu": 3189,
      "ante": 3190,
      "ffnung": 3191,
      "gesetz": 3192,
      "xis": 3193,
      "las": 3194,
      "Ġerster": 3195,
      "Ġzweite": 3196,
      "fluss": 3197,
      "Ġfel": 3198,
      "Ġbestimmte": 3199,
      "Ġkommunik": 3200,
      "tokoll": 3201,
      "Ġvergleich": 3202,
      "Ġerle": 3203,
      "Ġapart": 3204,
      "rang": 3205,
      "Ġbedu": 3206,
      "Ġanwend": 3207,
      "Ġkonfli": 3208,
      "Ġalten": 3209,
      "Ġmaterial": 3210,
      "Ġintegration": 3211,
      "11": 3212,
      "del": 3213,
      "chung": 3214,
      "Ġlehr": 3215,
      "Ġkontin": 3216,
      "Ġdro": 3217,
      "Ġsee": 3218,
      "ions": 3219,
      "hrleisten": 3220,
      "anzen": 3221,
      "Ġintegr": 3222,
      "dam": 3223,
      "able": 3224,
      "Ġpersonal": 3225,
      "Ġbildung": 3226,
      "ban": 3227,
      "Ġwirtschaftliche": 3228,
      "ndet": 3229,
      "Ġberg": 3230,
      "rauch": 3231,
      "Ġtemp": 3232,
      "Ġzivil": 3233,
      "Ġstabilita": 3234,
      "richten": 3235,
      "berg": 3236,
      "Ġabha": 3237,
      "artige": 3238,
      "Ġhum": 3239,
      "Ġumgebung": 3240,
      "Ġisrael": 3241,
      "nommen": 3242,
      "ows": 3243,
      "Ġby": 3244,
      "unsch": 3245,
      "Ġratspra": 3246,
      "Ġ2006": 3247,
      "tzliche": 3248,
      "ausch": 3249,
      "Ġsh": 3250,
      "Ġzug": 3251,
      "Ġmulti": 3252,
      "organis": 3253,
      "Ġwann": 3254,
      "ona": 3255,
      "Ġgebracht": 3256,
      "Ġanderer": 3257,
      "Ġvorliegen": 3258,
      "Ġglauben": 3259,
      "mehr": 3260,
      "Ġausgestattet": 3261,
      "Ġregeln": 3262,
      "Ġfreiheit": 3263,
      "Ġfamilie": 3264,
      "spart": 3265,
      "Ġwettbewerb": 3266,
      "ÑĤ": 3267,
      "Ġunterb": 3268,
      "Ġsuchen": 3269,
      "nehm": 3270,
      "male": 3271,
      "Ġmass": 3272,
      "beho": 3273,
      "Ġmax": 3274,
      "gera": 3275,
      "gruppe": 3276,
      "Ġaspe": 3277,
      "Ġprinzip": 3278,
      "Ġdoppel": 3279,
      "Ġzweitens": 3280,
      "Ġgesp": 3281,
      "vel": 3282,
      "Ġrein": 3283,
      "Ġinhalt": 3284,
      "gesellschaft": 3285,
      "Ġbot": 3286,
      "Ġstandpunkt": 3287,
      "orf": 3288,
      "Ġhinzu": 3289,
      "Ġsprache": 3290,
      "Ġinformations": 3291,
      "ernen": 3292,
      "Ġbewa": 3293,
      "ritts": 3294,
      "Ġvoraus": 3295,
      "llte": 3296,
      "Ġmedien": 3297,
      "Ġmetho": 3298,
      "Ġkontakt": 3299,
      "ktiven": 3300,
      "Ġerachtens": 3301,
      "Ġkommissarin": 3302,
      "Ġerfahren": 3303,
      "Ġbestimmten": 3304,
      "Ġbestand": 3305,
      "don": 3306,
      "Ġverkehrs": 3307,
      "fasst": 3308,
      "Ġup": 3309,
      "Ġliebe": 3310,
      "Ġdinge": 3311,
      "Ġbeschra": 3312,
      "Ġhandeln": 3313,
      "que": 3314,
      "Ġgest": 3315,
      "Ġzehn": 3316,
      "Ġzahlen": 3317,
      "Ġvorgesehen": 3318,
      "Ġiden": 3319,
      "fordern": 3320,
      "nk": 3321,
      "Ġass": 3322,
      "Ġflughafen": 3323,
      "Ġeinzige": 3324,
      "sie": 3325,
      "fraktion": 3326,
      "gerung": 3327,
      "Â®": 3328,
      "renn": 3329,
      "chsel": 3330,
      "Ġeigentlich": 3331,
      "hrte": 3332,
      "ov": 3333,
      "wurf": 3334,
      "kosten": 3335,
      "by": 3336,
      "ielt": 3337,
      "istische": 3338,
      "iken": 3339,
      "Ġereig": 3340,
      "Ġgruppen": 3341,
      "Ġfortschritte": 3342,
      "Ġlinks": 3343,
      "Ġress": 3344,
      "Ġcor": 3345,
      "zember": 3346,
      "zeuge": 3347,
      "Ġstunden": 3348,
      "Ġgesamt": 3349,
      "Ġscheint": 3350,
      "Ġerheb": 3351,
      "Ġster": 3352,
      "12": 3353,
      "hindern": 3354,
      "Ġcomputer": 3355,
      "Ġerzeu": 3356,
      "Ġjahrhundert": 3357,
      "Ġsagte": 3358,
      "rgern": 3359,
      "Ġnov": 3360,
      "Ġausdru": 3361,
      "Ġsofort": 3362,
      "Ġinitiative": 3363,
      "wegen": 3364,
      "Ġoper": 3365,
      "sprogramm": 3366,
      "Ġvertrags": 3367,
      "Ġgesundheits": 3368,
      "Ġgrenzen": 3369,
      "Ġfal": 3370,
      "kennt": 3371,
      "Ġsolchen": 3372,
      "Ġbasis": 3373,
      "Ġurspru": 3374,
      "Ġbestimmungen": 3375,
      "Ġgemeinschafts": 3376,
      "Ġinstitution": 3377,
      "volle": 3378,
      "Ġpreise": 3379,
      "Ñģ": 3380,
      "Ġgenu": 3381,
      "Ġgefahr": 3382,
      "legung": 3383,
      "Ġtelefon": 3384,
      "urt": 3385,
      "Ġagra": 3386,
      "altungs": 3387,
      "Ġverab": 3388,
      "Ġext": 3389,
      "eister": 3390,
      "Ġhost": 3391,
      "Ġgeist": 3392,
      "Ġkeiner": 3393,
      "Ġdokument": 3394,
      "Ġpost": 3395,
      "Ġdiejenigen": 3396,
      "teten": 3397,
      "Ġseptember": 3398,
      "erseits": 3399,
      "Ġwiederhol": 3400,
      "Ġ40": 3401,
      "Ġbad": 3402,
      "pfel": 3403,
      "runde": 3404,
      "Ġaufgenommen": 3405,
      "Ġvergessen": 3406,
      "Ġausreichen": 3407,
      "Ġbeide": 3408,
      "Ġstat": 3409,
      "handel": 3410,
      "hle": 3411,
      "ril": 3412,
      "mann": 3413,
      "ligen": 3414,
      "Ġvergangenen": 3415,
      "iar": 3416,
      "tt": 3417,
      "ckung": 3418,
      "tegorien": 3419,
      "Ġexper": 3420,
      "kl": 3421,
      "Ġpunkte": 3422,
      "lub": 3423,
      "gien": 3424,
      "ndige": 3425,
      "zehn": 3426,
      "ffentlichkeit": 3427,
      "hrten": 3428,
      "Ġbank": 3429,
      "Ġjung": 3430,
      "gere": 3431,
      "ffentliche": 3432,
      "Ġsign": 3433,
      "Ġgot": 3434,
      "Ġaufmerksamkeit": 3435,
      "bewertungen": 3436,
      "sent": 3437,
      "Ġweder": 3438,
      "Ġentscheidungen": 3439,
      "mitt": 3440,
      "etzungen": 3441,
      "eien": 3442,
      "Ġdezember": 3443,
      "Ġwenige": 3444,
      "Ġsektor": 3445,
      "etter": 3446,
      "Ġkan": 3447,
      "ĠeinschlieÃŁlich": 3448,
      "Ġare": 3449,
      "Ġplu": 3450,
      "uar": 3451,
      "Ġ)": 3452,
      "Ġvertra": 3453,
      "Ġwerte": 3454,
      "einer": 3455,
      "stung": 3456,
      "han": 3457,
      "Ġjuli": 3458,
      "Ġokt": 3459,
      "Ġuner": 3460,
      "Ġbundes": 3461,
      "Ġque": 3462,
      "Ġvertreten": 3463,
      "Ġgemu": 3464,
      "Ġwettbewerbsfa": 3465,
      "Ġpriva": 3466,
      "indes": 3467,
      "Ġunternehmens": 3468,
      "Ġmi": 3469,
      "Ġwh": 3470,
      "fil": 3471,
      "ral": 3472,
      "Ġverring": 3473,
      "Ġgrundlegen": 3474,
      "riff": 3475,
      "das": 3476,
      "Ġbetrieb": 3477,
      "Ġerfolgreich": 3478,
      "stag": 3479,
      "yl": 3480,
      "Ġatmo": 3481,
      "Ġmittler": 3482,
      "cc": 3483,
      "Ġdrin": 3484,
      "Ġthis": 3485,
      "para": 3486,
      "ltnis": 3487,
      "Ġanforderungen": 3488,
      "rakter": 3489,
      "Ġterra": 3490,
      "Ġleisten": 3491,
      "Ġvertrauen": 3492,
      "enzen": 3493,
      "Ġnachfol": 3494,
      "Ġvorschriften": 3495,
      "Ġunmittel": 3496,
      "Ġten": 3497,
      "Ġdiskussion": 3498,
      "Ġerwarten": 3499,
      "iete": 3500,
      "Ġbewusst": 3501,
      "Ġdritt": 3502,
      "Ġprofession": 3503,
      "Ġansatz": 3504,
      "ltig": 3505,
      "stebewertungen": 3506,
      "Ġsonst": 3507,
      "tre": 3508,
      "sel": 3509,
      "nglich": 3510,
      "Ġmoder": 3511,
      "Ġerstens": 3512,
      "cel": 3513,
      "Ġpaar": 3514,
      "Ġarbeitnehmer": 3515,
      "Ġmoment": 3516,
      "riterien": 3517,
      "freund": 3518,
      "hrleist": 3519,
      "astrop": 3520,
      "nungen": 3521,
      "falt": 3522,
      "Ġeuch": 3523,
      "Ġteilen": 3524,
      "Ġanders": 3525,
      "dri": 3526,
      "Ġbereiche": 3527,
      "ande": 3528,
      "Ġheim": 3529,
      "Ġanpa": 3530,
      "Ġtransparenz": 3531,
      "Ġgering": 3532,
      "Ġeingesetzt": 3533,
      "ierter": 3534,
      "ktivita": 3535,
      "Ġbeob": 3536,
      "Ġkennen": 3537,
      "Ġtagesordnung": 3538,
      "Ġoffiz": 3539,
      "Ġprogramme": 3540,
      "Ġanfrage": 3541,
      "Ġerinner": 3542,
      "Ġkonnten": 3543,
      "Ġregist": 3544,
      "nach": 3545,
      "seh": 3546,
      "Ġbilder": 3547,
      "tierung": 3548,
      "Ġbetreffen": 3549,
      "anlage": 3550,
      "iens": 3551,
      "Ð½": 3552,
      "Ġvery": 3553,
      "Ġtur": 3554,
      "Ġwichtiger": 3555,
      "orgung": 3556,
      "sprozess": 3557,
      "chtet": 3558,
      "samm": 3559,
      "Ġjust": 3560,
      "Ġtest": 3561,
      "Ġrepublik": 3562,
      "zieren": 3563,
      "Ġnationen": 3564,
      "Ġgenommen": 3565,
      "Ġsuper": 3566,
      "Ġgeworden": 3567,
      "illa": 3568,
      "Ġtechnologie": 3569,
      "ltigen": 3570,
      "Ġrea": 3571,
      "Ġrede": 3572,
      "Ġpal": 3573,
      "Ġharmon": 3574,
      "Ġzunehmen": 3575,
      "Ġberichts": 3576,
      "Ġextrem": 3577,
      "Ġinvestitionen": 3578,
      "stelle": 3579,
      "Ġbesondere": 3580,
      "Ġ2005": 3581,
      "mpfen": 3582,
      "zeichnung": 3583,
      "ya": 3584,
      "Ġstil": 3585,
      "Ġurlaub": 3586,
      "Ġbezahl": 3587,
      "era": 3588,
      "ĠstraÃŁen": 3589,
      "Ġauftrag": 3590,
      "Ġsinne": 3591,
      "alisiert": 3592,
      "Ġfirma": 3593,
      "mbh": 3594,
      "Ġerga": 3595,
      "Ġerneut": 3596,
      "Ġlon": 3597,
      "Ġhalte": 3598,
      "Ġvorge": 3599,
      "Ġspeich": 3600,
      "Ġnr": 3601,
      "Ġrad": 3602,
      "Ġaktuellen": 3603,
      "forderung": 3604,
      "Ġwahrschein": 3605,
      "Ġziehen": 3606,
      "Ġkannst": 3607,
      "Ġrie": 3608,
      "Ġlangfrist": 3609,
      "yer": 3610,
      "Ġhome": 3611,
      "âĤ": 3612,
      "Ġverfa": 3613,
      "Ġgefunden": 3614,
      "Ġcent": 3615,
      "Ġminder": 3616,
      "Ġpoten": 3617,
      "son": 3618,
      "buch": 3619,
      "geber": 3620,
      "âĤ¬": 3621,
      "schau": 3622,
      "kennung": 3623,
      "Ġhuman": 3624,
      "Ġoktober": 3625,
      "Ġdon": 3626,
      "Ġaufenthalt": 3627,
      "pag": 3628,
      "Ġkombin": 3629,
      "yse": 3630,
      "fr": 3631,
      "Ġfilm": 3632,
      "Ġche": 3633,
      "Ġgeschaffen": 3634,
      "izin": 3635,
      "Ġsieht": 3636,
      "Ġrestaurants": 3637,
      "Ġauffassung": 3638,
      "Ġtre": 3639,
      "Ġversich": 3640,
      "Ġlebensmittel": 3641,
      "ux": 3642,
      "siv": 3643,
      "Ġelektron": 3644,
      "unk": 3645,
      "Ġlaufen": 3646,
      "Ġagen": 3647,
      "ama": 3648,
      "Ġgmbh": 3649,
      "Ġaufbau": 3650,
      "Ġagrar": 3651,
      "nern": 3652,
      "annen": 3653,
      "Ġheil": 3654,
      "Ġprojekte": 3655,
      "ex": 3656,
      "bezogen": 3657,
      "Ġeher": 3658,
      "verla": 3659,
      "press": 3660,
      "lern": 3661,
      "arch": 3662,
      "Ġsechs": 3663,
      "losen": 3664,
      "Ġjanuar": 3665,
      "ÑĢ": 3666,
      "Ġsache": 3667,
      "rgerinnen": 3668,
      "âĢľ,": 3669,
      "Ġtri": 3670,
      "wortern": 3671,
      "Ġarmut": 3672,
      "Ġteile": 3673,
      "Ġmel": 3674,
      "teren": 3675,
      "nstler": 3676,
      "Ġbringt": 3677,
      "Ġinten": 3678,
      "nkt": 3679,
      "Ġrelig": 3680,
      "Ġlesen": 3681,
      "Ġsamm": 3682,
      "eben": 3683,
      "Ġlernen": 3684,
      "Ġdown": 3685,
      "bra": 3686,
      "Ġverantwortlich": 3687,
      "eum": 3688,
      "Ġnachbar": 3689,
      "Ġprozent": 3690,
      "Ġyou": 3691,
      "Ġatmospha": 3692,
      "Ġregelma": 3693,
      "Ġbedarf": 3694,
      "Ġsolidarita": 3695,
      "Ġbeitragen": 3696,
      "Ġanstren": 3697,
      "mmern": 3698,
      "Ġressourcen": 3699,
      "Ġtab": 3700,
      "Ġpraxis": 3701,
      "Ġentsprechenden": 3702,
      "Ġ2004": 3703,
      "tage": 3704,
      "achtung": 3705,
      "bas": 3706,
      "Ġevent": 3707,
      "Ġverhalten": 3708,
      "Ġschau": 3709,
      "Ġ23": 3710,
      "Ġentsprechend": 3711,
      "Ġzufrieden": 3712,
      "Ġvideo": 3713,
      "Ġjapan": 3714,
      "senden": 3715,
      "Ġaufgaben": 3716,
      "Ġdeine": 3717,
      "Ġverlan": 3718,
      "Ġkomplex": 3719,
      "orn": 3720,
      "Ġwunsch": 3721,
      "Ġarchite": 3722,
      "Ġausgezeich": 3723,
      "sektor": 3724,
      "sende": 3725,
      "Ġven": 3726,
      "karte": 3727,
      "Ġtagen": 3728,
      "krimin": 3729,
      "Ġwindows": 3730,
      "Ġschlusselwortern": 3731,
      "Ġrichtige": 3732,
      "pol": 3733,
      "zita": 3734,
      "Ġvertreter": 3735,
      "ces": 3736,
      "Ġleistungs": 3737,
      "nz": 3738,
      "Ġlinie": 3739,
      "Ġverhindern": 3740,
      "sequ": 3741,
      "Ġvoran": 3742,
      "Ġsitzung": 3743,
      "ritten": 3744,
      "Ġehem": 3745,
      "cksichtigt": 3746,
      "Ġwelches": 3747,
      "60": 3748,
      "get": 3749,
      "Ġerfolgt": 3750,
      "ac": 3751,
      "berhaupt": 3752,
      "ngigkeit": 3753,
      "Ġmonaten": 3754,
      "Ġred": 3755,
      "Ġfolge": 3756,
      "pier": 3757,
      "ted": 3758,
      "heben": 3759,
      "Ġfrem": 3760,
      "Ġnimmt": 3761,
      "gangs": 3762,
      "Ġgetan": 3763,
      "Ġcharakter": 3764,
      "Ġbeginnen": 3765,
      "Ġgenannten": 3766,
      "Ġbesuch": 3767,
      "schung": 3768,
      "Ġbesuchen": 3769,
      "wasser": 3770,
      "gebiet": 3771,
      "Ġbehandelt": 3772,
      "Ġirak": 3773,
      "iveau": 3774,
      "zentrum": 3775,
      "Ġangeboten": 3776,
      "Ġanderem": 3777,
      "nsche": 3778,
      "lleg": 3779,
      "frastruktur": 3780,
      "Ġgebu": 3781,
      "Ġpan": 3782,
      "Ġbehandlung": 3783,
      "Ġbald": 3784,
      "Ġbahn": 3785,
      "Ġbedro": 3786,
      "Ġfordern": 3787,
      "Ġtransport": 3788,
      "utzt": 3789,
      "okra": 3790,
      "Ġserver": 3791,
      "ide": 3792,
      "Ġverbind": 3793,
      "Ġmoderne": 3794,
      "Ġkonstru": 3795,
      "rkt": 3796,
      "Ġ22": 3797,
      "Ġprotokoll": 3798,
      "Ġversucht": 3799,
      "Ġeingeb": 3800,
      "Ġnacht": 3801,
      "Ġspieler": 3802,
      "Ġfolgenden": 3803,
      "stet": 3804,
      "Ġgolf": 3805,
      "gelt": 3806,
      "tischer": 3807,
      "Ġoptim": 3808,
      "Ġdanke": 3809,
      "eitet": 3810,
      "Ġsprach": 3811,
      "use": 3812,
      "iden": 3813,
      "ellschaften": 3814,
      "Ġverurs": 3815,
      "Ġmobil": 3816,
      "riebs": 3817,
      "gehend": 3818,
      "Ġfinanzierung": 3819,
      "Ġehr": 3820,
      "Ġkontex": 3821,
      "kontro": 3822,
      "Ġkoha": 3823,
      "ndnis": 3824,
      "Ġzumindest": 3825,
      "setzt": 3826,
      "bert": 3827,
      "Ġgerichts": 3828,
      "Ġfl": 3829,
      "Ġorganisation": 3830,
      "politi": 3831,
      "gruppen": 3832,
      "preis": 3833,
      "Ġgewesen": 3834,
      "Ġuniversita": 3835,
      "service": 3836,
      "iter": 3837,
      "Ġlos": 3838,
      "Ġost": 3839,
      "innern": 3840,
      "Ġrest": 3841,
      "ament": 3842,
      "ons": 3843,
      "Ġfreuen": 3844,
      "Ġsonder": 3845,
      "Ġerfahrungen": 3846,
      "stre": 3847,
      "ufen": 3848,
      "stausch": 3849,
      "angeb": 3850,
      "ĠauÃŁerhalb": 3851,
      "Ġverkauf": 3852,
      "Ġstet": 3853,
      "Ġwell": 3854,
      "Ġparis": 3855,
      "este": 3856,
      "Ġfon": 3857,
      "abel": 3858,
      "hafte": 3859,
      "Ġtechnischen": 3860,
      "Ġbill": 3861,
      "ierenden": 3862,
      "Ġkomplett": 3863,
      "Ġverwaltung": 3864,
      "uft": 3865,
      "Ġzahlreichen": 3866,
      "meer": 3867,
      "Ġusw": 3868,
      "Ġmann": 3869,
      "losigkeit": 3870,
      "amerik": 3871,
      "Ġkredit": 3872,
      "Ġslo": 3873,
      "ynam": 3874,
      "kunden": 3875,
      "ano": 3876,
      "haben": 3877,
      "Ġerhol": 3878,
      "menten": 3879,
      "Ġdenken": 3880,
      "Ġkooper": 3881,
      "Ġgerecht": 3882,
      "Ġzweck": 3883,
      "strategie": 3884,
      "ution": 3885,
      "kannt": 3886,
      "Ġfirmen": 3887,
      "Ġele": 3888,
      "Ġentgegen": 3889,
      "Ġeinfluss": 3890,
      "Ġnovember": 3891,
      "Ġmitte": 3892,
      "Ġkompeten": 3893,
      "Ġaspekte": 3894,
      "Ġvergangenheit": 3895,
      "Ġspanien": 3896,
      "Ġaf": 3897,
      "wind": 3898,
      "spekt": 3899,
      "Ġstets": 3900,
      "tert": 3901,
      "Ġcas": 3902,
      "Ġhistorischen": 3903,
      "Ġletzte": 3904,
      "out": 3905,
      "iness": 3906,
      "Ġorgan": 3907,
      "Ġinstrument": 3908,
      "wesen": 3909,
      "nlichen": 3910,
      "lichtungen": 3911,
      "Ġkno": 3912,
      "bericht": 3913,
      "nftigen": 3914,
      "Ġerinnern": 3915,
      "Ġapril": 3916,
      "altungen": 3917,
      "ult": 3918,
      "Ġjeweiligen": 3919,
      "Ġterrorismus": 3920,
      "Ġfisch": 3921,
      "Ġiran": 3922,
      "int": 3923,
      "Ġschwar": 3924,
      "vier": 3925,
      "Ġverpflichtet": 3926,
      "Ġfrom": 3927,
      "Ġgetroffen": 3928,
      "ica": 3929,
      "Ġrech": 3930,
      "ils": 3931,
      "Ġreal": 3932,
      "rad": 3933,
      "hilfen": 3934,
      "Ġstren": 3935,
      "zeiten": 3936,
      "Ġseines": 3937,
      "Ġopfer": 3938,
      "Ġgarten": 3939,
      "liefer": 3940,
      "orie": 3941,
      "krie": 3942,
      "unt": 3943,
      "gren": 3944,
      "Ġmodell": 3945,
      "Ġmodernen": 3946,
      "Ġkrank": 3947,
      "Ġabges": 3948,
      "Ġverz": 3949,
      "ftung": 3950,
      "Ġvir": 3951,
      "Ġschritte": 3952,
      "Ġrats": 3953,
      "Ġhy": 3954,
      "vollen": 3955,
      "Ġdemokratischen": 3956,
      "dingt": 3957,
      "istan": 3958,
      "Ġfolgt": 3959,
      "Ġendlich": 3960,
      "Ġsite": 3961,
      "Ġvorgehen": 3962,
      "Ġrisiko": 3963,
      "Ġklass": 3964,
      "ograf": 3965,
      "Ġfreien": 3966,
      "Ġfinanziellen": 3967,
      "Ġerschein": 3968,
      "Ġii": 3969,
      "Ġherunter": 3970,
      "Ġilleg": 3971,
      "Ġkonkre": 3972,
      "ĠabschlieÃŁend": 3973,
      "Ġ60": 3974,
      "stein": 3975,
      "barkeit": 3976,
      "Ġrechtsvorschriften": 3977,
      "Ġwinter": 3978,
      "Ġbessere": 3979,
      "Ġeg": 3980,
      "Ġschaden": 3981,
      "Ġmonat": 3982,
      "Ġgenug": 3983,
      "nor": 3984,
      "ele": 3985,
      "endet": 3986,
      "Ġsprachen": 3987,
      "Ġparteien": 3988,
      "reit": 3989,
      "will": 3990,
      "Ġdist": 3991,
      "sitzen": 3992,
      "Ġcomm": 3993,
      "Ġangelegenheit": 3994,
      "zeichen": 3995,
      "Ġspezif": 3996,
      "bien": 3997,
      "Ġ2003": 3998,
      "Ġerlaubt": 3999,
      "ĠausschlieÃŁlich": 4000,
      "Ġheutigen": 4001,
      "Ġoff": 4002,
      "legten": 4003,
      "med": 4004,
      "Ġhalb": 4005,
      "ites": 4006,
      "bezieh": 4007,
      "tere": 4008,
      "Ġkapital": 4009,
      "Ġangelegenheiten": 4010,
      "funktion": 4011,
      "ieg": 4012,
      "Ġeinwander": 4013,
      "Ġther": 4014,
      "nungs": 4015,
      "Ġkons": 4016,
      "ets": 4017,
      "Ġzuku": 4018,
      "Ġschwierigkeiten": 4019,
      "Ġjem": 4020,
      "Ġforschungs": 4021,
      "Ġherausforderungen": 4022,
      "Ġetc": 4023,
      "Ġmer": 4024,
      "konom": 4025,
      "Ġunten": 4026,
      "Ġautomatisch": 4027,
      "heren": 4028,
      "Ġberichterstatterin": 4029,
      "Ġuntersch": 4030,
      "Ġangen": 4031,
      "Ġleit": 4032,
      "Ġmitgliedstaat": 4033,
      "bernehmen": 4034,
      "Ġattra": 4035,
      "bus": 4036,
      "Ġverfassung": 4037,
      "Ġannahme": 4038,
      "Ġva": 4039,
      "Ð³": 4040,
      "emente": 4041,
      "Ġhinsicht": 4042,
      "reib": 4043,
      "Ġcu": 4044,
      "steht": 4045,
      "Ġehemal": 4046,
      "igin": 4047,
      "sischen": 4048,
      "hrungen": 4049,
      "Ġentstehen": 4050,
      "Ġzuges": 4051,
      "Ġerwartet": 4052,
      "Ġgewu": 4053,
      "Ġbitten": 4054,
      "Ġhervorragen": 4055,
      "tain": 4056,
      "Ġzeichen": 4057,
      "Ġsob": 4058,
      "Ġquali": 4059,
      "Ġmanagement": 4060,
      "Ġ197": 4061,
      "alismus": 4062,
      "Ġmindes": 4063,
      "Ġprivaten": 4064,
      "ssig": 4065,
      "ball": 4066,
      "Ġspeziell": 4067,
      "Ġeinrichtung": 4068,
      "werte": 4069,
      "pli": 4070,
      "Ġmedizin": 4071,
      "Ġkrieg": 4072,
      "uern": 4073,
      "Ġgespra": 4074,
      "dlich": 4075,
      "Ġkonsequ": 4076,
      "sition": 4077,
      "load": 4078,
      "ild": 4079,
      "Ġsur": 4080,
      "mand": 4081,
      "nlich": 4082,
      "ungsver": 4083,
      "Ġsetzt": 4084,
      "oder": 4085,
      "netz": 4086,
      "sport": 4087,
      "Ġtru": 4088,
      "barer": 4089,
      "itieren": 4090,
      "Ġwesentlichen": 4091,
      "Ġkaum": 4092,
      "auftra": 4093,
      "Ġgesehen": 4094,
      "Ġverbesser": 4095,
      "gerungen": 4096,
      "Ġberat": 4097,
      "Ġoben": 4098,
      "Ġchem": 4099,
      "Ġreich": 4100,
      "iarden": 4101,
      "Ġimmobil": 4102,
      "Ġwillkommen": 4103,
      "zin": 4104,
      "Ġentwicklungsla": 4105,
      "Ġbehinder": 4106,
      "erst": 4107,
      "nftig": 4108,
      "ile": 4109,
      "gescha": 4110,
      "tic": 4111,
      "Ġregierungs": 4112,
      "Ġzersto": 4113,
      "qualita": 4114,
      "Ġgeo": 4115,
      "Ġkauf": 4116,
      "Ġsam": 4117,
      "Ġnationale": 4118,
      "pers": 4119,
      "Ġdanach": 4120,
      "ollar": 4121,
      "hnlich": 4122,
      "Ġamerikan": 4123,
      "Ġosten": 4124,
      "Ġkompromiss": 4125,
      "Ġdarstellt": 4126,
      "ÃŁere": 4127,
      "Ġdringend": 4128,
      "Ġmini": 4129,
      "Ġverur": 4130,
      "glicherweise": 4131,
      "Ġkorre": 4132,
      "Ġmangel": 4133,
      "gestell": 4134,
      "Ġferner": 4135,
      "itten": 4136,
      "dis": 4137,
      "elten": 4138,
      "Ġdeutsche": 4139,
      "Ġeindeutig": 4140,
      "weder": 4141,
      "user": 4142,
      "nftige": 4143,
      "rdert": 4144,
      "sicherheit": 4145,
      "Ġantrag": 4146,
      "Ġbesonderen": 4147,
      "ark": 4148,
      "Ġgleiche": 4149,
      "eilen": 4150,
      "gema": 4151,
      "Ġbenutzen": 4152,
      "Ġbilden": 4153,
      "Ġfahren": 4154,
      "Ġlicht": 4155,
      "Ġgre": 4156,
      "Ġentschieden": 4157,
      "Ġtermin": 4158,
      "Ġsach": 4159,
      "othe": 4160,
      "stoffe": 4161,
      "Ġbrei": 4162,
      "gemein": 4163,
      ".)": 4164,
      "Ġzweifel": 4165,
      "Ġfalle": 4166,
      "zur": 4167,
      "zeichnen": 4168,
      "Ġallgemein": 4169,
      "13": 4170,
      "Ġstraf": 4171,
      "Ġerleben": 4172,
      "see": 4173,
      "Ġgeschu": 4174,
      "Ġschiff": 4175,
      "Ġleute": 4176,
      "Ġservic": 4177,
      "Ġbre": 4178,
      "Ġbequ": 4179,
      "Ġerkennen": 4180,
      "mbol": 4181,
      "laufen": 4182,
      "Ġ27": 4183,
      "Ġreserv": 4184,
      "kategorien": 4185,
      "Ġpolitisch": 4186,
      "Ġunbedingt": 4187,
      "Ġhause": 4188,
      "Ġaktuelle": 4189,
      "Ġpositiv": 4190,
      "Ġwahrscheinlich": 4191,
      "Ġverpflichtungen": 4192,
      "Ġbelieb": 4193,
      "Ġeingehen": 4194,
      "ndlichen": 4195,
      "Ġzustimmung": 4196,
      "leitet": 4197,
      "Ġanstrengungen": 4198,
      "page": 4199,
      "Ġorigin": 4200,
      "Ġhinweisen": 4201,
      "andid": 4202,
      "Ġbenutzt": 4203,
      "Ġliz": 4204,
      "ums": 4205,
      "bad": 4206,
      "ĠâĤ¬": 4207,
      "Ġreag": 4208,
      "Ġbook": 4209,
      "ĠausschuÃŁ": 4210,
      "rkung": 4211,
      "kommt": 4212,
      "vie": 4213,
      "ndung": 4214,
      "Ġboden": 4215,
      "Ġbade": 4216,
      "Ġideal": 4217,
      "Ġbeschlossen": 4218,
      "Ġanerkennung": 4219,
      "Ġdynam": 4220,
      "Ġleiden": 4221,
      "Ġorganisationen": 4222,
      "konferenz": 4223,
      "Ġsil": 4224,
      "berzeugt": 4225,
      "Ġhig": 4226,
      "Ġmindestens": 4227,
      "ick": 4228,
      "Ġdre": 4229,
      "Ġzo": 4230,
      "Ġwesentlich": 4231,
      "Ġmy": 4232,
      "ierende": 4233,
      "Ġentspricht": 4234,
      "Ġnormal": 4235,
      "Ġpartnerschaft": 4236,
      "Ġgenutzt": 4237,
      "Ġpre": 4238,
      "ffnen": 4239,
      "Ġvan": 4240,
      "Ġgesetzt": 4241,
      "cksichtigen": 4242,
      "Ġzul": 4243,
      "Ġidee": 4244,
      "berwachung": 4245,
      "Ġandererseits": 4246,
      "Ġhochwer": 4247,
      "Ġbla": 4248,
      "Ġgegru": 4249,
      "Ġgenannt": 4250,
      "Ġdritten": 4251,
      "Ġleich": 4252,
      "wachsen": 4253,
      "Ġbon": 4254,
      "Ġfoto": 4255,
      "Ġnega": 4256,
      "Ġvie": 4257,
      "Ġsobald": 4258,
      "Ġausbildung": 4259,
      "wogen": 4260,
      "Ġvorgelegt": 4261,
      "Ġwahlen": 4262,
      "Ġkommunikation": 4263,
      "Ġexist": 4264,
      "Ġabschluss": 4265,
      "zone": 4266,
      "roso": 4267,
      "Ġfran": 4268,
      "ĠentschlieÃŁungsan": 4269,
      "Ġeingefu": 4270,
      "Ġsystems": 4271,
      "Ġausla": 4272,
      "spunkt": 4273,
      "hner": 4274,
      "Ġps": 4275,
      "Ġsicherlich": 4276,
      "Ġfri": 4277,
      "vin": 4278,
      "Ġchines": 4279,
      "leiten": 4280,
      "Ġwaffen": 4281,
      "Ġvereinbarung": 4282,
      "ison": 4283,
      "Ġentsprechende": 4284,
      "Ġlegen": 4285,
      "15": 4286,
      "Ġmodu": 4287,
      "Ġbut": 4288,
      "Ġbemerk": 4289,
      "gewiesen": 4290,
      "Ġunterschiedlichen": 4291,
      "Ġberuf": 4292,
      "schine": 4293,
      "Ġholz": 4294,
      "Ġbusiness": 4295,
      "Ġagentur": 4296,
      "ink": 4297,
      "seite": 4298,
      "Ġangegeben": 4299,
      "Ġemp": 4300,
      "Ġgezeigt": 4301,
      "Ġsorg": 4302,
      "Ġglobalen": 4303,
      "kor": 4304,
      "Ġkriterien": 4305,
      "Ġfried": 4306,
      "zeigen": 4307,
      "hig": 4308,
      "Ġphil": 4309,
      "artigen": 4310,
      "Ġtrotzdem": 4311,
      "Ġ80": 4312,
      "Ġberichte": 4313,
      "gust": 4314,
      "Ġbegrenz": 4315,
      "Ġprodukten": 4316,
      "Ġsauber": 4317,
      "Ġlondon": 4318,
      "Ġentweder": 4319,
      "lation": 4320,
      "Ġzuletzt": 4321,
      "til": 4322,
      "ied": 4323,
      "ada": 4324,
      "Ġkarte": 4325,
      "Ġbesucher": 4326,
      "Ġerstellen": 4327,
      "wirken": 4328,
      "Ġenor": 4329,
      "stattung": 4330,
      "Ġmehreren": 4331,
      "ise": 4332,
      "rahmen": 4333,
      "icherheit": 4334,
      "Ġausger": 4335,
      "Ġmitteilung": 4336,
      "Ġfei": 4337,
      "mitglied": 4338,
      "pazita": 4339,
      "nsch": 4340,
      "achtet": 4341,
      "minist": 4342,
      "spiele": 4343,
      "Ġdiskrimin": 4344,
      "Ġwand": 4345,
      "Ġsand": 4346,
      "later": 4347,
      "Ġausgaben": 4348,
      "ehrte": 4349,
      "Ġsehens": 4350,
      "Ġvorteile": 4351,
      "standard": 4352,
      "Ġfinanzielle": 4353,
      "Ġ*": 4354,
      "Ġhoffen": 4355,
      "ologischen": 4356,
      "ika": 4357,
      "Ġnahr": 4358,
      "Ġlas": 4359,
      "Ġergreifen": 4360,
      "Ġfein": 4361,
      "Ġakzeptieren": 4362,
      "Ġgeeignet": 4363,
      "loss": 4364,
      "Ġsonnen": 4365,
      "sabkommen": 4366,
      "Ġjene": 4367,
      "nien": 4368,
      "Ġeindruck": 4369,
      "Ġweltwei": 4370,
      "haften": 4371,
      "Ġgesprochen": 4372,
      "izei": 4373,
      "rtig": 4374,
      "Ġlaut": 4375,
      "Ġkatastrop": 4376,
      "Ġangesprochen": 4377,
      "Ġerleich": 4378,
      "Ġhintergrund": 4379,
      "schi": 4380,
      "Ġbanken": 4381,
      "management": 4382,
      "Ġtechnische": 4383,
      "Ġtief": 4384,
      "Ġara": 4385,
      "Ġzuverla": 4386,
      "Ġantworten": 4387,
      "Ġsi": 4388,
      "Ġregul": 4389,
      "tierten": 4390,
      "Ġberech": 4391,
      "ow": 4392,
      "haup": 4393,
      "Ġinhalte": 4394,
      "Ġengagement": 4395,
      "Ġsicherzustellen": 4396,
      "berw": 4397,
      "zieht": 4398,
      "Ġkonflikt": 4399,
      "Ġderzei": 4400,
      "Ġreformen": 4401,
      "Ġdarunter": 4402,
      "ritann": 4403,
      "Ġbestimmt": 4404,
      "Ġ2002": 4405,
      "lands": 4406,
      "Ġbestehenden": 4407,
      "Ġschwa": 4408,
      "Ġwunderscho": 4409,
      "Ġeingerichtet": 4410,
      "ary": 4411,
      "tierte": 4412,
      "Ġfund": 4413,
      "genda": 4414,
      "rech": 4415,
      "mes": 4416,
      "Ġgriechen": 4417,
      "Ġord": 4418,
      "Ġbran": 4419,
      "Ġessen": 4420,
      "unkten": 4421,
      "Ġverg": 4422,
      "werke": 4423,
      "schrift": 4424,
      "br": 4425,
      "Ġed": 4426,
      "reibt": 4427,
      "Ġgenehm": 4428,
      "Ġanderes": 4429,
      "Ġerzielt": 4430,
      "the": 4431,
      "Ġzeitraum": 4432,
      "Ġschlaf": 4433,
      "rkten": 4434,
      "rend": 4435,
      "Ġvereinten": 4436,
      "Ġaufnahme": 4437,
      "Ġstad": 4438,
      "Ġdagegen": 4439,
      "stechn": 4440,
      "wohn": 4441,
      "Ġhaltung": 4442,
      "una": 4443,
      "Ġthat": 4444,
      "zusetzen": 4445,
      "zeption": 4446,
      "pool": 4447,
      "Ġpaten": 4448,
      "Ġang": 4449,
      "Ġregistr": 4450,
      "ager": 4451,
      "schul": 4452,
      "ors": 4453,
      "Ġvermeiden": 4454,
      "Ġanspruch": 4455,
      "Ġkenntnis": 4456,
      "ischem": 4457,
      "Ġfestgelegt": 4458,
      "Ġchance": 4459,
      "Ġmilliarden": 4460,
      "mtliche": 4461,
      "Ġwirksam": 4462,
      "Ġmanch": 4463,
      "Ġdom": 4464,
      "Ġnotwendigen": 4465,
      "Ġable": 4466,
      "Ġbraucht": 4467,
      "ction": 4468,
      "Ġmotor": 4469,
      "schnitt": 4470,
      "schiede": 4471,
      "Ġumgesetzt": 4472,
      "Ġq": 4473,
      "Ġgern": 4474,
      "Ġsuche": 4475,
      "Ġinformieren": 4476,
      "Ġ000": 4477,
      "Ġdienen": 4478,
      "park": 4479,
      "ieter": 4480,
      "jekten": 4481,
      "Ġ2001": 4482,
      "Ð¾Ð": 4483,
      "Ġlast": 4484,
      "Ġtitel": 4485,
      "freiheit": 4486,
      "Ġinfrastruktur": 4487,
      "Ġvereinfach": 4488,
      "ktoren": 4489,
      "entwicklung": 4490,
      "Ġbehaup": 4491,
      "Ġmio": 4492,
      "Ġumsta": 4493,
      "bereinkommen": 4494,
      "Ġhomepage": 4495,
      "Ġunterkategorien": 4496,
      "enter": 4497,
      "ption": 4498,
      "Ġbeziehen": 4499,
      "Ġchrist": 4500,
      "Ġproduktions": 4501,
      "richtlinie": 4502,
      "Ġrichtlinien": 4503,
      "Ġgegensei": 4504,
      "Ġarten": 4505,
      "regel": 4506,
      "ju": 4507,
      "Ġloc": 4508,
      "ton": 4509,
      "Ġtor": 4510,
      "Ġtechnologien": 4511,
      "dex": 4512,
      "Ġmenschenrechts": 4513,
      "Ġmeter": 4514,
      "Ġfunktionen": 4515,
      "Ġbequem": 4516,
      "Ġout": 4517,
      "hrenden": 4518,
      "Ġbedien": 4519,
      "Ġbarcel": 4520,
      "britann": 4521,
      "tigkeiten": 4522,
      "Ġmonate": 4523,
      "Ġwillen": 4524,
      "Ġschreiben": 4525,
      "spoliti": 4526,
      "Ġtv": 4527,
      "rtigen": 4528,
      "Ġzuvor": 4529,
      "Ġgebieten": 4530,
      "âĢľ.": 4531,
      "Ġjederzeit": 4532,
      "Ġverbessert": 4533,
      "ros": 4534,
      "geschra": 4535,
      "Ġukra": 4536,
      "Ġbio": 4537,
      "Ġaugust": 4538,
      "Ġfortschritt": 4539,
      "ancen": 4540,
      "Ġteilweise": 4541,
      "ots": 4542,
      "Ġerreich": 4543,
      "Ġkonzept": 4544,
      "Ġbeitritts": 4545,
      "kur": 4546,
      "Ġwelcher": 4547,
      "Ġniedr": 4548,
      "Ġkindern": 4549,
      "Ġmess": 4550,
      "Ġmand": 4551,
      "Ġvielfalt": 4552,
      "Ġerd": 4553,
      "Ġdienstleist": 4554,
      "Ġempfehlen": 4555,
      "glichst": 4556,
      "tliche": 4557,
      "Ġschwierig": 4558,
      "rte": 4559,
      "Ġtrain": 4560,
      "Ġerfolgen": 4561,
      "Ġhinzufu": 4562,
      "Ġalte": 4563,
      "Ì§": 4564,
      "Ġdateien": 4565,
      "Ġverwaltungs": 4566,
      "bernachten": 4567,
      "ales": 4568,
      "ndigkeit": 4569,
      "Ġstattfinden": 4570,
      "Ġsex": 4571,
      "Ġeff": 4572,
      "dte": 4573,
      "Ġabsolut": 4574,
      "Ġeinrichtungen": 4575,
      "ufer": 4576,
      "Ġvorteil": 4577,
      "Ġerzielen": 4578,
      "Ġski": 4579,
      "Ġpor": 4580,
      "Ġpaket": 4581,
      "Ġjeweils": 4582,
      "Ġpat": 4583,
      "karten": 4584,
      "Ġmechan": 4585,
      "ÂŃ": 4586,
      "fallen": 4587,
      "Ġcity": 4588,
      "ping": 4589,
      "Ġdritte": 4590,
      "ftigt": 4591,
      "Ġprem": 4592,
      "Ġdigit": 4593,
      "rischen": 4594,
      "Ġgrundsatz": 4595,
      "Ġmenge": 4596,
      "leisch": 4597,
      "seits": 4598,
      "Ġhor": 4599,
      "Ġletzt": 4600,
      "har": 4601,
      "same": 4602,
      "Ġgelangen": 4603,
      "schluss": 4604,
      "Ġformen": 4605,
      "Ġdeswegen": 4606,
      "Ġwege": 4607,
      "ĠstraÃŁe": 4608,
      "bruar": 4609,
      "wissen": 4610,
      "Ġforderung": 4611,
      "Ġbeitritt": 4612,
      "berra": 4613,
      "ition": 4614,
      "Ġbetroffenen": 4615,
      "Ġniemand": 4616,
      "Ġangezeigt": 4617,
      "iellen": 4618,
      "Ġrot": 4619,
      "annt": 4620,
      "Ġ1999": 4621,
      "wohner": 4622,
      "Ġungar": 4623,
      "tita": 4624,
      "Ġverlassen": 4625,
      "Ġmat": 4626,
      "Ġfehlen": 4627,
      "ftigen": 4628,
      "Ġstabil": 4629,
      "rer": 4630,
      "Ġnetzwerk": 4631,
      "Ġperfe": 4632,
      "fter": 4633,
      "Ġging": 4634,
      "stin": 4635,
      "Ġev": 4636,
      "ĠgroÃŁbritann": 4637,
      "Ġbesei": 4638,
      "flug": 4639,
      "Ġeinkauf": 4640,
      "Ġmic": 4641,
      "Ġgutes": 4642,
      "grammen": 4643,
      "Ġpolizei": 4644,
      "dy": 4645,
      "Ġgewo": 4646,
      "raucher": 4647,
      "auern": 4648,
      "Ġbenach": 4649,
      "verkehrs": 4650,
      "kund": 4651,
      "Ġpfl": 4652,
      "Ġwander": 4653,
      "Ġzentrale": 4654,
      "Ġsagt": 4655,
      "leitung": 4656,
      "Ġmig": 4657,
      "Ġbeachten": 4658,
      "Ġgelo": 4659,
      "sein": 4660,
      "Ġ+": 4661,
      "Ġgekommen": 4662,
      "Ġklimawand": 4663,
      "''": 4664,
      "Ġwollte": 4665,
      "Ġbetonen": 4666,
      "ema": 4667,
      "bauen": 4668,
      "Ġfunktioniert": 4669,
      "Ġreicht": 4670,
      "Ġdownload": 4671,
      "Ġerstellt": 4672,
      "Ġjahrzehn": 4673,
      "Ġmark": 4674,
      "ish": 4675,
      "Ġtsche": 4676,
      "Ġstart": 4677,
      "Ġunterst": 4678,
      "Ġbegriff": 4679,
      "Ġkommenden": 4680,
      "Ġhunder": 4681,
      "Ġinstrumente": 4682,
      "punkte": 4683,
      "Ġschen": 4684,
      "wagen": 4685,
      "Ġdarstellen": 4686,
      "Ġhafen": 4687,
      "reiber": 4688,
      "Ġterrasse": 4689,
      "Ġgeschehen": 4690,
      "Ġgrenz": 4691,
      "Ġband": 4692,
      "ckwu": 4693,
      "cy": 4694,
      "mi": 4695,
      "Ġlokalen": 4696,
      "Ġmanchmal": 4697,
      "licherweise": 4698,
      "Ġsymbol": 4699,
      "Ġleistungen": 4700,
      "Ġkonz": 4701,
      "tienten": 4702,
      "Ġimmobilien": 4703,
      "Ġnachfolgend": 4704,
      "Ġbetru": 4705,
      "Ġgipfel": 4706,
      "Ġautom": 4707,
      "ssa": 4708,
      "Ġroman": 4709,
      "institu": 4710,
      "luÃŁ": 4711,
      "Ġprofitieren": 4712,
      "ktieren": 4713,
      "mension": 4714,
      "fast": 4715,
      "Ġrechnung": 4716,
      "instru": 4717,
      "Ġentschlossen": 4718,
      "Ġinitiativen": 4719,
      "Ġeinver": 4720,
      "Ġkostenlos": 4721,
      "âĢĵ": 4722,
      "Ġschweiz": 4723,
      "dig": 4724,
      "genden": 4725,
      "ffentlicht": 4726,
      "Ġplen": 4727,
      "Ġerzeug": 4728,
      "Ġkro": 4729,
      "sammlung": 4730,
      "Ġkonkrete": 4731,
      "Ġleistung": 4732,
      "mack": 4733,
      "Ġwebseite": 4734,
      "Ġanteil": 4735,
      "Ġeiniger": 4736,
      "cia": 4737,
      "Ġlandschaft": 4738,
      "stands": 4739,
      "king": 4740,
      "tlichen": 4741,
      "Ġabgeordnete": 4742,
      "Ġgefordert": 4743,
      "Ġglaub": 4744,
      "nken": 4745,
      "ieht": 4746,
      "lam": 4747,
      "Ġabsatz": 4748,
      "demokra": 4749,
      "Ġdienste": 4750,
      "bertragen": 4751,
      "Ġkritik": 4752,
      "Ġyor": 4753,
      "versorgung": 4754,
      "Ġfestzu": 4755,
      "Ġpho": 4756,
      "nner": 4757,
      "wimm": 4758,
      "Ġfebruar": 4759,
      "Ġmaschinen": 4760,
      "Ġdaraus": 4761,
      "Ġzugleich": 4762,
      "Ġve": 4763,
      "Ġdich": 4764,
      "Ġlauf": 4765,
      "Ġgela": 4766,
      "atoren": 4767,
      "samen": 4768,
      "ime": 4769,
      "Ġklare": 4770,
      "Ġherstellung": 4771,
      "Ġwenigen": 4772,
      "genann": 4773,
      "zwischen": 4774,
      "Ġzeich": 4775,
      "Ġmittelmeer": 4776,
      "Ġausgewogen": 4777,
      "berall": 4778,
      "Ġdurchaus": 4779,
      "rfnisse": 4780,
      "ling": 4781,
      "anlagen": 4782,
      "Ġausgang": 4783,
      "Ġzweif": 4784,
      "ue": 4785,
      "Ġverloren": 4786,
      "aufen": 4787,
      "Ġeisen": 4788,
      "Ġangaben": 4789,
      "hrleistet": 4790,
      "gewicht": 4791,
      "Ġsysteme": 4792,
      ".,": 4793,
      "Ġfreie": 4794,
      "Ġmeeres": 4795,
      "Ġzeiten": 4796,
      "Ġname": 4797,
      "Ġladen": 4798,
      "Ġratsvor": 4799,
      "Ġschwe": 4800,
      "ev": 4801,
      "maÃŁen": 4802,
      "Ġfonds": 4803,
      "rten": 4804,
      "Ġherzlich": 4805,
      "Ġsiehe": 4806,
      "Ġsim": 4807,
      "wen": 4808,
      "itze": 4809,
      "Ġalter": 4810,
      "Ġparlamentar": 4811,
      "Ġpc": 4812,
      "Ġ28": 4813,
      "ffet": 4814,
      "union": 4815,
      "handels": 4816,
      "Ġoffensichtlich": 4817,
      "Ġachtung": 4818,
      "Ġentspannen": 4819,
      "Ġnet": 4820,
      "Ġverlei": 4821,
      "Ġbetrachtet": 4822,
      "Ġkil": 4823,
      "nigreich": 4824,
      "Ġsehenswu": 4825,
      "ych": 4826,
      "ndliche": 4827,
      "krise": 4828,
      "Ġstatus": 4829,
      "Ġtschech": 4830,
      "Ġunterschiedliche": 4831,
      "Ġfreue": 4832,
      "Ġhauses": 4833,
      "Ġgrenzu": 4834,
      "Ġstamm": 4835,
      "Ġvilla": 4836,
      "Ġbege": 4837,
      "ranken": 4838,
      "Ġworte": 4839,
      "Ġabgeschlossen": 4840,
      "uver": 4841,
      "Ġoption": 4842,
      "beu": 4843,
      "Ġeinigung": 4844,
      "Ġindien": 4845,
      "Ġverwende": 4846,
      "Ġregelung": 4847,
      "Ġfen": 4848,
      "ars": 4849,
      "vertrag": 4850,
      "dra": 4851,
      "Ġruma": 4852,
      "Ġjustiz": 4853,
      "Ġverfolgen": 4854,
      "Ġprivate": 4855,
      "Ġflo": 4856,
      "rdigkeiten": 4857,
      "Ġerscheint": 4858,
      "sterdam": 4859,
      "Ġhumanita": 4860,
      "dium": 4861,
      "alisieren": 4862,
      "Ġverscha": 4863,
      "Ġgrat": 4864,
      "jo": 4865,
      "Ġamerikanischen": 4866,
      "inform": 4867,
      "zial": 4868,
      "Ġherausforderung": 4869,
      "Ġsem": 4870,
      "Ġkonzentrieren": 4871,
      "Ġfunktionieren": 4872,
      "Ġstein": 4873,
      "Ġcre": 4874,
      "Ġlizenz": 4875,
      "entrum": 4876,
      "Ġinnovation": 4877,
      "Ġbedenken": 4878,
      "hrigen": 4879,
      "Ġbat": 4880,
      "berschreiten": 4881,
      "Ġstellungnahme": 4882,
      "paket": 4883,
      "Ġstati": 4884,
      "Ġos": 4885,
      "riebe": 4886,
      "Ġgewinnen": 4887,
      "Ġrealita": 4888,
      "Ġnennen": 4889,
      "Ġpassen": 4890,
      "17": 4891,
      "ndischen": 4892,
      "Ġforderungen": 4893,
      "altet": 4894,
      "18": 4895,
      "angt": 4896,
      "tzlichen": 4897,
      "Ġgewinn": 4898,
      "Ġgeneral": 4899,
      "hnliche": 4900,
      "Ġmode": 4901,
      "Ġ!": 4902,
      "llten": 4903,
      "Ġamsterdam": 4904,
      "Ġeinhaltung": 4905,
      "izi": 4906,
      "spruch": 4907,
      "Ġdr": 4908,
      "volution": 4909,
      "40": 4910,
      "Ġmiteinander": 4911,
      "Ġanalyse": 4912,
      "Ġgeh": 4913,
      "Ġtechnik": 4914,
      "Ġpositive": 4915,
      "Ġ500": 4916,
      "Ġdebian": 4917,
      "ielle": 4918,
      "ĠentschlieÃŁungsantrag": 4919,
      "Ġ90": 4920,
      "Ġspielt": 4921,
      "rische": 4922,
      "Ġlandwir": 4923,
      "schw": 4924,
      "Ġwechsel": 4925,
      "Ġkirche": 4926,
      "gert": 4927,
      "Ġrenov": 4928,
      "Ġdiskutieren": 4929,
      "isiert": 4930,
      "Ġaspekt": 4931,
      "Ġverlu": 4932,
      "nischen": 4933,
      "ungsverfahren": 4934,
      "Ġcol": 4935,
      "zesse": 4936,
      "Ġstaff": 4937,
      "grenz": 4938,
      "mas": 4939,
      "Ġgran": 4940,
      "Ġjungen": 4941,
      "haber": 4942,
      "Ġumfasst": 4943,
      "Ġausgewa": 4944,
      "Ġstandards": 4945,
      "Ġendgu": 4946,
      "Ġzuga": 4947,
      "ek": 4948,
      "liste": 4949,
      "Ġideen": 4950,
      "viel": 4951,
      "Ġbarcelona": 4952,
      "elte": 4953,
      "Ġhersteller": 4954,
      "Ġunterkunft": 4955,
      "Ġnahrungs": 4956,
      "problem": 4957,
      "eistet": 4958,
      "zung": 4959,
      "Ġdamals": 4960,
      "Ġlesung": 4961,
      "Ġpatienten": 4962,
      "Ġgeleistet": 4963,
      "ora": 4964,
      "Ġauseinander": 4965,
      "Ġfolgende": 4966,
      "Ġsorge": 4967,
      "Ġdeleg": 4968,
      "ript": 4969,
      "ssysteme": 4970,
      "pfen": 4971,
      "Ġlan": 4972,
      "Ġjahrhunderts": 4973,
      "Ġdollar": 4974,
      "Ġverwirk": 4975,
      "Ġtexte": 4976,
      "Ġopen": 4977,
      "gener": 4978,
      "Ġgarantiert": 4979,
      "Ġentdecken": 4980,
      "issionen": 4981,
      "Ġerforderlichen": 4982,
      "Ġfertig": 4983,
      "ĠgroÃŁbritannien": 4984,
      "Ġallgemeine": 4985,
      "ella": 4986,
      "Ġeigentum": 4987,
      "Ġarbeitet": 4988,
      "Ġworld": 4989,
      "Ġvielmehr": 4990,
      "Ġfeststellen": 4991,
      "Ġverpa": 4992,
      "Ġsteigen": 4993,
      "kat": 4994,
      "Ġ196": 4995,
      "ologische": 4996,
      "Ġinstallation": 4997,
      "Ġfit": 4998,
      "Ġruhe": 4999,
      "Ġwachstums": 5000,
      "Ġgewiss": 5001,
      "Ġwien": 5002,
      "Ġtut": 5003,
      "Ġkop": 5004,
      "Ġmeist": 5005,
      "Ġton": 5006,
      "Ġvielzahl": 5007,
      "lieÃŁt": 5008,
      "tau": 5009,
      "Ġnews": 5010,
      "stri": 5011,
      "Ġvernu": 5012,
      "Ġlangen": 5013,
      "Ġversto": 5014,
      "Ġspezielle": 5015,
      "Ġanwendungen": 5016,
      "Ġverteidigung": 5017,
      "Ġkulturellen": 5018,
      "Ġkoso": 5019,
      "Ġfallen": 5020,
      "Ġlat": 5021,
      "Ġ70": 5022,
      "Ġexklu": 5023,
      "ngsten": 5024,
      "Ġclub": 5025,
      "bruch": 5026,
      "Ġwww": 5027,
      "Ġheimat": 5028,
      "Ġfair": 5029,
      "bestimm": 5030,
      "gebaut": 5031,
      "umente": 5032,
      "reitet": 5033,
      "Ġwarten": 5034,
      "Ġdrogen": 5035,
      "Ġhauptsa": 5036,
      "Ġarbeitslosigkeit": 5037,
      "Ġkind": 5038,
      "zy": 5039,
      "Ġeinfache": 5040,
      "zusa": 5041,
      "uch": 5042,
      "Ġhingewiesen": 5043,
      "Ġmik": 5044,
      "Ġke": 5045,
      "preise": 5046,
      "technik": 5047,
      "bezu": 5048,
      "Ġgestalten": 5049,
      "Ġeinsetzen": 5050,
      "gegeben": 5051,
      "Ġbezeichnet": 5052,
      "produktion": 5053,
      "gibt": 5054,
      "Ġ26": 5055,
      "Ġauswa": 5056,
      "Ġbetrachten": 5057,
      "Ġvern": 5058,
      "Ġpolen": 5059,
      "Ġmarket": 5060,
      "Ġrichtigen": 5061,
      "teuer": 5062,
      "Ġung": 5063,
      "âĢ¦": 5064,
      "Ġflexibilita": 5065,
      "Ġentwicklungen": 5066,
      "Ġkrimin": 5067,
      "ats": 5068,
      "ĠgroÃŁes": 5069,
      "gbarkeit": 5070,
      "Ġaussicht": 5071,
      "Ġbeant": 5072,
      "Ġrelativ": 5073,
      "spar": 5074,
      "haltet": 5075,
      "Ġweiterer": 5076,
      "Ġdorf": 5077,
      "atisch": 5078,
      "anta": 5079,
      "tzentrum": 5080,
      "Ġregionalen": 5081,
      "higen": 5082,
      "Ġbooking": 5083,
      "ulieren": 5084,
      "Ġreichen": 5085,
      "eratur": 5086,
      "eidung": 5087,
      "Ġgas": 5088,
      "swert": 5089,
      "Ġwiederauf": 5090,
      "Ġfarben": 5091,
      "Ġinternationaler": 5092,
      "irm": 5093,
      "Ġval": 5094,
      "Ġafrika": 5095,
      "Ġcli": 5096,
      "zeugen": 5097,
      "Ġgott": 5098,
      "Ġelement": 5099,
      "ida": 5100,
      "Ġbewertung": 5101,
      "Ġentstanden": 5102,
      "Ġvollkommen": 5103,
      "ml": 5104,
      "Ġmutter": 5105,
      "Ġvar": 5106,
      "Ġvorrang": 5107,
      "partner": 5108,
      "Ġentwurf": 5109,
      "tigten": 5110,
      "Ġrechten": 5111,
      "Ġbemer": 5112,
      "Ġproblemen": 5113,
      "Ġkompli": 5114,
      "Ġkommissions": 5115,
      "Ġwellness": 5116,
      "ausschusses": 5117,
      "Ġirland": 5118,
      "hi": 5119,
      "Ġstuden": 5120,
      "pi": 5121,
      "metho": 5122,
      "Ġbeschreibung": 5123,
      "Ġanlagen": 5124,
      "ong": 5125,
      "ftsordnung": 5126,
      "behalten": 5127,
      "phie": 5128,
      "Ġinst": 5129,
      "ni": 5130,
      "bile": 5131,
      "Ġbesitzt": 5132,
      "Ġbeginnt": 5133,
      "Ġstock": 5134,
      "kre": 5135,
      "hy": 5136,
      "Ġchancen": 5137,
      "Ġgold": 5138,
      "Ġvorliegenden": 5139,
      "windigkeit": 5140,
      "Ġkeinerlei": 5141,
      "Ġzoll": 5142,
      "ize": 5143,
      "Ġerfre": 5144,
      "Ġdv": 5145,
      "Ġkandid": 5146,
      "Ġratsvorsitz": 5147,
      "liegt": 5148,
      "Ġmindest": 5149,
      "Ġglobalisierung": 5150,
      "Ġverpflichtung": 5151,
      "oso": 5152,
      "Ġteilnehmer": 5153,
      "systeme": 5154,
      "antie": 5155,
      "Ġriesi": 5156,
      "Ġbez": 5157,
      "cio": 5158,
      "Ġsoweit": 5159,
      "Ġmittels": 5160,
      "Ġverfolgt": 5161,
      "Ġpresse": 5162,
      "Ġelemente": 5163,
      "eisen": 5164,
      "Ġest": 5165,
      "Ġhostels": 5166,
      "anst": 5167,
      "Ġideale": 5168,
      "dient": 5169,
      "Ġpolitischer": 5170,
      "hoben": 5171,
      "gende": 5172,
      "ÃŁeren": 5173,
      "Ġbeteiligt": 5174,
      "zz": 5175,
      "Ġdipl": 5176,
      "Ġerkennt": 5177,
      "Ġ300": 5178,
      "nes": 5179,
      "rochen": 5180,
      "Ġumfassende": 5181,
      "Ġgriechenland": 5182,
      "Ġenter": 5183,
      "Ġreaktion": 5184,
      "Ġbul": 5185,
      "ometer": 5186,
      "sslich": 5187,
      "Ġnutzer": 5188,
      "hel": 5189,
      "gress": 5190,
      "Ġreden": 5191,
      "hlten": 5192,
      "Ġrau": 5193,
      "Ġergeben": 5194,
      "Ġfotos": 5195,
      "nzen": 5196,
      "Ġseh": 5197,
      "bersetz": 5198,
      "Ġpool": 5199,
      "wortet": 5200,
      "Ġjur": 5201,
      "Ġmuseum": 5202,
      "sil": 5203,
      "Ġpraktisch": 5204,
      "Ġsolcher": 5205,
      "best": 5206,
      "Ġtal": 5207,
      "ki": 5208,
      "Ġenglisch": 5209,
      "Ġbere": 5210,
      "14": 5211,
      "Ġcle": 5212,
      "pport": 5213,
      "Ġtisch": 5214,
      "Ġbud": 5215,
      "ltige": 5216,
      "Ġausreichend": 5217,
      "gewo": 5218,
      "Ġwichtigste": 5219,
      "Ġkompa": 5220,
      "Ġworten": 5221,
      "Ġaltstadt": 5222,
      "wachstum": 5223,
      "Ġgarantieren": 5224,
      "lla": 5225,
      "wel": 5226,
      "Ġerwer": 5227,
      "Ġzuerst": 5228,
      "Ġkaufen": 5229,
      "Ġtodes": 5230,
      "isieren": 5231,
      "Ġsieben": 5232,
      "igu": 5233,
      "bit": 5234,
      "Ġbeinhaltet": 5235,
      "version": 5236,
      "ribu": 5237,
      "Ġcd": 5238,
      "ĠÂ»": 5239,
      "Ġkosovo": 5240,
      "Ġteilnehmen": 5241,
      "Ġsofern": 5242,
      "ester": 5243,
      "tifizierung": 5244,
      "Ġbeur": 5245,
      "Ġfernseh": 5246,
      "Ġregelungen": 5247,
      "sterne": 5248,
      "sho": 5249,
      "Ġverbundenen": 5250,
      "pul": 5251,
      "Ġmarken": 5252,
      "Ġbeteiligung": 5253,
      "nliche": 5254,
      "Ġinc": 5255,
      "16": 5256,
      "cial": 5257,
      "Ġfas": 5258,
      "ĠmaÃŁe": 5259,
      "Ġmail": 5260,
      "Ġkooperation": 5261,
      "cs": 5262,
      "Ġdiesbezu": 5263,
      "Ġhilfs": 5264,
      "Ġselten": 5265,
      "Ġyork": 5266,
      "Ġukraine": 5267,
      "deut": 5268,
      "hre": 5269,
      "ski": 5270,
      "Ġmesse": 5271,
      "Ġniveau": 5272,
      "fangen": 5273,
      "Ġmenu": 5274,
      "Ġwto": 5275,
      "Ġspeziellen": 5276,
      "Ġvorsitzen": 5277,
      "Ġarz": 5278,
      "Ġblock": 5279,
      "Ġservices": 5280,
      "Ġdiesel": 5281,
      "Ġbetre": 5282,
      "gut": 5283,
      "Ġfro": 5284,
      "Ġreisen": 5285,
      "siven": 5286,
      "stinens": 5287,
      "ellos": 5288,
      "Ġgestern": 5289,
      "Ġjunge": 5290,
      "Ġbreak": 5291,
      "Ġalternative": 5292,
      "Ġtourismus": 5293,
      "selben": 5294,
      "latz": 5295,
      "Ġkarten": 5296,
      "elles": 5297,
      "verw": 5298,
      "Ġgegenteil": 5299,
      "Ġce": 5300,
      "Ġsyn": 5301,
      "Ġwal": 5302,
      "lfte": 5303,
      "orgt": 5304,
      "Ġbeglu": 5305,
      "Ġbritischen": 5306,
      "ns": 5307,
      "Ġanmel": 5308,
      "herr": 5309,
      "attform": 5310,
      "Ġseien": 5311,
      "dies": 5312,
      "ppo": 5313,
      "Ġgrand": 5314,
      "99": 5315,
      "pon": 5316,
      "Ġqualifiz": 5317,
      "Ġabschn": 5318,
      "kle": 5319,
      "Ġstadtzentrum": 5320,
      "steuer": 5321,
      "Ġfremden": 5322,
      "Ġgood": 5323,
      "Ġstarke": 5324,
      "Ġverwei": 5325,
      "Ġhinweis": 5326,
      "Ġverhinder": 5327,
      "Ġmaxi": 5328,
      "Ġeinkommen": 5329,
      "Ġspie": 5330,
      "modell": 5331,
      "Ġkal": 5332,
      "Ġdatenschutz": 5333,
      "Ġafg": 5334,
      "Ġgl": 5335,
      "Ġtop": 5336,
      "ful": 5337,
      "nglichen": 5338,
      "Ġcham": 5339,
      "Ġislam": 5340,
      "Ġvermitt": 5341,
      "ierend": 5342,
      "meter": 5343,
      "Ġrechnungs": 5344,
      "dessen": 5345,
      "Ġtreten": 5346,
      "Ġhigh": 5347,
      "Ġsogenann": 5348,
      "rigen": 5349,
      "Ġsteuern": 5350,
      "Ġdient": 5351,
      "25": 5352,
      "gas": 5353,
      "Ġvia": 5354,
      "Ġlive": 5355,
      "Ġspezial": 5356,
      "Ġverbrechen": 5357,
      "Ġpau": 5358,
      "hmten": 5359,
      "zellen": 5360,
      "Ġerwachsen": 5361,
      "Ġerscheinen": 5362,
      "Ġbetriebs": 5363,
      "Ġgedanken": 5364,
      "organisation": 5365,
      "Ġinzwischen": 5366,
      "gesellschaften": 5367,
      "linge": 5368,
      "Ġgegensatz": 5369,
      "Ġresul": 5370,
      "sichten": 5371,
      "Ġwere": 5372,
      "Ġbulgar": 5373,
      "Ġ1998": 5374,
      "Ġerla": 5375,
      "Ġausu": 5376,
      "istisch": 5377,
      "Ġmusi": 5378,
      "bliothe": 5379,
      "Ġban": 5380,
      "Ġkopf": 5381,
      "Ġeinzelne": 5382,
      "Ġmerk": 5383,
      "Ġkris": 5384,
      "test": 5385,
      "Ġfestge": 5386,
      "Ġstudien": 5387,
      "bett": 5388,
      "Ġdemon": 5389,
      "mittelt": 5390,
      "oo": 5391,
      "Ġeinerseits": 5392,
      "Ġguter": 5393,
      "Ġfarb": 5394,
      "Ġrand": 5395,
      "Ġschli": 5396,
      "Ġerh": 5397,
      "mme": 5398,
      "onenten": 5399,
      "rzlich": 5400,
      "Ġsorgfa": 5401,
      "Ġaktionen": 5402,
      "far": 5403,
      "Ġhilf": 5404,
      "chern": 5405,
      "Ġausland": 5406,
      "Ġmeta": 5407,
      "prozess": 5408,
      "Ġdia": 5409,
      "....": 5410,
      "Ġprakti": 5411,
      "Ġgelungen": 5412,
      "Ġstation": 5413,
      "Ġerneuer": 5414,
      "Ġportug": 5415,
      "Ġereignisse": 5416,
      "material": 5417,
      "Ġgeschmack": 5418,
      "Ġinformiert": 5419,
      "Ġerleb": 5420,
      "immern": 5421,
      "Ġgenaus": 5422,
      "Ġapparte": 5423,
      "Ġsonn": 5424,
      "Ġlen": 5425,
      "Ġeinverstanden": 5426,
      "rig": 5427,
      "df": 5428,
      "modu": 5429,
      "Ġumge": 5430,
      "Ġbeschluss": 5431,
      "ico": 5432,
      "sentiert": 5433,
      "chnet": 5434,
      "Ġbotschaft": 5435,
      "hrende": 5436,
      "tritt": 5437,
      "igte": 5438,
      "berge": 5439,
      "ĠauÃŁerorden": 5440,
      "Ġerde": 5441,
      "ckkehr": 5442,
      "Ġarchitektur": 5443,
      "itut": 5444,
      "Ġgeschieht": 5445,
      "Ġempfa": 5446,
      "Ġ=": 5447,
      "Ġempfehlungen": 5448,
      "Ġasyl": 5449,
      "Ġmitteln": 5450,
      "ssicherheit": 5451,
      "Ġstol": 5452,
      "Ġpres": 5453,
      "Ġbean": 5454,
      "zig": 5455,
      "Ġtot": 5456,
      "Ġeinzigen": 5457,
      "ves": 5458,
      "datei": 5459,
      "ini": 5460,
      "Ġschlecht": 5461,
      "Ġfraktionen": 5462,
      "prise": 5463,
      "Ġsage": 5464,
      "Ġwirkung": 5465,
      "Ġhoffnung": 5466,
      "Ġordnung": 5467,
      "Ġerfordern": 5468,
      "Ġarbeitsmarkt": 5469,
      "flo": 5470,
      "Ġgrunde": 5471,
      "Ġ29": 5472,
      "Ġhindern": 5473,
      "Ġgewissen": 5474,
      "sens": 5475,
      "Ġgebiete": 5476,
      "ole": 5477,
      "Ġgla": 5478,
      "Ġjour": 5479,
      "orte": 5480,
      "Ġinvest": 5481,
      "straÃŁe": 5482,
      "Ġnachhaltige": 5483,
      "kultur": 5484,
      "Ġeig": 5485,
      "Ġlegis": 5486,
      "Ġschneller": 5487,
      "Ġbeihilfen": 5488,
      "Ġgenauso": 5489,
      "Ġsichern": 5490,
      "Ġvielfa": 5491,
      "Ġasso": 5492,
      "Ġlegiti": 5493,
      "utt": 5494,
      "Ġbreit": 5495,
      "Ġzula": 5496,
      "bew": 5497,
      "Ġorien": 5498,
      "Ġgehalten": 5499,
      "Ġbesorg": 5500,
      "hler": 5501,
      "Ġverlangen": 5502,
      "Ġdeiner": 5503,
      "Ġdemokratische": 5504,
      "Ġzugriff": 5505,
      "Ġliberalisierung": 5506,
      "nehmern": 5507,
      "utzung": 5508,
      "Ġbreite": 5509,
      "Ġsenden": 5510,
      "Ġbele": 5511,
      "Ġvoraussetzungen": 5512,
      "Ġdiver": 5513,
      "finanz": 5514,
      "Ġgesetzgebung": 5515,
      "Ġul": 5516,
      "kete": 5517,
      "Ġkleiner": 5518,
      "Ġfestgestellt": 5519,
      "nfte": 5520,
      "Ġumgeben": 5521,
      "log": 5522,
      "Ġangeho": 5523,
      "Ġuntersuch": 5524,
      "Ð»": 5525,
      "verein": 5526,
      "worfen": 5527,
      "Ġspricht": 5528,
      "annung": 5529,
      "ftigungs": 5530,
      "maschinen": 5531,
      "Ġprogramms": 5532,
      "Ġverfass": 5533,
      "Ġgebe": 5534,
      "Ġanlage": 5535,
      "leun": 5536,
      "Ġunternommen": 5537,
      "tegorie": 5538,
      "einrichtungen": 5539,
      "bernommen": 5540,
      "Ġnationaler": 5541,
      "Ġeinst": 5542,
      "Ġrisiken": 5543,
      "Ġgrundrechte": 5544,
      "Ġnorden": 5545,
      "Ġglaubwu": 5546,
      "Ġaustausch": 5547,
      "Ġentla": 5548,
      "Ġvorgeschlagenen": 5549,
      "Ġexperten": 5550,
      "behand": 5551,
      "lieben": 5552,
      "Ġjemand": 5553,
      "produkte": 5554,
      "Ġeventu": 5555,
      "Ġweiteres": 5556,
      "ssp": 5557,
      "Ġerfordert": 5558,
      "Ġminderheiten": 5559,
      "rtige": 5560,
      "chem": 5561,
      "Ġbesseren": 5562,
      "anb": 5563,
      "Ġmodi": 5564,
      "abkommen": 5565,
      "ienen": 5566,
      "Ġlinux": 5567,
      "Ġtod": 5568,
      "organisationen": 5569,
      "Ġrespe": 5570,
      "meister": 5571,
      "Ġteilnahme": 5572,
      "Ġanbieten": 5573,
      "Ġapartments": 5574,
      "Ġwelchen": 5575,
      "24": 5576,
      "ori": 5577,
      "Ġvieler": 5578,
      "Ġkonkur": 5579,
      "ngigen": 5580,
      "xi": 5581,
      "ĠschlieÃŁen": 5582,
      "sprach": 5583,
      "Ġgriech": 5584,
      "Ġvari": 5585,
      "ender": 5586,
      "ike": 5587,
      "nkungen": 5588,
      "bed": 5589,
      "Ġextra": 5590,
      "Ġgeschle": 5591,
      "olo": 5592,
      "Ġdimension": 5593,
      "Ġglobale": 5594,
      "Ġkurs": 5595,
      "Ġwodurch": 5596,
      "Ġhauptstadt": 5597,
      "Ġaufre": 5598,
      "forma": 5599,
      "Ġpolitiker": 5600,
      "Ġkontinu": 5601,
      "Ġhave": 5602,
      "cket": 5603,
      "Ġabsicht": 5604,
      "wenden": 5605,
      "ismen": 5606,
      "Ġsuch": 5607,
      "technologie": 5608,
      "Ġverd": 5609,
      "Ġdein": 5610,
      "Ġelegan": 5611,
      "nimmt": 5612,
      "spartner": 5613,
      "Ġwald": 5614,
      "Ġtouristen": 5615,
      "Ġechte": 5616,
      "ames": 5617,
      "nei": 5618,
      "zb": 5619,
      "Ġbestandteil": 5620,
      "ergie": 5621,
      "nal": 5622,
      "wegs": 5623,
      "dienste": 5624,
      "ckzu": 5625,
      "Ġanstatt": 5626,
      "Ġmitglieds": 5627,
      "gl": 5628,
      "Ġaudio": 5629,
      "Ġhard": 5630,
      "Ġstrom": 5631,
      "Ġmitgliedern": 5632,
      "Ġrefer": 5633,
      "Ġexter": 5634,
      "feh": 5635,
      "Ġhaup": 5636,
      "Ġregional": 5637,
      "fekt": 5638,
      "Ġpublik": 5639,
      "Ġdrittens": 5640,
      "hes": 5641,
      "Ġauftreten": 5642,
      "ĠÂ«": 5643,
      "Ġungleich": 5644,
      "gendes": 5645,
      "Ġvorschlagen": 5646,
      "Ġpflicht": 5647,
      "grenzen": 5648,
      "Ġkoordinierung": 5649,
      "Ġversuch": 5650,
      "Ġig": 5651,
      "Ġsolange": 5652,
      "stro": 5653,
      "gebracht": 5654,
      "Ġbuchen": 5655,
      "Ġseitens": 5656,
      "Ġklimaanlage": 5657,
      "Ġnichtraucher": 5658,
      "mor": 5659,
      "Ġniederlan": 5660,
      "Ġlaufe": 5661,
      "besta": 5662,
      "nummer": 5663,
      "Ġnochmals": 5664,
      "Ġdrittla": 5665,
      "tran": 5666,
      "uss": 5667,
      "Ġklin": 5668,
      "Ġeffizienz": 5669,
      "Ġzweifellos": 5670,
      "ato": 5671,
      "tigte": 5672,
      "Ġbreakfast": 5673,
      "Ġbeeinflu": 5674,
      "Ġvorbereitung": 5675,
      "Ġpflanzen": 5676,
      "Ġkontinent": 5677,
      "Ġtraditionellen": 5678,
      "ther": 5679,
      "Ġhergestellt": 5680,
      "Ġberichten": 5681,
      "Ġanliegen": 5682,
      "hrliche": 5683,
      "vision": 5684,
      "bah": 5685,
      "Ġanpassung": 5686,
      "oker": 5687,
      "Ġkroa": 5688,
      "Ġradio": 5689,
      "ssigen": 5690,
      "Ġunein": 5691,
      "cd": 5692,
      "riert": 5693,
      "Ġbeteiligten": 5694,
      "Ġkaffe": 5695,
      "Ġeinkaufs": 5696,
      "Ġlam": 5697,
      "tisierung": 5698,
      "Ġmassen": 5699,
      "umt": 5700,
      "Ġ35": 5701,
      "Ġdiskutiert": 5702,
      "!!": 5703,
      "hlte": 5704,
      "gno": 5705,
      "Ġzeu": 5706,
      "ular": 5707,
      "Ġspiele": 5708,
      "zwungen": 5709,
      "Ġwesentliche": 5710,
      "Ġakte": 5711,
      "Ġgerichte": 5712,
      "Ġbewegen": 5713,
      "reicher": 5714,
      "Ġreagieren": 5715,
      "Ġwid": 5716,
      "Ġrepra": 5717,
      "Ġeinschra": 5718,
      "reitung": 5719,
      "Ġroma": 5720,
      "Ġweshalb": 5721,
      "Ġunterschiedlich": 5722,
      "Ġoberfla": 5723,
      "rlichen": 5724,
      "iefer": 5725,
      "Ġzimmern": 5726,
      "Ġgefo": 5727,
      "Ġkurzem": 5728,
      "Ġspekt": 5729,
      "Ġnahen": 5730,
      "Ġfenster": 5731,
      "Ġfinde": 5732,
      "gei": 5733,
      "Ġarmen": 5734,
      "hrige": 5735,
      "bereiche": 5736,
      "...\"": 5737,
      "Ġausnahme": 5738,
      "Ġausgefu": 5739,
      "Ġsinnvoll": 5740,
      "ruf": 5741,
      "Ġverwand": 5742,
      "Ġdiskriminierung": 5743,
      "Ġstarten": 5744,
      "dlichen": 5745,
      "Ġbeweis": 5746,
      "Ġterrit": 5747,
      "Ġlink": 5748,
      "Ġprin": 5749,
      "Ġmethode": 5750,
      "anen": 5751,
      "ssigkeit": 5752,
      "iode": 5753,
      "angs": 5754,
      "nchen": 5755,
      "Ġphase": 5756,
      "Ġsensi": 5757,
      "Ġpil": 5758,
      "Ġakzeptiert": 5759,
      "Ġeltern": 5760,
      "endung": 5761,
      "inger": 5762,
      "Ġperspe": 5763,
      "Ġmethoden": 5764,
      "star": 5765,
      "Ġbeschleun": 5766,
      "terung": 5767,
      "Ġbegann": 5768,
      "Ġmac": 5769,
      "Ġroh": 5770,
      "Ġinseln": 5771,
      "mechan": 5772,
      "Ġangriff": 5773,
      "bahnhof": 5774,
      "Ġfitness": 5775,
      "llo": 5776,
      "bertra": 5777,
      "Ġveranstaltungen": 5778,
      "kommun": 5779,
      "23": 5780,
      "Ġtool": 5781,
      "Ġkna": 5782,
      "chtigen": 5783,
      "):": 5784,
      "Ġatom": 5785,
      "Ġbl": 5786,
      "zeÃŁ": 5787,
      "hnlichen": 5788,
      "sicherung": 5789,
      "ule": 5790,
      "Ġschloss": 5791,
      "hrlichen": 5792,
      "Ġbehandeln": 5793,
      "Ġdokumen": 5794,
      "Ġrasch": 5795,
      "Ġbetont": 5796,
      "Ġzustand": 5797,
      "Ġflor": 5798,
      "Ġpositiven": 5799,
      "Ġwahrheit": 5800,
      "Ġfluss": 5801,
      "Ġfreizeit": 5802,
      "telligen": 5803,
      "krieg": 5804,
      "Ġentlang": 5805,
      "Ġwiederher": 5806,
      "ssige": 5807,
      "bersetzung": 5808,
      "iertes": 5809,
      "projekt": 5810,
      "Ġema": 5811,
      "Ġkeines": 5812,
      "Ġanla": 5813,
      "Ġafghan": 5814,
      "gebu": 5815,
      "stik": 5816,
      "ira": 5817,
      "Ġ31": 5818,
      "iegen": 5819,
      "ffend": 5820,
      "ckte": 5821,
      "Ġbegonnen": 5822,
      "ogle": 5823,
      "Ġoriginal": 5824,
      "Ġ1997": 5825,
      "Ġkontextu": 5826,
      "ela": 5827,
      "Ġarme": 5828,
      "80": 5829,
      "wechsel": 5830,
      "Ġangeht": 5831,
      "Ġberufs": 5832,
      "Ġanfa": 5833,
      "bro": 5834,
      "Ġunmittelbar": 5835,
      "mittag": 5836,
      "center": 5837,
      "Ġarab": 5838,
      "kurs": 5839,
      "Ġtrag": 5840,
      "Ġpsych": 5841,
      "rs": 5842,
      "sische": 5843,
      "Ġgeneration": 5844,
      "verha": 5845,
      "Ġbekannten": 5846,
      "Ġtiere": 5847,
      "Ġintensiv": 5848,
      "Ġehemaligen": 5849,
      "iums": 5850,
      "Ġfree": 5851,
      "Ġschulden": 5852,
      "Ġschweden": 5853,
      "Ġgeheim": 5854,
      "Ġsicherstellen": 5855,
      "Ġgepa": 5856,
      "Ġeinklang": 5857,
      "Ġzuzu": 5858,
      "Ġzustimmen": 5859,
      "ads": 5860,
      "cksichtigung": 5861,
      "Ġcenter": 5862,
      "Ġverlieren": 5863,
      "Ġausflu": 5864,
      "Ġaufsicht": 5865,
      "Ġhaut": 5866,
      "Ġerneu": 5867,
      "Ġprovin": 5868,
      "tags": 5869,
      "Ġgewisse": 5870,
      "Ġfriedens": 5871,
      "Ġbewegung": 5872,
      "Ġhoher": 5873,
      "lege": 5874,
      "Ġverantwortungs": 5875,
      "van": 5876,
      "Ġoli": 5877,
      "unsten": 5878,
      "Ġunterschiede": 5879,
      "Ġwenden": 5880,
      "stoffen": 5881,
      "Ġregionale": 5882,
      "code": 5883,
      "tent": 5884,
      "Ġstarken": 5885,
      "Ġklimawandel": 5886,
      "Ġfalsch": 5887,
      "grundlage": 5888,
      "Ġschwerpunkt": 5889,
      "Ġkranken": 5890,
      "sper": 5891,
      "vorschla": 5892,
      "Ġwiederum": 5893,
      "sachen": 5894,
      "Ġlob": 5895,
      "sc": 5896,
      "way": 5897,
      "Ġagenda": 5898,
      "Ġstunde": 5899,
      "Ġnorm": 5900,
      "Ġwichtiges": 5901,
      "gemeinschaft": 5902,
      "zif": 5903,
      "Ġfand": 5904,
      "Ġschei": 5905,
      "Ġnachrichten": 5906,
      "Ġsw": 5907,
      "Ġadresse": 5908,
      "freie": 5909,
      "Ġbeschrieben": 5910,
      "Ġzyp": 5911,
      "vorschlag": 5912,
      "nstig": 5913,
      "Ġdol": 5914,
      "Ġeinwanderung": 5915,
      "Ġportugal": 5916,
      "wser": 5917,
      "werten": 5918,
      "folgerungen": 5919,
      "ony": 5920,
      "Ġdahin": 5921,
      "Ġverzo": 5922,
      "rosoft": 5923,
      "ded": 5924,
      "Ġergriffen": 5925,
      "igur": 5926,
      "Ġunmo": 5927,
      "Ġitalienischen": 5928,
      "fertigt": 5929,
      "leg": 5930,
      "Ġlocation": 5931,
      "Ġbrasil": 5932,
      "Ġidentita": 5933,
      "ÃŁern": 5934,
      "rates": 5935,
      "Ġbahnhof": 5936,
      "Ðº": 5937,
      "Ġdenk": 5938,
      "adresse": 5939,
      "systems": 5940,
      "Ġkollege": 5941,
      "Ġdiskussionen": 5942,
      "Ġderzeitigen": 5943,
      "Ġbewahr": 5944,
      "Ġhierbei": 5945,
      "Ġbefassen": 5946,
      "Ġkombination": 5947,
      "Ġinteressant": 5948,
      "Ġfordert": 5949,
      "Ġvorgenommen": 5950,
      "Ġbur": 5951,
      "sprache": 5952,
      "Ġiso": 5953,
      "Ġgericht": 5954,
      "Ġbesorgnis": 5955,
      "Ġwesten": 5956,
      "Ġerlauben": 5957,
      "Ġkonkreten": 5958,
      "nsten": 5959,
      "Ġklaren": 5960,
      "ndische": 5961,
      "server": 5962,
      "Ġbelast": 5963,
      "Ġfreude": 5964,
      "Ġgrenze": 5965,
      "Ġangepa": 5966,
      "Ġgesetze": 5967,
      "zahlt": 5968,
      "Ġgleicher": 5969,
      "Ġangebote": 5970,
      "Ġsing": 5971,
      "Ġmanche": 5972,
      "Ġhistorische": 5973,
      "kap": 5974,
      "ltlich": 5975,
      "Ġanerkannt": 5976,
      "Ġsah": 5977,
      "Ġmehrwert": 5978,
      "chster": 5979,
      "steuropa": 5980,
      "ql": 5981,
      "leit": 5982,
      "omie": 5983,
      "beziehung": 5984,
      "Ġfreunde": 5985,
      "Ġbildet": 5986,
      "Ġgespeich": 5987,
      "bor": 5988,
      "Ġkunde": 5989,
      "schlu": 5990,
      "stehenden": 5991,
      "Ġhervorge": 5992,
      "zier": 5993,
      "ĠauÃŁergewo": 5994,
      "Ġuntersuchung": 5995,
      "Ġone": 5996,
      "Ġhaushaltsplan": 5997,
      "Ġback": 5998,
      "Ġpapier": 5999,
      "absich": 6000,
      "Ġtraum": 6001,
      "Ġyour": 6002,
      "Ġengag": 6003,
      "Ġep": 6004,
      "biente": 6005,
      "Ġmitten": 6006,
      "Ġgeschrieben": 6007,
      "une": 6008,
      "vid": 6009,
      "Â²": 6010,
      "Ġentscheidend": 6011,
      "berech": 6012,
      "Ñĥ": 6013,
      "Ġamerika": 6014,
      "spie": 6015,
      "Ġkommer": 6016,
      "Ġstrukturfonds": 6017,
      "dge": 6018,
      "machen": 6019,
      "Ġreligio": 6020,
      "Ġargu": 6021,
      "Ġeigenschaften": 6022,
      "Ġgeha": 6023,
      "Ġermu": 6024,
      "Ġbasiert": 6025,
      "Ġvoraussetzung": 6026,
      "Ġadminist": 6027,
      "Ġgerman": 6028,
      "Ġgarantie": 6029,
      "effizien": 6030,
      "03": 6031,
      "pre": 6032,
      "Ġmaler": 6033,
      "mess": 6034,
      "sidi": 6035,
      "Ġehrgei": 6036,
      "98": 6037,
      "ktiver": 6038,
      "gesundheit": 6039,
      "standards": 6040,
      "mie": 6041,
      "Ġbezieht": 6042,
      "Ġgetra": 6043,
      "Ġspanischen": 6044,
      "Ġdetails": 6045,
      "Ġdokumente": 6046,
      "Ġsatell": 6047,
      "igungs": 6048,
      "dten": 6049,
      "Ġ194": 6050,
      "Ġluxur": 6051,
      "kreis": 6052,
      "Ġachten": 6053,
      "tv": 6054,
      "Ġzusatz": 6055,
      "Ġdigital": 6056,
      "gestellten": 6057,
      "higkeiten": 6058,
      "verl": 6059,
      "Ġkomment": 6060,
      "Ġliefern": 6061,
      "quellen": 6062,
      "Ġziemlich": 6063,
      "Ġbestell": 6064,
      "Ġmikro": 6065,
      "dungs": 6066,
      "Ġtrend": 6067,
      "Ġberaten": 6068,
      "fes": 6069,
      "indungen": 6070,
      "heber": 6071,
      "Ġbegeg": 6072,
      "Ġgebrau": 6073,
      "kontrolle": 6074,
      "Ġkul": 6075,
      "Ġlager": 6076,
      "Ġfriend": 6077,
      "lly": 6078,
      "ischung": 6079,
      "Ġfac": 6080,
      "Ġobje": 6081,
      "Ġleitlinien": 6082,
      "rke": 6083,
      "Ġfuer": 6084,
      "legte": 6085,
      "Ġumfassenden": 6086,
      "Ġmicrosoft": 6087,
      "Ġzahlungs": 6088,
      "ĠmaÃŁnahme": 6089,
      "Ġzunehmend": 6090,
      "Ġsubst": 6091,
      "Ġ$": 6092,
      "Ġurlau": 6093,
      "sste": 6094,
      "sia": 6095,
      "Ġdefinition": 6096,
      "inder": 6097,
      "komp": 6098,
      "Ġhaft": 6099,
      "ckge": 6100,
      "Ġsanktionen": 6101,
      "Ġrevolution": 6102,
      "Ġphoto": 6103,
      "Ġerm": 6104,
      "Ġgesicht": 6105,
      "Ġkorru": 6106,
      "team": 6107,
      "rennen": 6108,
      "angebot": 6109,
      "Ġempfehlung": 6110,
      "rechten": 6111,
      "Ġbeha": 6112,
      "Ġvolle": 6113,
      "reuung": 6114,
      "bereit": 6115,
      "gens": 6116,
      "Ġdirekte": 6117,
      "richtet": 6118,
      "Ġdetaill": 6119,
      "inar": 6120,
      "Ġlatein": 6121,
      "Ġglas": 6122,
      "prechen": 6123,
      "rate": 6124,
      "Ġmex": 6125,
      "Ġintelligen": 6126,
      "Ġgoogle": 6127,
      "Ġderartige": 6128,
      "Ġumweltschutz": 6129,
      "Ġfeld": 6130,
      "unge": 6131,
      "Ġeurope": 6132,
      "erweise": 6133,
      "Ġnachzu": 6134,
      "Ġbeige": 6135,
      "kung": 6136,
      "Ġanfragen": 6137,
      "Ġoppo": 6138,
      "Ġniemals": 6139,
      "Ġfrankf": 6140,
      "Ġuno": 6141,
      "suchen": 6142,
      "ndler": 6143,
      "Ġvoller": 6144,
      "Ġref": 6145,
      "Ġrom": 6146,
      "Ġlandwirte": 6147,
      "anda": 6148,
      "Ġbeach": 6149,
      "Ġbadezimmer": 6150,
      "ones": 6151,
      "brigens": 6152,
      "deten": 6153,
      "bene": 6154,
      "ehrt": 6155,
      "istenz": 6156,
      "Ġplus": 6157,
      "pft": 6158,
      "Ġcap": 6159,
      "Ġgefahren": 6160,
      "Ġstrategien": 6161,
      "Ġvirtu": 6162,
      "Ġbir": 6163,
      "Ġmak": 6164,
      "Ġlegisla": 6165,
      "itel": 6166,
      "Ġwirklichkeit": 6167,
      "dass": 6168,
      "Ġtemperatur": 6169,
      "Ġsexu": 6170,
      "Ġhart": 6171,
      "Ġbeizu": 6172,
      "Ġniederla": 6173,
      "Ġungefa": 6174,
      "Ġnachfrage": 6175,
      "Ġour": 6176,
      "Ġberatung": 6177,
      "Ġbesitzen": 6178,
      "Ġgefangen": 6179,
      "kter": 6180,
      "Ġpower": 6181,
      "gos": 6182,
      "handlungen": 6183,
      "gyp": 6184,
      "lehnt": 6185,
      "blichen": 6186,
      "Ġmaterialien": 6187,
      "ory": 6188,
      "Ġausgezeichnete": 6189,
      "Ġweltweiten": 6190,
      "Ġrechtsstaat": 6191,
      "ath": 6192,
      "Ġstolz": 6193,
      "macht": 6194,
      "Ġvermo": 6195,
      "Ġformular": 6196,
      "Ġhervorragende": 6197,
      "programme": 6198,
      "Ġinteressiert": 6199,
      "Ġgepru": 6200,
      "Ġsignal": 6201,
      "Ġviertel": 6202,
      "mischen": 6203,
      "Ġstimmt": 6204,
      "cess": 6205,
      "Ġverbringen": 6206,
      "fest": 6207,
      "Ġgrundlegenden": 6208,
      "Ġherkunft": 6209,
      "Ġgeorg": 6210,
      "Ġhilft": 6211,
      "tto": 6212,
      "Ġschule": 6213,
      "Ġunternehmer": 6214,
      "Ġversa": 6215,
      "Ġambiente": 6216,
      "Ġkurze": 6217,
      "Ġspu": 6218,
      "Ġstudenten": 6219,
      "Ġausser": 6220,
      "itar": 6221,
      "Ġschwed": 6222,
      "pass": 6223,
      "Ġpens": 6224,
      "Ġeigenes": 6225,
      "Ġschuld": 6226,
      "rag": 6227,
      "forschung": 6228,
      "Ġerwartungen": 6229,
      "Ġerheblich": 6230,
      "Ġschwierigen": 6231,
      ".-": 6232,
      "Ġzielen": 6233,
      "Ġbetreffenden": 6234,
      "Ġdatenbank": 6235,
      "stischen": 6236,
      "Ġnato": 6237,
      "bten": 6238,
      "kanischen": 6239,
      "Ġkrisen": 6240,
      "Ġstudie": 6241,
      "Ġmarketing": 6242,
      "ngige": 6243,
      "gres": 6244,
      "neter": 6245,
      "Ġmittelpunkt": 6246,
      "Ġ1996": 6247,
      "Ġgesetzes": 6248,
      "Ġkategorie": 6249,
      "pagne": 6250,
      "ype": 6251,
      "Ġerweitert": 6252,
      "gnisse": 6253,
      "ventionen": 6254,
      "anische": 6255,
      "ero": 6256,
      "ando": 6257,
      "Ġvorder": 6258,
      "Ġurheber": 6259,
      "Ġret": 6260,
      "bewe": 6261,
      "bran": 6262,
      "Ġvorsitz": 6263,
      "Ġdurchzufu": 6264,
      "Ġbedauer": 6265,
      "schule": 6266,
      "ĠanschlieÃŁend": 6267,
      "Ġanspruchs": 6268,
      "Ġfur": 6269,
      "abl": 6270,
      "Ġimpl": 6271,
      "Ġbab": 6272,
      "Ġbuchung": 6273,
      "Ġbalkon": 6274,
      "Ġbucht": 6275,
      "dorf": 6276,
      "ata": 6277,
      "Ġgrundlegende": 6278,
      "Ġnein": 6279,
      "Ġamtieren": 6280,
      "ftet": 6281,
      "region": 6282,
      "view": 6283,
      "Ġjegliche": 6284,
      "Ġwissenschaftlichen": 6285,
      "Ġveranstaltung": 6286,
      "Ġeinstellung": 6287,
      "band": 6288,
      "hlung": 6289,
      "Ġrichten": 6290,
      "lik": 6291,
      "Ġbeliebt": 6292,
      "Ġneuesten": 6293,
      "arn": 6294,
      "Ġordnungs": 6295,
      "Ġjournal": 6296,
      "Ġagrarpolitik": 6297,
      "neu": 6298,
      "Ġkandidaten": 6299,
      "Ġentta": 6300,
      "Ġil": 6301,
      "betrieb": 6302,
      "maschine": 6303,
      "Ġexpor": 6304,
      "Ġkulturelle": 6305,
      "Ġschweizer": 6306,
      "Ġkol": 6307,
      "izient": 6308,
      "atik": 6309,
      "Ġbetrieben": 6310,
      "ief": 6311,
      "Ġstandort": 6312,
      "Ġbeabsich": 6313,
      "Ġgeboren": 6314,
      "Ġoffenen": 6315,
      "ÃŁigen": 6316,
      "Ġabstimm": 6317,
      "ektoren": 6318,
      "Ġstill": 6319,
      "Ġinstalliert": 6320,
      "Ġbeispiele": 6321,
      "Ġrussischen": 6322,
      "Ġverbesserungen": 6323,
      "rter": 6324,
      "wirkung": 6325,
      "Ġmol": 6326,
      "ott": 6327,
      "stunden": 6328,
      "wendungen": 6329,
      "arm": 6330,
      "Ġfestiv": 6331,
      "Ġfeuer": 6332,
      "berzeugung": 6333,
      "Ġpeti": 6334,
      "Ġknow": 6335,
      "Ġwol": 6336,
      "Ġfreiwill": 6337,
      "griffe": 6338,
      "Ġausgezeichneten": 6339,
      "Ġeffektiv": 6340,
      "Ġautor": 6341,
      "Ġruhigen": 6342,
      "krank": 6343,
      "Ġplanung": 6344,
      "dan": 6345,
      "ese": 6346,
      "ablen": 6347,
      "Ġtheater": 6348,
      "Ġperfekt": 6349,
      "Ġreduz": 6350,
      "Ġschwarz": 6351,
      "Ġalb": 6352,
      "Ġmm": 6353,
      "Ġgebrauch": 6354,
      "Ġhierzu": 6355,
      "kommunik": 6356,
      "Ġluxem": 6357,
      "Ġ''": 6358,
      "schlagen": 6359,
      "Ġsec": 6360,
      "Ġbauern": 6361,
      "Ġfehl": 6362,
      "Ġsound": 6363,
      "Ġtrifft": 6364,
      "Ġ195": 6365,
      "Ġschnelle": 6366,
      "Ġnormen": 6367,
      "Ġstattf": 6368,
      "Ġexport": 6369,
      "vig": 6370,
      "bereinstimmung": 6371,
      "Ġstahl": 6372,
      "Ġausgeschlossen": 6373,
      "Ġgelegt": 6374,
      "hebung": 6375,
      "wechs": 6376,
      "bungen": 6377,
      "Ġspre": 6378,
      "samer": 6379,
      "Ġgerech": 6380,
      "weisung": 6381,
      "Ġforum": 6382,
      "Ġgeg": 6383,
      "Ġapartment": 6384,
      "97": 6385,
      "wak": 6386,
      "Ġeth": 6387,
      "Ġeinfachen": 6388,
      "Ġmenschlichen": 6389,
      "Ġkilometer": 6390,
      "lichkeiten": 6391,
      "berle": 6392,
      "Ġverehrte": 6393,
      "ichtete": 6394,
      "Ġcode": 6395,
      "ÃŁige": 6396,
      "Ġsorgt": 6397,
      "Ġmoral": 6398,
      "berzeugen": 6399,
      "Ġletztlich": 6400,
      "Ġunent": 6401,
      "vas": 6402,
      "Ġorganisiert": 6403,
      "ehme": 6404,
      "Ġnotwendige": 6405,
      "rufen": 6406,
      "dateien": 6407,
      "Ġaufzunehmen": 6408,
      "Ġmobilita": 6409,
      "Ġversand": 6410,
      "Ġethn": 6411,
      "bernimmt": 6412,
      "nheit": 6413,
      "Ġharmonisierung": 6414,
      "Ġnahrungsmittel": 6415,
      "Ġwik": 6416,
      "Ġpunkten": 6417,
      "vertra": 6418,
      "Ġtagung": 6419,
      "iser": 6420,
      "Ġhimm": 6421,
      "timmen": 6422,
      "alo": 6423,
      "Ġkapazita": 6424,
      "Ġhervorheben": 6425,
      "Ġsupport": 6426,
      "banken": 6427,
      "mitglieder": 6428,
      "Ġgek": 6429,
      "Ġgeschen": 6430,
      "Ġfinn": 6431,
      "wirt": 6432,
      "Â»": 6433,
      "Ġabgelehnt": 6434,
      "bte": 6435,
      "waffen": 6436,
      "quis": 6437,
      "var": 6438,
      "Ġausgesprochen": 6439,
      "Ġumzusetzen": 6440,
      "minuten": 6441,
      "Ġgezogen": 6442,
      "Ġmusste": 6443,
      "Ġausgangspunkt": 6444,
      "Ġzentralen": 6445,
      "Ġoffenbar": 6446,
      "haushalt": 6447,
      "Ġkonfron": 6448,
      "Ġszen": 6449,
      "âĦ": 6450,
      "its": 6451,
      "stellungs": 6452,
      "Ġinfolge": 6453,
      "Ġamt": 6454,
      "Ġstrukturen": 6455,
      "Ġverursacht": 6456,
      "ade": 6457,
      "Ġmain": 6458,
      "ausend": 6459,
      "Ġkonsens": 6460,
      "Ġcentre": 6461,
      "Ġzweit": 6462,
      "Ġerna": 6463,
      "kula": 6464,
      "Ġgratulieren": 6465,
      "Ġhtt": 6466,
      "kohol": 6467,
      "Ġbeschlu": 6468,
      "Ġneun": 6469,
      "Ġgepra": 6470,
      "ission": 6471,
      "zugang": 6472,
      "Ġcasino": 6473,
      "Ġdvd": 6474,
      "02": 6475,
      "sur": 6476,
      "Ġosteuropa": 6477,
      "tatten": 6478,
      "Ġannehmen": 6479,
      "ĠanschlieÃŁen": 6480,
      "kas": 6481,
      "Ġkommerzie": 6482,
      "beka": 6483,
      "Ġpak": 6484,
      "Ġgewonnen": 6485,
      "Ġausstattung": 6486,
      "Ġexp": 6487,
      "software": 6488,
      "Ġrelev": 6489,
      "Ġriesigen": 6490,
      "Ġverschiedener": 6491,
      "Ġpanor": 6492,
      "tifik": 6493,
      "Ġimpor": 6494,
      "Ġanwesen": 6495,
      "ane": 6496,
      "Ġfestlegung": 6497,
      "ii": 6498,
      "pakt": 6499,
      "Ġverlangt": 6500,
      "Ġangst": 6501,
      "Ġexc": 6502,
      "Ġinklu": 6503,
      "Ġliter": 6504,
      "ngst": 6505,
      "Ġbrand": 6506,
      "Ġschafft": 6507,
      "Ġunfa": 6508,
      "Ġky": 6509,
      "vern": 6510,
      "Ġaustra": 6511,
      "ÌĬ": 6512,
      "Ġunzu": 6513,
      "spieler": 6514,
      "initi": 6515,
      "derung": 6516,
      "artet": 6517,
      "Ġabscha": 6518,
      "Ġgerichtshof": 6519,
      "ient": 6520,
      "âĦ¢": 6521,
      "Ġuneingeschra": 6522,
      "lymp": 6523,
      "Ġumgang": 6524,
      "ila": 6525,
      "Ġmut": 6526,
      "informationen": 6527,
      "Ġav": 6528,
      "hofs": 6529,
      "Ġwil": 6530,
      "chtung": 6531,
      "Ġkurzfrist": 6532,
      "Ġgestaltung": 6533,
      "Ġstud": 6534,
      "Ġvater": 6535,
      "orten": 6536,
      "tele": 6537,
      "ione": 6538,
      "Ġangesehen": 6539,
      "Ġlautet": 6540,
      "Ġfordere": 6541,
      "Ġfarbe": 6542,
      "ziplin": 6543,
      "Ġkreu": 6544,
      "Ġkapitel": 6545,
      "Ġkrankheiten": 6546,
      "Ġbefo": 6547,
      "Ġerholung": 6548,
      "--": 6549,
      "igungen": 6550,
      "uvera": 6551,
      "Ġsauna": 6552,
      "Ġunverzu": 6553,
      "chtig": 6554,
      "Ġausgest": 6555,
      "Ġgestatten": 6556,
      "book": 6557,
      "Ġ150": 6558,
      "Ġaufgefordert": 6559,
      "bertragung": 6560,
      "Ġanalys": 6561,
      "Ġbela": 6562,
      "stische": 6563,
      "Ġelektro": 6564,
      "Ġzugunsten": 6565,
      "Ġerza": 6566,
      "gescho": 6567,
      "Ġursp": 6568,
      "ssten": 6569,
      "Ġschatten": 6570,
      "Ġgewicht": 6571,
      "rdigkeit": 6572,
      "Ġkontinuier": 6573,
      "Ġabschnitt": 6574,
      "schirm": 6575,
      "Ġausstellung": 6576,
      "Ġbrenn": 6577,
      "ickt": 6578,
      "Â¤": 6579,
      "beauftra": 6580,
      "Ġverschw": 6581,
      "ffentlichung": 6582,
      "Ġschre": 6583,
      "Ġinteressante": 6584,
      "Ġboot": 6585,
      "Ġinstallieren": 6586,
      "Ġsehe": 6587,
      "oto": 6588,
      "Ġwissens": 6589,
      "regierung": 6590,
      "itor": 6591,
      "Ġgewi": 6592,
      "rme": 6593,
      "Ġnahezu": 6594,
      "Ġemail": 6595,
      "Ġgegend": 6596,
      "Ġkrankheit": 6597,
      "Ġherunterladen": 6598,
      "dete": 6599,
      "mitten": 6600,
      "Ġbestimmen": 6601,
      "Ġcafe": 6602,
      "Ġbezahlen": 6603,
      "Ġkonver": 6604,
      "regeln": 6605,
      "Ġstei": 6606,
      "anne": 6607,
      "Ġbestellung": 6608,
      "Ġklu": 6609,
      "Ġwin": 6610,
      "Ġverstanden": 6611,
      "Ġanrei": 6612,
      "Ġfeier": 6613,
      "law": 6614,
      "Ġregime": 6615,
      "Ġgeboten": 6616,
      "Ġcosta": 6617,
      "ĠgroÃŁzu": 6618,
      "Ġstaatlichen": 6619,
      "Ġausru": 6620,
      "Ġlag": 6621,
      "Ġarg": 6622,
      "Ġkamera": 6623,
      "Ġkurzen": 6624,
      "Ġgroup": 6625,
      "Ġnachhaltigen": 6626,
      "ep": 6627,
      "gest": 6628,
      "Ġblog": 6629,
      "klasse": 6630,
      "box": 6631,
      "Ġfotograf": 6632,
      "Ġsalz": 6633,
      "Ð²": 6634,
      "ndigt": 6635,
      "club": 6636,
      "//": 6637,
      "Ġeinzigartige": 6638,
      "Ġsozialdemokra": 6639,
      "Ġarbeitsplatz": 6640,
      "ufe": 6641,
      "Ġzufolge": 6642,
      "Ġprag": 6643,
      "Ġpremier": 6644,
      "Ġausgezeichnet": 6645,
      "dok": 6646,
      "Ġausgabe": 6647,
      "anal": 6648,
      "tsch": 6649,
      "Ġregen": 6650,
      "gebiete": 6651,
      "Ġdrama": 6652,
      "Ġdelegation": 6653,
      "Ġjohn": 6654,
      "Ġverabschied": 6655,
      "-/": 6656,
      "dap": 6657,
      "Ġmotiv": 6658,
      "nem": 6659,
      "Ġgleichgewicht": 6660,
      "viertel": 6661,
      "Ġsodass": 6662,
      "Ġolymp": 6663,
      "Ġverknu": 6664,
      "Ġverabschiedet": 6665,
      "Ġfax": 6666,
      "Ġsouvera": 6667,
      "Ġdusche": 6668,
      "Ġaufnehmen": 6669,
      "Ġersatz": 6670,
      "Ġaktuell": 6671,
      "Ġwohnen": 6672,
      "Ġtrin": 6673,
      "Ġafghanistan": 6674,
      "Ġproduziert": 6675,
      "Ġverlust": 6676,
      "stande": 6677,
      "Ġgross": 6678,
      "Ġpoker": 6679,
      "Ġprojekten": 6680,
      "fahrer": 6681,
      "oni": 6682,
      "Ġausgestatte": 6683,
      "ditionen": 6684,
      "Ġproblems": 6685,
      "Ġredner": 6686,
      "Ġschlafzimmer": 6687,
      "Ġautomobil": 6688,
      "Ġphp": 6689,
      "ay": 6690,
      "kern": 6691,
      "ziele": 6692,
      "Ġbislang": 6693,
      "Ġmittleren": 6694,
      "Ġegal": 6695,
      "Ġenterprise": 6696,
      "Ġletzter": 6697,
      "ungsbereich": 6698,
      "lige": 6699,
      "Ġhttp": 6700,
      "Ġlegt": 6701,
      "Ġhaftung": 6702,
      "Ġbett": 6703,
      "oler": 6704,
      "Ġaktien": 6705,
      "weite": 6706,
      "how": 6707,
      "Ġverbot": 6708,
      "Ġprinzipien": 6709,
      "Ġkontext": 6710,
      "Ġinso": 6711,
      "pal": 6712,
      "prinzip": 6713,
      "ĠâĢ¦": 6714,
      "funden": 6715,
      "zeichnis": 6716,
      "Ġfreit": 6717,
      "itter": 6718,
      "Ġnunmehr": 6719,
      "Ġparall": 6720,
      "Ġverhindert": 6721,
      "leistung": 6722,
      "{{": 6723,
      "Ġ45": 6724,
      "Ġeinzigar": 6725,
      "Ġregierungskonferenz": 6726,
      "Ġwechs": 6727,
      "Ġauton": 6728,
      "Ġstreit": 6729,
      "Ġtari": 6730,
      "Ġgrad": 6731,
      "Ġsubsidi": 6732,
      "Ġverleihen": 6733,
      "Ġlokale": 6734,
      "Ġspar": 6735,
      "gigen": 6736,
      "Ġresp": 6737,
      "Ġserviert": 6738,
      "Ġspeicher": 6739,
      "Ġplenum": 6740,
      "Ġluxurio": 6741,
      "Ġfleisch": 6742,
      "Ġalp": 6743,
      "Ġjetz": 6744,
      "Ġsonne": 6745,
      "Ġentwickelten": 6746,
      "Ġanbieter": 6747,
      "aner": 6748,
      "utzer": 6749,
      "Ġvorbei": 6750,
      "Ġverringerung": 6751,
      "bla": 6752,
      "ham": 6753,
      "gerufen": 6754,
      "buffet": 6755,
      "Ġchinesischen": 6756,
      "Ġfreizu": 6757,
      "Ġeingegangen": 6758,
      "niss": 6759,
      "Ġdefiniert": 6760,
      "Ġeinbeziehung": 6761,
      "Ġpartnern": 6762,
      "Ġausgesetzt": 6763,
      "Ġbeziehung": 6764,
      "tzten": 6765,
      "Ġdetail": 6766,
      "Ġwollten": 6767,
      "Ġfreiheiten": 6768,
      "Ġkonvent": 6769,
      "Ġdirekten": 6770,
      "nam": 6771,
      "Ġbemerken": 6772,
      "Ġfaktoren": 6773,
      "Ġvorschlags": 6774,
      "Ġvorhaben": 6775,
      "Ġstudio": 6776,
      "Ġwestlichen": 6777,
      "Ġblau": 6778,
      "Ġentsteht": 6779,
      "Ġletztendlich": 6780,
      "nscht": 6781,
      "mill": 6782,
      "Ġrec": 6783,
      "tisiert": 6784,
      "beziehungen": 6785,
      "Ġphiloso": 6786,
      "rfte": 6787,
      "Ġzentralbank": 6788,
      "Ġwelchem": 6789,
      "Ġerreichbar": 6790,
      "96": 6791,
      "sentieren": 6792,
      "Ġzypern": 6793,
      "stern": 6794,
      "ausschuÃŁ": 6795,
      "Ġlinken": 6796,
      "dauer": 6797,
      "Ġbekra": 6798,
      "Ġpassiert": 6799,
      "ckten": 6800,
      "Ġvieles": 6801,
      "tifiziert": 6802,
      "Ġkmu": 6803,
      "Ġverbinden": 6804,
      "Ġbibliothe": 6805,
      "Ġportu": 6806,
      "Ñı": 6807,
      "Ġinmitten": 6808,
      "Ġbeeindru": 6809,
      "Ġheran": 6810,
      "zusammen": 6811,
      "Ġchri": 6812,
      "seiten": 6813,
      "digen": 6814,
      "Ġbeschwer": 6815,
      "Ġindividuelle": 6816,
      "Ġ32": 6817,
      "Ġankunft": 6818,
      "Ġcal": 6819,
      "ics": 6820,
      "Ġziffer": 6821,
      "Ġalli": 6822,
      "Ġgipf": 6823,
      "01": 6824,
      "Ġwild": 6825,
      "ochter": 6826,
      "Ġzusammenge": 6827,
      "Ġschne": 6828,
      "station": 6829,
      "Ġsymp": 6830,
      "val": 6831,
      "Ġerleichtern": 6832,
      "Ġmuse": 6833,
      "Ġgeltenden": 6834,
      "behandlung": 6835,
      "lichung": 6836,
      "Ġkriegs": 6837,
      "Ġinsp": 6838,
      "Ġbestehende": 6839,
      "Ġbeeintra": 6840,
      "Ġvision": 6841,
      "reta": 6842,
      "Ġfahrzeug": 6843,
      "europa": 6844,
      "Ġgezwungen": 6845,
      "Ġbemerkungen": 6846,
      "Ġkonkret": 6847,
      "Ġhamb": 6848,
      "Ġappell": 6849,
      "Ġrooms": 6850,
      "Ġlaufenden": 6851,
      "wan": 6852,
      "blen": 6853,
      "Ġeisenbahn": 6854,
      "Ġschnitt": 6855,
      "Ġbilater": 6856,
      "Ġeis": 6857,
      "Ġ).": 6858,
      "Ġwlan": 6859,
      "Ġangemessene": 6860,
      "Ġmilch": 6861,
      "Ġblut": 6862,
      "Ġkostet": 6863,
      "Ġpour": 6864,
      "Ġerinnert": 6865,
      "Ġrh": 6866,
      "Ġfundament": 6867,
      "nke": 6868,
      "Ġvorlegen": 6869,
      "Ġgemeinde": 6870,
      "Ġbord": 6871,
      "Ġsaison": 6872,
      "Ġmitge": 6873,
      "Ġgetrenn": 6874,
      "Ġgebaut": 6875,
      "setzungen": 6876,
      "Ġeinstimm": 6877,
      "Ġlist": 6878,
      "Ġpage": 6879,
      "Ġruhig": 6880,
      "ograph": 6881,
      "Ġopposition": 6882,
      "ÌĨ": 6883,
      "Ġeinwohner": 6884,
      "Ġbeam": 6885,
      "Ġverringern": 6886,
      "Ġvereinbarungen": 6887,
      "Ġgegebenen": 6888,
      "Ġthere": 6889,
      "fic": 6890,
      "Ġverbindungen": 6891,
      "kadem": 6892,
      "Ġspazier": 6893,
      "Ġwebsites": 6894,
      "Ġwerbung": 6895,
      "rliche": 6896,
      "Ġorganisieren": 6897,
      "Ġgespeichert": 6898,
      "zonen": 6899,
      "Ġresort": 6900,
      "Ġinnovative": 6901,
      "Ġehe": 6902,
      "Ġeinheitlichen": 6903,
      "bur": 6904,
      "Ġbegeister": 6905,
      "Ġasien": 6906,
      "Ġaktionsplan": 6907,
      "temp": 6908,
      "Ġwirtschaftswachstum": 6909,
      "Ġechten": 6910,
      "austausch": 6911,
      "iker": 6912,
      "Ġspezifischen": 6913,
      "chnung": 6914,
      "Ġentscheidende": 6915,
      "Ġansehen": 6916,
      "ley": 6917,
      "Ġ1995": 6918,
      "Ġvot": 6919,
      "Ġzin": 6920,
      "car": 6921,
      "Ġausgeb": 6922,
      "Ġtel": 6923,
      "Ġheutige": 6924,
      "Ġdomin": 6925,
      "Ġcard": 6926,
      "Ġignor": 6927,
      "Ġplo": 6928,
      "penha": 6929,
      "Ġbehalten": 6930,
      "Ġgesellschaften": 6931,
      "denk": 6932,
      "lichten": 6933,
      "weile": 6934,
      "Ġkonto": 6935,
      "Ġwebseiten": 6936,
      "://": 6937,
      "Ġbrie": 6938,
      "Ġdur": 6939,
      "Ġalkohol": 6940,
      "tabel": 6941,
      "wege": 6942,
      "Ð¼": 6943,
      "Ġanna": 6944,
      "card": 6945,
      "Ġkompetenz": 6946,
      "Ġeinfacher": 6947,
      "zentren": 6948,
      "vert": 6949,
      "rauen": 6950,
      "Ġvous": 6951,
      "lter": 6952,
      "22": 6953,
      "70": 6954,
      "Ġpreisen": 6955,
      "kar": 6956,
      "Ġdring": 6957,
      "Ġerfolgreiche": 6958,
      "Ġverkaufen": 6959,
      "wertung": 6960,
      "kul": 6961,
      "ohlen": 6962,
      "Ġanmerk": 6963,
      "Ġspeichern": 6964,
      "bergang": 6965,
      "Ġcro": 6966,
      "Ġverfahrens": 6967,
      "Ġnormalerweise": 6968,
      "Ġeffizient": 6969,
      "Ġjose": 6970,
      "Ġresiden": 6971,
      "Ġbreiten": 6972,
      "Ġansprechen": 6973,
      "Ġbritische": 6974,
      "ilita": 6975,
      "zwei": 6976,
      "Ġanha": 6977,
      "Ġschm": 6978,
      "Ġamts": 6979,
      "ĠauÃŁerordentlich": 6980,
      "ye": 6981,
      "Ġordnungsgema": 6982,
      "Ġeleg": 6983,
      "Ġanschluss": 6984,
      "Ġech": 6985,
      "ques": 6986,
      "Ġhelp": 6987,
      "Ġverku": 6988,
      "Ġmanu": 6989,
      "Ġstri": 6990,
      "ĠauÃŁenpolitik": 6991,
      "Ġsubsidiarita": 6992,
      "nnern": 6993,
      "nschten": 6994,
      "Ġrespekt": 6995,
      "Ġmissb": 6996,
      "Ġabgestimmt": 6997,
      "Ġmessen": 6998,
      "Ġaktivieren": 6999,
      "ities": 7000,
      "Ġlegitim": 7001,
      "bon": 7002,
      "rent": 7003,
      "oli": 7004,
      "date": 7005,
      "Ġinfla": 7006,
      "Ġtausende": 7007,
      "Ġware": 7008,
      "frika": 7009,
      "Ġdonner": 7010,
      "werks": 7011,
      "ose": 7012,
      "Ġsm": 7013,
      "Ġrezeption": 7014,
      "Ġkomponenten": 7015,
      "fied": 7016,
      "kauf": 7017,
      "Ġdunk": 7018,
      "Ġmartin": 7019,
      "bre": 7020,
      "uÃŁert": 7021,
      "beru": 7022,
      "langen": 7023,
      "Ġgramm": 7024,
      "Ġkontaktieren": 7025,
      "Ġbalkan": 7026,
      "spf": 7027,
      "sorge": 7028,
      "gin": 7029,
      "Ġvorbeh": 7030,
      "fragt": 7031,
      "Ġverdien": 7032,
      "ssektor": 7033,
      "Ġabgesehen": 7034,
      "Ġoptimal": 7035,
      "Ġgespielt": 7036,
      "Ġprovinz": 7037,
      "gestal": 7038,
      "tzei": 7039,
      "Ġgene": 7040,
      "Ġbars": 7041,
      "Ġversicher": 7042,
      "Ġverurteilt": 7043,
      "Ġ2020": 7044,
      "Ġjenen": 7045,
      "ĠâĢĶ": 7046,
      "freien": 7047,
      "Ġberechtigt": 7048,
      "uÃŁern": 7049,
      "Ġverbreitung": 7050,
      "Ġzwecke": 7051,
      "schlieÃŁen": 7052,
      "Ġparti": 7053,
      "}}": 7054,
      "Ġerstmals": 7055,
      "apie": 7056,
      "Ġersetzt": 7057,
      "Ġportugie": 7058,
      "mpft": 7059,
      "Ġradik": 7060,
      "fas": 7061,
      "Ġbip": 7062,
      "red": 7063,
      "Â°": 7064,
      "intern": 7065,
      "Ġwetter": 7066,
      "kette": 7067,
      "Ġuntersuchungen": 7068,
      "Ġrechtlichen": 7069,
      "Ġmarktes": 7070,
      "Ġverdient": 7071,
      "Ġhoffentlich": 7072,
      "Ġtritt": 7073,
      "Ġpolitiken": 7074,
      "blo": 7075,
      "gigkeit": 7076,
      "entwurf": 7077,
      "esend": 7078,
      "Ġeinig": 7079,
      "Ġdienstleistungs": 7080,
      "Ġangewand": 7081,
      "Ġfehlt": 7082,
      "xt": 7083,
      "Ġbrowser": 7084,
      "zwe": 7085,
      "leiter": 7086,
      "Ġill": 7087,
      "ichteten": 7088,
      "Ġassozi": 7089,
      "wohnung": 7090,
      "Ġempfohlen": 7091,
      "bersicht": 7092,
      "Ġzusammenarbeiten": 7093,
      "Ġkamen": 7094,
      "Ġrechtzei": 7095,
      "Ġgewal": 7096,
      "Ġwiederholen": 7097,
      "Ġschicken": 7098,
      "Ġschulen": 7099,
      "Ġvorstellen": 7100,
      "Ġversorgung": 7101,
      "ĠstraÃŁ": 7102,
      "Ġenergien": 7103,
      "Ġanho": 7104,
      "Ġpubli": 7105,
      "Ġtransparen": 7106,
      "Ġvorhandenen": 7107,
      "Ġstreet": 7108,
      "Ġfi": 7109,
      "Ġhad": 7110,
      "wicklung": 7111,
      "Ġslowak": 7112,
      "politischen": 7113,
      "Ġwohnung": 7114,
      "Ġtraditionelle": 7115,
      "Ġfriendly": 7116,
      "geba": 7117,
      "Ġluxus": 7118,
      "Ġreduzieren": 7119,
      "auen": 7120,
      "Ġerlebnis": 7121,
      "Ġlateinamerik": 7122,
      "Ġsicherung": 7123,
      "Ġserie": 7124,
      "Ġip": 7125,
      "weist": 7126,
      "Ġniedriger": 7127,
      "berleben": 7128,
      "Ġwall": 7129,
      "Ġempfangen": 7130,
      "Ġberuht": 7131,
      "Ġgesta": 7132,
      "istik": 7133,
      "ĠschlieÃŁ": 7134,
      "dienstleistungen": 7135,
      "Ġgefallen": 7136,
      "Ġwirtschaftlich": 7137,
      "Ġgestaltet": 7138,
      "kli": 7139,
      "Ġ400": 7140,
      "ses": 7141,
      "Ġschmer": 7142,
      "Ġvorstellung": 7143,
      "Ġindividuellen": 7144,
      "ndete": 7145,
      "Ġlangsam": 7146,
      "Ġjener": 7147,
      "Ġexe": 7148,
      "Ġamerikanische": 7149,
      "Ġvize": 7150,
      "Ġker": 7151,
      "Ġbildungs": 7152,
      "Ġbetreffend": 7153,
      "Ġumfeld": 7154,
      "insel": 7155,
      "mens": 7156,
      "Ġsektoren": 7157,
      "Ġstehenden": 7158,
      "Ġbestre": 7159,
      "Ġaufgefu": 7160,
      "teilungen": 7161,
      "bsta": 7162,
      "Ġcook": 7163,
      "Ġfreunden": 7164,
      "Ġairport": 7165,
      "py": 7166,
      "nstigen": 7167,
      "cor": 7168,
      "Ġgang": 7169,
      "ktions": 7170,
      "Ġverboten": 7171,
      "Ġaussprechen": 7172,
      "90": 7173,
      "Ġ?": 7174,
      "Ġanhand": 7175,
      "Ġkopenha": 7176,
      "pos": 7177,
      "ced": 7178,
      "Ġlit": 7179,
      "Ġgepf": 7180,
      "ĠausmaÃŁ": 7181,
      "ĠspaÃŁ": 7182,
      "endes": 7183,
      "Ġglobal": 7184,
      "Ġbemerkung": 7185,
      "Ġkleines": 7186,
      "solid": 7187,
      "Ġgenehmigung": 7188,
      "Ġerzeugnisse": 7189,
      "Ġzucker": 7190,
      "jahres": 7191,
      "Ġindividuell": 7192,
      "pfung": 7193,
      "Ġgri": 7194,
      "Ġwerke": 7195,
      "Ġvorausschau": 7196,
      "tisches": 7197,
      "Ġwohlstand": 7198,
      "Ġzivilgesellschaft": 7199,
      "fru": 7200,
      "gess": 7201,
      "klei": 7202,
      "Ġhouse": 7203,
      "Ġmetall": 7204,
      "Ġkommunikations": 7205,
      "Ġbeobachten": 7206,
      "ula": 7207,
      "Ġbos": 7208,
      "Ġsatz": 7209,
      "Ġauge": 7210,
      "werken": 7211,
      "Ġoptionen": 7212,
      "Ġleistungsfa": 7213,
      "2000": 7214,
      "ugh": 7215,
      "Ġabkommens": 7216,
      "Ġmadri": 7217,
      "effizienz": 7218,
      "Ġgrosse": 7219,
      "Ġbestimmter": 7220,
      "tellten": 7221,
      "amm": 7222,
      "**": 7223,
      "Ġangegebenen": 7224,
      "niveau": 7225,
      "Ġ193": 7226,
      "Ġeingereicht": 7227,
      "lieb": 7228,
      "Ġbereitstellung": 7229,
      "ngste": 7230,
      "verwaltung": 7231,
      "Ġsatelliten": 7232,
      "bergangs": 7233,
      "Ġhierfu": 7234,
      "wald": 7235,
      "dert": 7236,
      "Ġversprechen": 7237,
      "Ġdurchschnitt": 7238,
      "zt": 7239,
      "Ġspitzen": 7240,
      "spielen": 7241,
      "hnten": 7242,
      "Ġerhebliche": 7243,
      "Ġdor": 7244,
      "ndigung": 7245,
      "Ġtochter": 7246,
      "ax": 7247,
      "Ġbush": 7248,
      "Ġetabl": 7249,
      "Ġmitarbeitern": 7250,
      "Ġmittlerweile": 7251,
      "Ġkontrollen": 7252,
      "Ġmater": 7253,
      "hrleistung": 7254,
      "cript": 7255,
      "ders": 7256,
      "wirkt": 7257,
      "ressen": 7258,
      "Ġmeister": 7259,
      "Ġschlussfolgerungen": 7260,
      "Ġkaffee": 7261,
      "usern": 7262,
      "Ġbetreiben": 7263,
      "Ġliefert": 7264,
      "Ġallzu": 7265,
      "fir": 7266,
      "Ġfrist": 7267,
      "Ġprogrammen": 7268,
      "Ġunterdru": 7269,
      "Ġparkplatz": 7270,
      "Ġever": 7271,
      "Ġkreis": 7272,
      "Ġinn": 7273,
      "Ġfrankfurt": 7274,
      "rungs": 7275,
      "schnit": 7276,
      "Ġzauber": 7277,
      "Ġniedri": 7278,
      "strafe": 7279,
      "Ġhas": 7280,
      "Ġerhielt": 7281,
      "Ġstattdessen": 7282,
      "Ġvorbereitet": 7283,
      "ildet": 7284,
      "Ġgegenstand": 7285,
      "ĠschluÃŁ": 7286,
      "steu": 7287,
      "Ġpack": 7288,
      "Ġcharta": 7289,
      "work": 7290,
      "Ġstrategischen": 7291,
      "ribution": 7292,
      "Ġaqu": 7293,
      "ferenzen": 7294,
      "Ġverkauft": 7295,
      "Ġerfolgreichen": 7296,
      "Ġverbraucherschutz": 7297,
      "grad": 7298,
      "ologien": 7299,
      "testen": 7300,
      "Ġcamping": 7301,
      "Ġcommun": 7302,
      "rats": 7303,
      "schiff": 7304,
      "Ġnukle": 7305,
      "Ġnahm": 7306,
      "Ġfab": 7307,
      "schefs": 7308,
      "nstige": 7309,
      "Ġ1990": 7310,
      "Ġbeigetragen": 7311,
      "leiben": 7312,
      "tzte": 7313,
      "ical": 7314,
      "hte": 7315,
      "Ġpin": 7316,
      "Ġinklusive": 7317,
      "bungs": 7318,
      "ras": 7319,
      "2010": 7320,
      "Ġmehrfach": 7321,
      "Ġspeisen": 7322,
      "Ġmicha": 7323,
      "Ġanwesend": 7324,
      "Ġrechtsgrundlage": 7325,
      "Ġbeteiligen": 7326,
      "berlegungen": 7327,
      "Ġstammen": 7328,
      "ĠgroÃŁem": 7329,
      "Ġmys": 7330,
      "Ġwork": 7331,
      "Ġsozialer": 7332,
      "bernachtung": 7333,
      "Ġwerkzeug": 7334,
      "Ġnachdru": 7335,
      "Ġunvergess": 7336,
      "Ġerzeugt": 7337,
      "Ġbedrohung": 7338,
      "reift": 7339,
      "Ġarznei": 7340,
      "Ġparallel": 7341,
      "verhandlungen": 7342,
      "Ġluxemburg": 7343,
      "Ġmrd": 7344,
      "Ġeingehalten": 7345,
      "iner": 7346,
      "Ġerstellung": 7347,
      "bereichen": 7348,
      "Ġlern": 7349,
      "Ġmitgliedschaft": 7350,
      "Ġelektronischen": 7351,
      "Ġerrei": 7352,
      "Ġalpen": 7353,
      "Ġgeliefer": 7354,
      "Ġformat": 7355,
      "Ġgreat": 7356,
      "Ġif": 7357,
      "Ġvermitteln": 7358,
      "Ġbesich": 7359,
      "Ġchinas": 7360,
      "Ġsterne": 7361,
      "Ġmodul": 7362,
      "nier": 7363,
      "Ġgekenn": 7364,
      "verfol": 7365,
      "Ġkonvention": 7366,
      "raten": 7367,
      "oms": 7368,
      "Ġfolglich": 7369,
      "Ġbelar": 7370,
      "Ġmas": 7371,
      "format": 7372,
      "geschichte": 7373,
      "Ġaktive": 7374,
      "Ġgenannte": 7375,
      "Ġvideos": 7376,
      "Ġentscheidender": 7377,
      "Ġlieferung": 7378,
      "wal": 7379,
      "Ġabziel": 7380,
      "Ġbay": 7381,
      "Ġvermie": 7382,
      "Ġklasse": 7383,
      "Ġausgerichtet": 7384,
      "Ġschauen": 7385,
      "Ġtha": 7386,
      "Ġgesich": 7387,
      "asen": 7388,
      "kapazita": 7389,
      "Ġersetzen": 7390,
      "Ġoffiziellen": 7391,
      "04": 7392,
      "uter": 7393,
      "Ġib": 7394,
      "Ġkomme": 7395,
      "Ġanwender": 7396,
      "rien": 7397,
      "Ġintegriert": 7398,
      "Ġfaszin": 7399,
      "ÑĮ": 7400,
      "Ġeinzigartigen": 7401,
      "Ġsolches": 7402,
      "Ġimplemen": 7403,
      "Ġpic": 7404,
      "Ġstaates": 7405,
      "Ġlangja": 7406,
      "Ġnachricht": 7407,
      "Ġ;": 7408,
      "Ġkonserv": 7409,
      "Ġwiederholt": 7410,
      "Ġkonsult": 7411,
      "Ġinstitutionellen": 7412,
      "ehrten": 7413,
      "Ġgeziel": 7414,
      "nehmlich": 7415,
      "Ġwissenschaftliche": 7416,
      "bestimmungen": 7417,
      "ngel": 7418,
      "Ġune": 7419,
      "Ġgearbeitet": 7420,
      "Ġrufen": 7421,
      "Ġbeantworten": 7422,
      "Ġcat": 7423,
      "Ġanbel": 7424,
      "Ġverlie": 7425,
      "Ġbereitgestellt": 7426,
      "nahm": 7427,
      "Ġschriftliche": 7428,
      "Â«": 7429,
      "Ġbulgarien": 7430,
      "sl": 7431,
      "Ġbli": 7432,
      "onien": 7433,
      "acher": 7434,
      "Ġgeschwindigkeit": 7435,
      "Ġdans": 7436,
      "Ġkorrekt": 7437,
      "inge": 7438,
      "Ġbor": 7439,
      "Ġalternativen": 7440,
      "Ġbelgien": 7441,
      "Ġlangfristig": 7442,
      "Ġkonsequenzen": 7443,
      "wahlen": 7444,
      "Ġmittelalter": 7445,
      "Ġungarn": 7446,
      "vec": 7447,
      "Ġanaly": 7448,
      "Ġcheck": 7449,
      "Ġverbindet": 7450,
      "pg": 7451,
      "Ġwirken": 7452,
      "ria": 7453,
      "Ġanbelangt": 7454,
      "Ġschwimm": 7455,
      "Ġlieber": 7456,
      "plant": 7457,
      "programms": 7458,
      "Ġansichten": 7459,
      "ids": 7460,
      "Ġerstre": 7461,
      "Ġpdf": 7462,
      "Ġdach": 7463,
      "bernahme": 7464,
      "deckt": 7465,
      "Ġweist": 7466,
      "senz": 7467,
      "gig": 7468,
      "stil": 7469,
      "Ġstell": 7470,
      "ltnisse": 7471,
      "Ġmes": 7472,
      "Ġgelingt": 7473,
      "Ġfinanziell": 7474,
      "nnt": 7475,
      "ĠfuÃŁball": 7476,
      "Ġinvestieren": 7477,
      "Ġkabel": 7478,
      "Ġsolar": 7479,
      "famil": 7480,
      "Ġpfer": 7481,
      "Ġbranchen": 7482,
      "Ġkroatien": 7483,
      "Ġenerg": 7484,
      "Ġfreundlich": 7485,
      "Ġverteidigen": 7486,
      "Ġniedrig": 7487,
      "Ġkab": 7488,
      "sproblem": 7489,
      "Ġni": 7490,
      "Ġeads": 7491,
      "kampf": 7492,
      "Ġverletzung": 7493,
      "Ġhingegen": 7494,
      "Ġoptimale": 7495,
      "artikel": 7496,
      "Ġkos": 7497,
      "Ġpha": 7498,
      "denz": 7499,
      "Ġunterku": 7500,
      "Ġentdeck": 7501,
      "spartei": 7502,
      "nkung": 7503,
      "Ġerb": 7504,
      "Ġhervorra": 7505,
      "ctor": 7506,
      "Ġanlass": 7507,
      "zenten": 7508,
      "Ġverarbeitung": 7509,
      "zahlen": 7510,
      "Ġclean": 7511,
      "Ġsohn": 7512,
      "Ġweitgehend": 7513,
      "alte": 7514,
      "Ġinvestitions": 7515,
      "Ġministerpra": 7516,
      "Ġausschu": 7517,
      "fein": 7518,
      "Ġnice": 7519,
      "Ġmobile": 7520,
      "richen": 7521,
      "Ġnenn": 7522,
      "Ġakp": 7523,
      "grenze": 7524,
      "Ġverhaltens": 7525,
      "nt": 7526,
      "Ġkollegin": 7527,
      "Ġtransa": 7528,
      "ordnungen": 7529,
      "platte": 7530,
      "Ġoffene": 7531,
      "Ġerg": 7532,
      "konf": 7533,
      "Ġerlebt": 7534,
      "gbaren": 7535,
      "stei": 7536,
      "Ġverschie": 7537,
      "reif": 7538,
      "veranst": 7539,
      "letter": 7540,
      "Ġpositionen": 7541,
      "Ġdikt": 7542,
      "Ġherrscht": 7543,
      "Ġbetrag": 7544,
      "Ġvoranzu": 7545,
      "rolle": 7546,
      "Ġmachte": 7547,
      "Ġfahrt": 7548,
      "skrise": 7549,
      "Ġkorruption": 7550,
      "Ġwirtschaftlicher": 7551,
      "menu": 7552,
      "Ġorte": 7553,
      "Ġplattform": 7554,
      "Ġinsofern": 7555,
      "Ġalex": 7556,
      "schm": 7557,
      "Ġverschle": 7558,
      "Ġmussten": 7559,
      "Ġfun": 7560,
      "Ġknapp": 7561,
      "Ġvorange": 7562,
      "Ġabwei": 7563,
      "Ġautobahn": 7564,
      "Ġobjekt": 7565,
      "Ġurlaubs": 7566,
      "riere": 7567,
      "Ġentlastung": 7568,
      "Ġaussehen": 7569,
      "Ġernsthaft": 7570,
      "Ġcomfort": 7571,
      "Ġeinstellungen": 7572,
      "cas": 7573,
      "rze": 7574,
      "Ġminim": 7575,
      "betten": 7576,
      "Ġfanta": 7577,
      "ente": 7578,
      "sso": 7579,
      "Ġpersonenbezogen": 7580,
      "Ġillegalen": 7581,
      "Ġmedia": 7582,
      "Ġeinzufu": 7583,
      "Ġwenigsten": 7584,
      "Ġvorzulegen": 7585,
      "Ġgottes": 7586,
      "Ġsat": 7587,
      "Ġgerechtigkeit": 7588,
      "lkerungs": 7589,
      "Ġreduziert": 7590,
      "Ġebenen": 7591,
      "pri": 7592,
      "Ġeingang": 7593,
      "nisses": 7594,
      "Ġentwickelte": 7595,
      "Ġreduzierung": 7596,
      "Ġweisen": 7597,
      "jet": 7598,
      "Ġstro": 7599,
      "aben": 7600,
      "Ġleh": 7601,
      "spla": 7602,
      "Ġphy": 7603,
      "Ġklo": 7604,
      "izza": 7605,
      "ado": 7606,
      "Ġschie": 7607,
      "Ġbestellen": 7608,
      "Ġstaatliche": 7609,
      "Ġpi": 7610,
      "Ġquellen": 7611,
      "Ġhalt": 7612,
      "Ġanzeigen": 7613,
      "ĠÐ¿": 7614,
      "Ġstoffe": 7615,
      "gn": 7616,
      "Ġandre": 7617,
      "garten": 7618,
      "kore": 7619,
      "Ġfrucht": 7620,
      "inst": 7621,
      "zis": 7622,
      "Ġuna": 7623,
      "wiegend": 7624,
      "rzt": 7625,
      "agentur": 7626,
      "Ġprote": 7627,
      "Ġnummer": 7628,
      "Ġbedeutende": 7629,
      "Ġfreitag": 7630,
      "Ġdonnerstag": 7631,
      "Ġstellte": 7632,
      "istischer": 7633,
      "Ġgehminuten": 7634,
      "Ġdiffer": 7635,
      "Ġpotenzie": 7636,
      "Ġunterscheiden": 7637,
      "Ġburg": 7638,
      "nschte": 7639,
      "Ġvertret": 7640,
      "Ġhung": 7641,
      "Ġdoma": 7642,
      "Ġintera": 7643,
      "Ġspezifische": 7644,
      "hann": 7645,
      "Ġjedenfalls": 7646,
      "05": 7647,
      "Ġgewerk": 7648,
      "âĢĿ.": 7649,
      "Ġatlan": 7650,
      "Ġpraktiken": 7651,
      "Ġexistenz": 7652,
      "Ġclass": 7653,
      "Ġabfall": 7654,
      "ituation": 7655,
      "Ġsau": 7656,
      "Ġmanager": 7657,
      "Ġgleichstellung": 7658,
      "Ġtextil": 7659,
      "Ġkontakte": 7660,
      "Ġhochwertige": 7661,
      "Ġangepasst": 7662,
      "Ġhervorgehoben": 7663,
      "Ġbekommt": 7664,
      "Ġbefrei": 7665,
      "ara": 7666,
      "Ġversichern": 7667,
      "Ġnachbarschaft": 7668,
      "Ġansa": 7669,
      "Ġersta": 7670,
      "Ġ2011": 7671,
      "čĊ": 7672,
      "Ġtime": 7673,
      "Ġoffiziell": 7674,
      "blich": 7675,
      "ranten": 7676,
      "Ġunterstreichen": 7677,
      "Ġgeplan": 7678,
      "ehl": 7679,
      "ssystems": 7680,
      "Ġumsatz": 7681,
      "Ġsanta": 7682,
      "amen": 7683,
      "Ġunterliegen": 7684,
      "Ġzahlung": 7685,
      "kal": 7686,
      "Ġeinbezogen": 7687,
      "weisungen": 7688,
      "Ġeinzusetzen": 7689,
      "Ġherum": 7690,
      "Ġlobby": 7691,
      "Ġï¿½": 7692,
      "cal": 7693,
      "sisch": 7694,
      "tan": 7695,
      "Ġbeendet": 7696,
      "zepte": 7697,
      "Ġliberalen": 7698,
      "spre": 7699,
      "ward": 7700,
      "Ġaustral": 7701,
      "Ġecu": 7702,
      "Ġgestattet": 7703,
      "Ġaugenblick": 7704,
      "Ġaufrechter": 7705,
      "Ġaufsichts": 7706,
      "hro": 7707,
      "dchen": 7708,
      "Ġmis": 7709,
      "Ġschiffe": 7710,
      "kapital": 7711,
      "Ġkatastrophe": 7712,
      "spezif": 7713,
      "Ġlangfristige": 7714,
      "Ġvollen": 7715,
      "Ġgetragen": 7716,
      "Ġverfassungs": 7717,
      "Ġvizepra": 7718,
      "Ġherbst": 7719,
      "Ġmadrid": 7720,
      "Ġeinges": 7721,
      "ĠgroÃŁteil": 7722,
      "Ġkonzentriert": 7723,
      "64": 7724,
      "kop": 7725,
      "Ġkulturen": 7726,
      "mot": 7727,
      "Ġumfangreiche": 7728,
      "geschrieben": 7729,
      "Ġvorgesehenen": 7730,
      "zureichen": 7731,
      "eto": 7732,
      "sph": 7733,
      "Ġabstimmen": 7734,
      "nzt": 7735,
      "ergeb": 7736,
      "Ġprima": 7737,
      "mitgliedstaaten": 7738,
      "Ġargument": 7739,
      "Ġwon": 7740,
      "ÃŁeres": 7741,
      "Ġeure": 7742,
      "Ġschlagen": 7743,
      "Ġpasswort": 7744,
      "Ġbehaupten": 7745,
      "lesen": 7746,
      "Ġcontro": 7747,
      "cer": 7748,
      "Ġprozesse": 7749,
      "beifall": 7750,
      "amp": 7751,
      "unru": 7752,
      "Ġumzu": 7753,
      "film": 7754,
      "cksbuffet": 7755,
      "vascript": 7756,
      "Ġkonfrontiert": 7757,
      "sieht": 7758,
      "Ġinstitut": 7759,
      "passen": 7760,
      "Ġmitteilen": 7761,
      "Ġwerbe": 7762,
      "Ġwhich": 7763,
      "geno": 7764,
      "brik": 7765,
      "Ġartik": 7766,
      "Ġrass": 7767,
      "Ġspann": 7768,
      "Ġbegrenzt": 7769,
      "Ġmomentan": 7770,
      "Ġbrasilien": 7771,
      "Ġgrau": 7772,
      "Ġou": 7773,
      "ngnis": 7774,
      "telefon": 7775,
      "igner": 7776,
      "Ġorden": 7777,
      "Ġsituationen": 7778,
      "emissionen": 7779,
      "cis": 7780,
      "tiker": 7781,
      "chtlinge": 7782,
      "Ġausgehen": 7783,
      "digt": 7784,
      "Ġgei": 7785,
      "Ġklei": 7786,
      "Ġverteilt": 7787,
      "Ġgeraten": 7788,
      "Ġkreativ": 7789,
      "Ġshow": 7790,
      "methoden": 7791,
      "Ġsachen": 7792,
      "yo": 7793,
      "Ġbetten": 7794,
      "alu": 7795,
      "sprinzip": 7796,
      "Ġrent": 7797,
      "Ġmarke": 7798,
      "Ġauflo": 7799,
      "Ġentscha": 7800,
      "Ġhinweg": 7801,
      "Ġuse": 7802,
      "Ġurteil": 7803,
      "Ġpraktische": 7804,
      "ebene": 7805,
      "Ġmaximal": 7806,
      "ights": 7807,
      "Ġinternen": 7808,
      "Ġstay": 7809,
      "zed": 7810,
      "Ġgemeinschaftlichen": 7811,
      "Ġbesonderer": 7812,
      "fernen": 7813,
      "Ġnamens": 7814,
      "Ġvergnu": 7815,
      "Ġzwangs": 7816,
      "regelung": 7817,
      "lf": 7818,
      "Ġeinheim": 7819,
      "berla": 7820,
      "Ġmenschliche": 7821,
      "35": 7822,
      "digung": 7823,
      "ura": 7824,
      "Ġhast": 7825,
      "Ġunterzeichnet": 7826,
      "stinensischen": 7827,
      "Ġablehnung": 7828,
      "win": 7829,
      "Ġpopu": 7830,
      "Ġvorgeschlagene": 7831,
      "Ġsichere": 7832,
      "Ġjavascript": 7833,
      "Ġgewer": 7834,
      "Ġbisherigen": 7835,
      "Ġkriminalita": 7836,
      "Ġsetz": 7837,
      "Ġunzureichen": 7838,
      "Ġergibt": 7839,
      "haf": 7840,
      "beschreibung": 7841,
      "ltigung": 7842,
      "lus": 7843,
      "Ġparkpla": 7844,
      "Ġwiderspruch": 7845,
      "bildungs": 7846,
      "ucht": 7847,
      "Ġcomp": 7848,
      "Ġperspektive": 7849,
      "lingen": 7850,
      "Ġinneren": 7851,
      "Ġgeniessen": 7852,
      "sentation": 7853,
      "Ġperfekte": 7854,
      "ena": 7855,
      "erer": 7856,
      "Ġbaum": 7857,
      "Ġverwo": 7858,
      "Ġentf": 7859,
      "asy": 7860,
      "Ġfinanziert": 7861,
      "Ġrem": 7862,
      "design": 7863,
      "Ġangenehm": 7864,
      "Ġado": 7865,
      "anzig": 7866,
      "ngliche": 7867,
      "Ġumfassend": 7868,
      "Ġplaneten": 7869,
      "Ġanstieg": 7870,
      "Ġbeherr": 7871,
      "Ġvertie": 7872,
      "Ġsuite": 7873,
      "verbindung": 7874,
      "Ġalters": 7875,
      "Ġfahrzeuge": 7876,
      "Ġbehoben": 7877,
      "Ġvisu": 7878,
      "Ġtrau": 7879,
      "ima": 7880,
      "Ñĭ": 7881,
      "alisierten": 7882,
      "Ġpress": 7883,
      "Ġarmee": 7884,
      "Ġvorga": 7885,
      "Ġbauen": 7886,
      "Ġkonfigu": 7887,
      "Ġaussage": 7888,
      "wissenschaft": 7889,
      "Ġclient": 7890,
      "ost": 7891,
      "grenzung": 7892,
      "Ġabschaffung": 7893,
      "west": 7894,
      "Ð´": 7895,
      "Ġtrenn": 7896,
      "sprogramme": 7897,
      "ellent": 7898,
      "Ġstrategische": 7899,
      "ypen": 7900,
      "ally": 7901,
      "rein": 7902,
      "Ġaro": 7903,
      "2001": 7904,
      "ĠmiÃŁ": 7905,
      "pres": 7906,
      "Ġkonzer": 7907,
      "Ġenthaltenen": 7908,
      "Ġkontra": 7909,
      "Ġ36": 7910,
      "Ġclu": 7911,
      "Ġbereitschaft": 7912,
      "Ġtrocken": 7913,
      "Ġabendessen": 7914,
      "Ġput": 7915,
      "Ġgeplant": 7916,
      "Ġesta": 7917,
      "lernen": 7918,
      "Ġkonkurrenz": 7919,
      "Ġdokumenten": 7920,
      "Ġgebeten": 7921,
      "Ġ75": 7922,
      "Ġbekannte": 7923,
      "Ġvolkes": 7924,
      "Ġkontrollieren": 7925,
      "leb": 7926,
      "Ġbehinderten": 7927,
      "Ġvolksgesundheit": 7928,
      "Ġzieht": 7929,
      "Ġentspannung": 7930,
      "gebieten": 7931,
      "rkischen": 7932,
      "Ġsammeln": 7933,
      "gg": 7934,
      "Ġkommissionspra": 7935,
      "Ġentscheidungs": 7936,
      "gipfel": 7937,
      "Ġbeunru": 7938,
      "Ġsammlung": 7939,
      "Ġkatastrophen": 7940,
      "Ġuser": 7941,
      "issions": 7942,
      "oc": 7943,
      "kw": 7944,
      "Ġfestzulegen": 7945,
      "Ġsar": 7946,
      "Ġgeburt": 7947,
      "sprozesses": 7948,
      "Ġverdienen": 7949,
      "sek": 7950,
      "Ġanzuzeigen": 7951,
      "Ġsogenannten": 7952,
      "beln": 7953,
      "fenster": 7954,
      "pping": 7955,
      "Ġgerichtet": 7956,
      "inne": 7957,
      "Ġleitung": 7958,
      "heits": 7959,
      "Ġerbau": 7960,
      "berich": 7961,
      "Ġsuiten": 7962,
      "bieten": 7963,
      "tial": 7964,
      "Ġezb": 7965,
      "umin": 7966,
      "Ġbegri": 7967,
      "Ġslowen": 7968,
      "Ġmichael": 7969,
      "berblick": 7970,
      "phone": 7971,
      "chlichen": 7972,
      "Ġnachbarn": 7973,
      "Ġkongress": 7974,
      "Ġtschechischen": 7975,
      "branche": 7976,
      "Ġbou": 7977,
      "Ġdankbar": 7978,
      "Ġ1994": 7979,
      "beziehen": 7980,
      "Ġerstes": 7981,
      "Ġregierungschefs": 7982,
      "regionen": 7983,
      "Ġangeku": 7984,
      "vir": 7985,
      "Ġ00": 7986,
      "Ġach": 7987,
      "Ġmem": 7988,
      "halle": 7989,
      "Ġspezialita": 7990,
      "rdig": 7991,
      "Ġbenachteil": 7992,
      "ĠgleichermaÃŁen": 7993,
      "Ġsichtbar": 7994,
      "Ġpakistan": 7995,
      "Ġerstkla": 7996,
      "Ġerinnerung": 7997,
      "Ġdargestellt": 7998,
      "Ġvorliegende": 7999,
      "Ġvereinbart": 8000,
      "Ġoliven": 8001,
      "Ġover": 8002,
      "Ġnachhaltigkeit": 8003,
      "Ġmontag": 8004,
      "omen": 8005,
      "Ġproduzieren": 8006,
      "Ġhervorragenden": 8007,
      "Ġkirchen": 8008,
      "Ġerfreut": 8009,
      "dischen": 8010,
      "nie": 8011,
      "Ġvertrauens": 8012,
      "Ġbefugnisse": 8013,
      "Ġeinheitliche": 8014,
      "benen": 8015,
      "Ġentfernen": 8016,
      "ppelt": 8017,
      "orgen": 8018,
      "Ġscheinen": 8019,
      "Ġerweitern": 8020,
      "Ġsied": 8021,
      "Ġhon": 8022,
      "Ġgrossen": 8023,
      "Ġjetzigen": 8024,
      "hige": 8025,
      "beraus": 8026,
      "Ġargen": 8027,
      "Ġnon": 8028,
      "Ġverteilung": 8029,
      "Ġacco": 8030,
      "wohnungen": 8031,
      "arma": 8032,
      "Ġversionen": 8033,
      "Ġmigration": 8034,
      "elbe": 8035,
      "unn": 8036,
      "ckzufu": 8037,
      "ehren": 8038,
      "urlaub": 8039,
      "Ġmultilater": 8040,
      "Ġeignet": 8041,
      "Ġzut": 8042,
      "Ġzugrunde": 8043,
      "Ġkonzern": 8044,
      "Ġbeding": 8045,
      "Ġbestra": 8046,
      "Ġball": 8047,
      "45": 8048,
      "platten": 8049,
      "Ġkomfortable": 8050,
      "Ġhardware": 8051,
      "Ġenger": 8052,
      "Ġleichter": 8053,
      "Ġbeenden": 8054,
      "Ġgrundlagen": 8055,
      "Ġtsch": 8056,
      "www": 8057,
      "Ġwiederaufbau": 8058,
      "Ġbegleitet": 8059,
      "nomen": 8060,
      "Ġminute": 8061,
      "Ġfire": 8062,
      "bahnen": 8063,
      "konomischen": 8064,
      "Ġhoriz": 8065,
      "Ġaufenthalts": 8066,
      "Ġhimmel": 8067,
      "Ġhi": 8068,
      "Ġanhalten": 8069,
      "dor": 8070,
      "Ġbinnenmarktes": 8071,
      "Ġfestival": 8072,
      "iets": 8073,
      "Ġkomplette": 8074,
      "Ġsoft": 8075,
      "Ġcm": 8076,
      "chnitten": 8077,
      "Ġgenerationen": 8078,
      "play": 8079,
      "Ġseg": 8080,
      "emm": 8081,
      "rige": 8082,
      "fizit": 8083,
      "Ġprofil": 8084,
      "95": 8085,
      "gige": 8086,
      "Ġfront": 8087,
      "Ġkorrig": 8088,
      "funktionen": 8089,
      "Ġallianz": 8090,
      "Ġhohem": 8091,
      "Ġbearbeiten": 8092,
      "eidet": 8093,
      "Ġschlag": 8094,
      "Ġbedeutend": 8095,
      "Ġskand": 8096,
      "namen": 8097,
      "schaffen": 8098,
      "tos": 8099,
      "Ġbelg": 8100,
      "Ġverka": 8101,
      "tour": 8102,
      "Ġwirksame": 8103,
      "Ġbewu": 8104,
      "Ġhamburg": 8105,
      "Ġumsetzen": 8106,
      "Ġursachen": 8107,
      "Ġreihen": 8108,
      "Ġvertrieb": 8109,
      "Ġexzellen": 8110,
      "werfen": 8111,
      "Ġbedanken": 8112,
      "Ġexternen": 8113,
      "Ġgegner": 8114,
      "Ġverweisen": 8115,
      "Ġangel": 8116,
      "vertre": 8117,
      "ĠÐ²": 8118,
      "ktiert": 8119,
      "ietet": 8120,
      "Ġexistiert": 8121,
      "Ġuntersucht": 8122,
      "Ġkonflikte": 8123,
      "Ġusb": 8124,
      "mittlung": 8125,
      "wich": 8126,
      "Ġpr": 8127,
      "Ġbearbeitung": 8128,
      "Ġvorlage": 8129,
      "Ġtaten": 8130,
      "rwor": 8131,
      "Ġdatum": 8132,
      "Ġeurozone": 8133,
      "Ġbesonderes": 8134,
      "Ġsteuerung": 8135,
      "Ġoperation": 8136,
      "Ġfestgelegten": 8137,
      "Ġgenerell": 8138,
      "Ġflash": 8139,
      "Ġqual": 8140,
      "Ġfahrrad": 8141,
      "berichterstat": 8142,
      "lder": 8143,
      "Ġverhandlungs": 8144,
      "Ġarbeiter": 8145,
      "gerecht": 8146,
      "Ġkanada": 8147,
      "Ġheiligen": 8148,
      "Ġvill": 8149,
      "Ġeins": 8150,
      "aria": 8151,
      "Ġfaktor": 8152,
      "tzutage": 8153,
      "Ġgent": 8154,
      "Ġweihn": 8155,
      "Ġschwere": 8156,
      "mode": 8157,
      "Ġinnenstadt": 8158,
      "Ġtom": 8159,
      "Ġorgane": 8160,
      "Ġhundert": 8161,
      "Ġeingeschra": 8162,
      "stabilita": 8163,
      "Ġpoly": 8164,
      "uden": 8165,
      "Ġid": 8166,
      "alerie": 8167,
      "Ìģ,": 8168,
      "Ġbarroso": 8169,
      ");": 8170,
      "position": 8171,
      "Ġwonach": 8172,
      "Ġmodelle": 8173,
      "21": 8174,
      "Ġexperi": 8175,
      "Ġmaria": 8176,
      "Ġmp": 8177,
      "Ġjugos": 8178,
      "Ġfernsehen": 8179,
      "Ġpassag": 8180,
      "spolitischen": 8181,
      "stlichen": 8182,
      "Ġaufzug": 8183,
      "Ġheutzutage": 8184,
      "staatlichen": 8185,
      "Ġautos": 8186,
      "Ġlehrer": 8187,
      "fleisch": 8188,
      "Ġwahren": 8189,
      "Ġbetrug": 8190,
      "Ġtabak": 8191,
      "sender": 8192,
      "eigern": 8193,
      ".âĢľ": 8194,
      "leute": 8195,
      "Ġqualitativ": 8196,
      "75": 8197,
      "Ġzusammenzu": 8198,
      "Ġheizung": 8199,
      "blin": 8200,
      "Ġmeinungs": 8201,
      "junkt": 8202,
      "Ġmexiko": 8203,
      "kel": 8204,
      "Ġgefragt": 8205,
      "produkten": 8206,
      "Ġjohann": 8207,
      "Ġregistrierung": 8208,
      "ines": 8209,
      "wirtschaften": 8210,
      "ub": 8211,
      "ney": 8212,
      "gast": 8213,
      "Ġunerla": 8214,
      "blu": 8215,
      "Ġpie": 8216,
      "board": 8217,
      "Ġplayer": 8218,
      "Ġtransfer": 8219,
      "Ġwochenende": 8220,
      "Ġgeru": 8221,
      "Ġkeinem": 8222,
      "Ġjugoslaw": 8223,
      "rfnissen": 8224,
      "freundliche": 8225,
      "Ġrechtsstaatlichkeit": 8226,
      "beg": 8227,
      "Ġbedauern": 8228,
      "nften": 8229,
      "Ġbom": 8230,
      "Ġpas": 8231,
      "berlassen": 8232,
      "Ġmarok": 8233,
      "yle": 8234,
      "Ġzugelassen": 8235,
      "stisch": 8236,
      "text": 8237,
      "Ġmuseen": 8238,
      "ĠâĢ¢": 8239,
      "musik": 8240,
      "Ġnom": 8241,
      "Ġjes": 8242,
      "Ġzahlungen": 8243,
      "Ġvene": 8244,
      "Ġwom": 8245,
      "Ġmc": 8246,
      "ielten": 8247,
      "Ġfinanzierungs": 8248,
      "ndeten": 8249,
      "handelt": 8250,
      "of": 8251,
      "Ġzugangs": 8252,
      "institution": 8253,
      "Ġalbum": 8254,
      "Ġfinanzkrise": 8255,
      "Ġperform": 8256,
      "Ġstorn": 8257,
      "Ġwandel": 8258,
      "ssungen": 8259,
      "Ġjugendlichen": 8260,
      "Ġleiter": 8261,
      "Ġangewendet": 8262,
      "Ġvornehmen": 8263,
      "Ġtennis": 8264,
      "Ġhoff": 8265,
      "Ġkreditkarte": 8266,
      "Ġ>": 8267,
      "Ġruf": 8268,
      "berwinden": 8269,
      "Ġunglaub": 8270,
      "Ġleiten": 8271,
      "angeho": 8272,
      "Ġdigitalen": 8273,
      "Ġparlamentarischen": 8274,
      "Ġdata": 8275,
      "Ġverlauf": 8276,
      "rgerbeauftra": 8277,
      "Ġbeeindrucken": 8278,
      "Ġnormalen": 8279,
      "gol": 8280,
      "lteren": 8281,
      "ving": 8282,
      "Ġpes": 8283,
      "Ġstattfindet": 8284,
      "26": 8285,
      "Ġset": 8286,
      "Ġanbet": 8287,
      "Ġaufgebaut": 8288,
      "Ġehren": 8289,
      "Ġmedika": 8290,
      "Ġwiderstand": 8291,
      "Ġentdeckt": 8292,
      "Ġmission": 8293,
      "Ġrechtfer": 8294,
      "wf": 8295,
      "Ġ),": 8296,
      "Ġdarstellung": 8297,
      "Ġvul": 8298,
      "rokra": 8299,
      "Ġmall": 8300,
      "ĠlieÃŁ": 8301,
      "Ġgolden": 8302,
      "Ġsicheren": 8303,
      "Ġdebatten": 8304,
      "Ġschnellen": 8305,
      "ĠheiÃŁen": 8306,
      "Ġimpul": 8307,
      "kunst": 8308,
      "bewegung": 8309,
      "Ġhandlungs": 8310,
      "Ġgriechischen": 8311,
      "Ġavec": 8312,
      "weiten": 8313,
      "hnte": 8314,
      "Ġklassischen": 8315,
      "Ġdemonst": 8316,
      "mate": 8317,
      "bedarf": 8318,
      "Ġverste": 8319,
      "Ġprop": 8320,
      "dro": 8321,
      "ji": 8322,
      "atlan": 8323,
      "benutzer": 8324,
      "zeichnungen": 8325,
      "Ġisol": 8326,
      "ziehung": 8327,
      "ated": 8328,
      "Ġbesorgt": 8329,
      "gungs": 8330,
      "rts": 8331,
      "Ġnavig": 8332,
      "Ġzusammenha": 8333,
      "Ġvereinfachung": 8334,
      "anger": 8335,
      "Ġpflege": 8336,
      "28": 8337,
      "Ġdekor": 8338,
      "Ġeinscha": 8339,
      "Ġerhaltung": 8340,
      "Ġselber": 8341,
      "akzep": 8342,
      "Ġrenten": 8343,
      "ior": 8344,
      "back": 8345,
      "Ġkopenhagen": 8346,
      "Ġsieg": 8347,
      "pper": 8348,
      "Ġrechtzeitig": 8349,
      "Ġandern": 8350,
      "Ġerzeugen": 8351,
      "Ġnewsletter": 8352,
      "Ġsitzen": 8353,
      "Ġhinzugefu": 8354,
      "lager": 8355,
      "Ġangebracht": 8356,
      "restaur": 8357,
      "09": 8358,
      "statt": 8359,
      "Ġferienwohnung": 8360,
      "iers": 8361,
      "nita": 8362,
      "ido": 8363,
      "Ġarchiv": 8364,
      "Ġintegrierten": 8365,
      "schreiben": 8366,
      "Ġdenjenigen": 8367,
      "Ġrechtliche": 8368,
      "Ġpatent": 8369,
      "Ġbrem": 8370,
      "cha": 8371,
      "Ġeinb": 8372,
      "Ġschweren": 8373,
      "Ġcorpor": 8374,
      "but": 8375,
      "Ġpakete": 8376,
      "Ġkreuz": 8377,
      "Ġzeitung": 8378,
      "Ġsichergestellt": 8379,
      "Ġselben": 8380,
      "Ġgesetzlichen": 8381,
      "Ġbesucht": 8382,
      "Ġanson": 8383,
      "Ġmodified": 8384,
      "bergen": 8385,
      "Ġsele": 8386,
      "Ġeigentums": 8387,
      "geld": 8388,
      "Ġbestimmung": 8389,
      "Ġniederlanden": 8390,
      "08": 8391,
      "Ġerma": 8392,
      "raums": 8393,
      "ÑģÑĤ": 8394,
      "Ġreser": 8395,
      "Ġupdate": 8396,
      "Ġausbau": 8397,
      "Ġpeter": 8398,
      "hrungsunion": 8399,
      "Ġgeeignete": 8400,
      "Ġvermut": 8401,
      "rot": 8402,
      "ordnet": 8403,
      "rkere": 8404,
      "Ġeingestellt": 8405,
      "Ġkategorien": 8406,
      "kir": 8407,
      "Ġakadem": 8408,
      "Ġnachmittag": 8409,
      "Ġbeta": 8410,
      "Ġmore": 8411,
      "Ġdiploma": 8412,
      "Ġhell": 8413,
      "ringung": 8414,
      "Ġspezialisiert": 8415,
      "Ġmaschine": 8416,
      "Ġschlimm": 8417,
      "Ġansonsten": 8418,
      "Ġanony": 8419,
      "Ġhof": 8420,
      "Ġlife": 8421,
      "Ġuntersuchen": 8422,
      "Ġjahrzehnten": 8423,
      "Ġeventuell": 8424,
      "Ġrechen": 8425,
      "orge": 8426,
      "Ġinvestition": 8427,
      "ĠstraÃŁburg": 8428,
      "Ġberichterstatters": 8429,
      "Ġkompliz": 8430,
      "kannten": 8431,
      "Ġdou": 8432,
      "Ġlinien": 8433,
      "Ġflugzeug": 8434,
      "Ġoffizielle": 8435,
      "speich": 8436,
      "Ġ48": 8437,
      "Ġmusli": 8438,
      "2009": 8439,
      "Ġarm": 8440,
      "Ġday": 8441,
      "Ġbeton": 8442,
      "Ġmiten": 8443,
      "Ġkompati": 8444,
      "27": 8445,
      "Ġquelle": 8446,
      "Ġoftmals": 8447,
      "Ġbranche": 8448,
      "Ġpen": 8449,
      "Ġberliner": 8450,
      "Ġinvestoren": 8451,
      "stete": 8452,
      "pfl": 8453,
      "Ġgreen": 8454,
      "Ġwerten": 8455,
      "Ġfroh": 8456,
      "Ġwechseln": 8457,
      "Ġdasselbe": 8458,
      "katastrop": 8459,
      "aktiv": 8460,
      "Ġtai": 8461,
      "Ġwirtschaftskrise": 8462,
      "Ġzwo": 8463,
      "fungen": 8464,
      "stiken": 8465,
      "Ġverfasser": 8466,
      "Ġsens": 8467,
      "Ġenergieeffizienz": 8468,
      "Ġmaxim": 8469,
      "wimming": 8470,
      "rations": 8471,
      "Ġcer": 8472,
      "Ġparlamente": 8473,
      "Ġregulierung": 8474,
      "bal": 8475,
      "Ġhinein": 8476,
      "Ġunmittelbarer": 8477,
      "person": 8478,
      "ios": 8479,
      "Ġkg": 8480,
      "Ġarabischen": 8481,
      "nische": 8482,
      "Ġdreh": 8483,
      "Ġinclu": 8484,
      "Ġzulassen": 8485,
      "ckets": 8486,
      "Ġherrlichen": 8487,
      "usel": 8488,
      "Ġschicks": 8489,
      "rasse": 8490,
      "iga": 8491,
      "Ġbenutzung": 8492,
      "Ġdingen": 8493,
      "Ġbeseitigung": 8494,
      "Ġsucht": 8495,
      "Ġvergro": 8496,
      "Ġtoler": 8497,
      "Ġmay": 8498,
      "Ġengland": 8499,
      "paratur": 8500,
      "ates": 8501,
      "Ì¨": 8502,
      "Ġbol": 8503,
      "Ġmont": 8504,
      "suche": 8505,
      "Ġcons": 8506,
      "rfe": 8507,
      "Ġlebt": 8508,
      "Ġtonnen": 8509,
      "Ġbuchsta": 8510,
      "Ġenorme": 8511,
      "Ġirischen": 8512,
      "hmte": 8513,
      "Ġbelarus": 8514,
      "bevo": 8515,
      "Ġermutigen": 8516,
      "Ġfuss": 8517,
      "Ġthom": 8518,
      "Ġemo": 8519,
      "Ġkostenlose": 8520,
      "boden": 8521,
      "Ġplace": 8522,
      "Ġanzubieten": 8523,
      "Ġbewusstsein": 8524,
      "Ġtelekommunik": 8525,
      "Ġerfreu": 8526,
      "Ġparameter": 8527,
      "Ġspreche": 8528,
      "Ġerrichtet": 8529,
      "alender": 8530,
      "kehrt": 8531,
      "Ġkonzert": 8532,
      "Ġpaul": 8533,
      "Ġmitentsch": 8534,
      "Ġberuhen": 8535,
      "Ġnegativen": 8536,
      "ssi": 8537,
      "gefunden": 8538,
      "Ġauffordern": 8539,
      "Ġintegrierte": 8540,
      "Ġproduktivita": 8541,
      "auben": 8542,
      "versammlung": 8543,
      "Ġsenken": 8544,
      "dre": 8545,
      "deration": 8546,
      "Ġzusammenhalt": 8547,
      "Ġleid": 8548,
      "isierten": 8549,
      "Ġappartements": 8550,
      "ader": 8551,
      "zza": 8552,
      "hor": 8553,
      "personen": 8554,
      "Ġppe": 8555,
      "Ġec": 8556,
      "Ġzustande": 8557,
      "Ġreichhal": 8558,
      "Ġsoeben": 8559,
      "Ġmitzu": 8560,
      "Ġkatalog": 8561,
      "Ġtodesstrafe": 8562,
      "Ġgekennzeichnet": 8563,
      "Ġ\"...": 8564,
      "Ġdrittel": 8565,
      "Ġstammt": 8566,
      "eras": 8567,
      "rase": 8568,
      "Ġfirst": 8569,
      "hjahr": 8570,
      "Ġfiel": 8571,
      "amin": 8572,
      "Ġequ": 8573,
      "ahme": 8574,
      "Ġkonjunkt": 8575,
      "mall": 8576,
      "kontroll": 8577,
      "Ġrechner": 8578,
      "sthe": 8579,
      "Ġfang": 8580,
      "Ġberge": 8581,
      "geltlich": 8582,
      "Ġitalienische": 8583,
      "achter": 8584,
      "Ġzurzeit": 8585,
      "Ġdeu": 8586,
      "arbeiter": 8587,
      "Ġereignis": 8588,
      "rage": 8589,
      "06": 8590,
      "Ġplay": 8591,
      "Ġsicherheitspolitik": 8592,
      "Ġbeabsichtigt": 8593,
      "Ġunno": 8594,
      "Ġamer": 8595,
      "Ġbetracht": 8596,
      "Ġtiefe": 8597,
      "Ġkore": 8598,
      "Ġpotenzial": 8599,
      "reibungen": 8600,
      "inkel": 8601,
      "Ġantra": 8602,
      "bles": 8603,
      "Ġbeinhalten": 8604,
      "Ġerkunden": 8605,
      "Ġvorgestellt": 8606,
      "Ġkonzip": 8607,
      "kommission": 8608,
      "opol": 8609,
      "gypten": 8610,
      "Ġgesto": 8611,
      "Ġgelder": 8612,
      "ito": 8613,
      "tero": 8614,
      "Ġbezeichnen": 8615,
      "app": 8616,
      "ssern": 8617,
      "Ġvertrages": 8618,
      "Ġzy": 8619,
      "Ġumweltfragen": 8620,
      "Ġonly": 8621,
      "Ġderzeitige": 8622,
      "Ġeigener": 8623,
      "Ġgedacht": 8624,
      "Ġausgleich": 8625,
      "Ġlohn": 8626,
      "Ġstrecke": 8627,
      "Ġillegale": 8628,
      "taten": 8629,
      "Ġmetro": 8630,
      "Ġdiplom": 8631,
      "rse": 8632,
      "Ġfeu": 8633,
      "Ġaktiven": 8634,
      "chron": 8635,
      "Ġcolle": 8636,
      "verletzungen": 8637,
      "anwendungen": 8638,
      "spo": 8639,
      "Ġsepara": 8640,
      "geht": 8641,
      "Ġerwor": 8642,
      "iterran": 8643,
      "zahlung": 8644,
      "Ġverletzt": 8645,
      "produkt": 8646,
      "Ġvisa": 8647,
      "Ġunentgeltlich": 8648,
      "Ġambi": 8649,
      "hersteller": 8650,
      "160": 8651,
      "Ġfestzustellen": 8652,
      "tiere": 8653,
      "holen": 8654,
      "rzen": 8655,
      "itiert": 8656,
      "projekte": 8657,
      "Ġreservierung": 8658,
      "blig": 8659,
      "cra": 8660,
      "Ġunions": 8661,
      "Ġversuche": 8662,
      "schulen": 8663,
      "Ġok": 8664,
      "sions": 8665,
      "ami": 8666,
      "Ġmechanismen": 8667,
      "stab": 8668,
      "zahlungen": 8669,
      "Ġdialogs": 8670,
      "entsch": 8671,
      "Ġreno": 8672,
      "Ġappartement": 8673,
      "()": 8674,
      "isation": 8675,
      "Ġjournalisten": 8676,
      "Ġentscheidenden": 8677,
      "Ġafrikanischen": 8678,
      "Ġeinflu": 8679,
      "hrdet": 8680,
      "sprech": 8681,
      "Ġratifizierung": 8682,
      "Ġrechnungshof": 8683,
      "yal": 8684,
      "alien": 8685,
      "web": 8686,
      "Ġbeachtung": 8687,
      "Ġsonntag": 8688,
      "Ġabbau": 8689,
      "Ġdienstleistung": 8690,
      "Ġobst": 8691,
      "Ġproje": 8692,
      "Ġkontrolliert": 8693,
      "instrumente": 8694,
      "Ġgeringer": 8695,
      "Ġhinweise": 8696,
      "hafter": 8697,
      "Ġhandy": 8698,
      "Ġanzunehmen": 8699,
      "steten": 8700,
      "Ġprofessionelle": 8701,
      "Ġbefasst": 8702,
      "gefa": 8703,
      "museum": 8704,
      "Ġbedeutenden": 8705,
      "vide": 8706,
      "Ġhindernisse": 8707,
      "ÅĤ": 8708,
      "Ġhomo": 8709,
      "Ġthey": 8710,
      "Ġview": 8711,
      "Ġkaiser": 8712,
      "Ġworks": 8713,
      "Ġmodernisierung": 8714,
      "bestand": 8715,
      "Ġue": 8716,
      "Ġfound": 8717,
      "bour": 8718,
      "Ġswimming": 8719,
      "Ġemissions": 8720,
      "Ġpraktischen": 8721,
      "basis": 8722,
      "quenz": 8723,
      "Ġdistri": 8724,
      "Ġgesamm": 8725,
      "enten": 8726,
      "erten": 8727,
      "Ġschlacht": 8728,
      "Ġsystemen": 8729,
      "Ġhauptbahnhof": 8730,
      "rmsten": 8731,
      "lings": 8732,
      "becken": 8733,
      "Ġsenkung": 8734,
      "sionspolitik": 8735,
      "terie": 8736,
      "Ġverhandlung": 8737,
      "Ġangemessenen": 8738,
      "peten": 8739,
      "Ġbrachte": 8740,
      "Ġverwirklichung": 8741,
      "off": 8742,
      "steigen": 8743,
      "Ġrealer": 8744,
      "Ġfahrer": 8745,
      "bem": 8746,
      "Ġvertretern": 8747,
      "Ġbezahlt": 8748,
      "Ġdigitale": 8749,
      "Ġgewid": 8750,
      "Ġzeig": 8751,
      "zite": 8752,
      "tech": 8753,
      "Ġverbu": 8754,
      "Ġlou": 8755,
      "Ġvenedig": 8756,
      "Ġwohnungen": 8757,
      "decken": 8758,
      "Ġgewisser": 8759,
      "Ġumstruktur": 8760,
      "Ġwissenschaftler": 8761,
      "Ġpolitisches": 8762,
      "Ġscheitern": 8763,
      "Ġenthalt": 8764,
      "Ġeffektive": 8765,
      "keten": 8766,
      "Ġschengen": 8767,
      "\"...": 8768,
      "graben": 8769,
      "Ġwesentlicher": 8770,
      "Ġeintritt": 8771,
      "versicherung": 8772,
      "urce": 8773,
      "Ġberechnet": 8774,
      "Ġinforma": 8775,
      "Ġrichtet": 8776,
      "Ġergebnissen": 8777,
      "Ġtypischen": 8778,
      "esch": 8779,
      "Ġinfo": 8780,
      "Ġkonsolid": 8781,
      "Ġeffiziente": 8782,
      "Ġwirksamkeit": 8783,
      "Ġgal": 8784,
      "Ġly": 8785,
      "Ġbetreuung": 8786,
      "stitution": 8787,
      "anforderungen": 8788,
      "Ġganzes": 8789,
      "Ġfestlegen": 8790,
      "bliche": 8791,
      "Ġ1992": 8792,
      "Ġfilter": 8793,
      "Ġalban": 8794,
      "Ġpremierminister": 8795,
      "Ġfreut": 8796,
      "iso": 8797,
      "Ġ(\"": 8798,
      "Ġ250": 8799,
      "Ġauftrags": 8800,
      "Ġumgehen": 8801,
      "Ġzweiter": 8802,
      "sprodu": 8803,
      "Ġviews": 8804,
      "hmt": 8805,
      "Ġaufs": 8806,
      "Ġangewandt": 8807,
      "Ġschmerz": 8808,
      "Ġsteigern": 8809,
      "ndiger": 8810,
      "Ġrenoviert": 8811,
      "erte": 8812,
      "Ġinnere": 8813,
      "Ġpharma": 8814,
      "Ġmandat": 8815,
      "ffa": 8816,
      "Ġveranker": 8817,
      "nicht": 8818,
      "Ġaccess": 8819,
      "media": 8820,
      "nne": 8821,
      "Ġiii": 8822,
      "Ġanku": 8823,
      "bares": 8824,
      "Ġentschuld": 8825,
      "ngern": 8826,
      "Ġamerikaner": 8827,
      "Ġbeeinflussen": 8828,
      "achte": 8829,
      "begriffen": 8830,
      "Ġausgegeben": 8831,
      "Ġreligion": 8832,
      "Ġanreise": 8833,
      "Ġwohnzimmer": 8834,
      "Ġerrichtung": 8835,
      "Ġwachsenden": 8836,
      "ungsmo": 8837,
      "Ġschwach": 8838,
      "Ġanzuwenden": 8839,
      "Ġwirkliche": 8840,
      "now": 8841,
      "Ġbegu": 8842,
      "'t": 8843,
      "Ġlangfristigen": 8844,
      "siver": 8845,
      "Ġstreng": 8846,
      "hern": 8847,
      "sv": 8848,
      "Ġzeitplan": 8849,
      "Ġschwierige": 8850,
      "Ġwirkt": 8851,
      "Ġeinla": 8852,
      "Ġauftra": 8853,
      "Ġhervorragend": 8854,
      "rn": 8855,
      "genz": 8856,
      "Ġsaint": 8857,
      "Ġgeregelt": 8858,
      "Ġdauert": 8859,
      "Ġtanz": 8860,
      "ause": 8861,
      "initiative": 8862,
      "mat": 8863,
      "Ġast": 8864,
      "Ġopf": 8865,
      "Ġablauf": 8866,
      "Ġmuster": 8867,
      "Ġzugeho": 8868,
      "ai": 8869,
      "Ġmaster": 8870,
      "Ġsparen": 8871,
      "Ġdifferenz": 8872,
      "ÌĦ": 8873,
      "Ġversammlung": 8874,
      "top": 8875,
      "Ġ33": 8876,
      "Ð³Ñ": 8877,
      "methode": 8878,
      "Ġfok": 8879,
      "lichem": 8880,
      "Ġfinnland": 8881,
      "irl": 8882,
      "Ġvorn": 8883,
      "papier": 8884,
      "Ġprozesses": 8885,
      "Ġjer": 8886,
      "klar": 8887,
      "politische": 8888,
      "Ġkonsum": 8889,
      "Ġherbei": 8890,
      "âĢŀ": 8891,
      "Ġimport": 8892,
      "Ġdritter": 8893,
      "29": 8894,
      "Ġwc": 8895,
      "esta": 8896,
      "Ġkey": 8897,
      "Ġvermittlungs": 8898,
      "bab": 8899,
      "eiler": 8900,
      "Ġveranstaltungs": 8901,
      "tzeit": 8902,
      "rel": 8903,
      "Ġ..": 8904,
      "rachten": 8905,
      "Ġjava": 8906,
      "Ġentfernung": 8907,
      "Ġtruppen": 8908,
      "Ġwirtschaftspolitik": 8909,
      "alisierte": 8910,
      "Ġdringen": 8911,
      "Ġbetreiber": 8912,
      "ests": 8913,
      "Ġstehende": 8914,
      "angebote": 8915,
      "Ġvorstellungen": 8916,
      "leger": 8917,
      "\")": 8918,
      "Ġany": 8919,
      "Ġausarbeitung": 8920,
      "ĠbeschluÃŁ": 8921,
      "Ġgenauer": 8922,
      "ervice": 8923,
      "Ġtraining": 8924,
      "Ġreferend": 8925,
      "Ġinakzep": 8926,
      "Ġabgegeben": 8927,
      "wett": 8928,
      "Ġspitze": 8929,
      "ited": 8930,
      "Ġprivi": 8931,
      "Ġvorzunehmen": 8932,
      "hafen": 8933,
      "Ġlar": 8934,
      "Ġlieferanten": 8935,
      "Ġanmeldung": 8936,
      "Ġerwiesen": 8937,
      "Ġtreib": 8938,
      "denkt": 8939,
      "Ġgratis": 8940,
      "Ġeinsei": 8941,
      "anner": 8942,
      "Ġrock": 8943,
      "Ġanwenden": 8944,
      "Ġvit": 8945,
      "Ġlust": 8946,
[...]
