{
  "version": "1.0",
  "truncation": null,
  "padding": null,
  "added_tokens": [
    {
      "id": 0,
      "content": "<s>",
      "single_word": false,
      "lstrip": false,
      "rstrip": false,
      "normalized": false,
      "special": true
    },
    {
      "id": 1,
      "content": "<pad>",
      "single_word": false,
      "lstrip": false,
      "rstrip": false,
      "normalized": false,
      "special": true
    },
    {
      "id": 2,
      "content": "</s>",
      "single_word": false,
      "lstrip": false,
      "rstrip": false,
      "normalized": false,
      "special": true
    },
    {
      "id": 3,
      "content": "<unk>",
      "single_word": false,
      "lstrip": false,
      "rstrip": false,
      "normalized": false,
      "special": true
    },
    {
      "id": 4,
      "content": "<mask>",
      "single_word": false,
      "lstrip": false,
      "rstrip": false,
      "normalized": false,
      "special": true
    }
  ],
  "normalizer": {
    "type": "Sequence",
    "normalizers": [
      {
        "type": "NFD"
      },
      {
        "type": "StripAccents"
      },
      {
        "type": "Lowercase"
      }
    ]
  },
  "pre_tokenizer": {
    "type": "ByteLevel",
    "add_prefix_space": true,
    "trim_offsets": true,
    "use_regex": true
  },
  "post_processor": {
    "type": "TemplateProcessing",
    "single": [
      {
        "SpecialToken": {
          "id": "<s>",
          "type_id": 0
        }
      },
      {
        "Sequence": {
          "id": "A",
          "type_id": 0
        }
      },
      {
        "SpecialToken": {
          "id": "</s>",
          "type_id": 0
        }
      }
    ],
    "pair": [
      {
        "SpecialToken": {
          "id": "<s>",
          "type_id": 0
        }
      },
      {
        "Sequence": {
          "id": "A",
          "type_id": 0
        }
      },
      {
        "SpecialToken": {
          "id": "</s>",
          "type_id": 0
        }
      },
      {
        "Sequence": {
          "id": "B",
          "type_id": 1
        }
      },
      {
        "SpecialToken": {
          "id": "</s>",
          "type_id": 1
        }
      }
    ],
    "special_tokens": {
      "</s>": {
        "id": "</s>",
        "ids": [
          2
        ],
        "tokens": [
          "</s>"
        ]
      },
      "<s>": {
        "id": "<s>",
        "ids": [
          0
        ],
        "tokens": [
          "<s>"
        ]
      }
    }
  },
  "decoder": {
    "type": "ByteLevel",
    "add_prefix_space": true,
    "trim_offsets": true,
    "use_regex": true
  },
  "model": {
    "type": "BPE",
    "dropout": null,
    "unk_token": "<unk>",
    "continuing_subword_prefix": null,
    "end_of_word_suffix": null,
    "fuse_unk": false,
    "byte_fallback": false,
    "vocab": {
      "<s>": 0,
      "<pad>": 1,
      "</s>": 2,
      "<unk>": 3,
      "<mask>": 4,
      "!": 5,
      "\"": 6,
      "#": 7,
      "$": 8,
      "%": 9,
      "&": 10,
      "'": 11,
      "(": 12,
      ")": 13,
      "*": 14,
      "+": 15,
      ",": 16,
      "-": 17,
      ".": 18,
      "/": 19,
      "0": 20,
      "1": 21,
      "2": 22,
      "3": 23,
      "4": 24,
      "5": 25,
      "6": 26,
      "7": 27,
      "8": 28,
      "9": 29,
      ":": 30,
      ";": 31,
      "<": 32,
      "=": 33,
      ">": 34,
      "?": 35,
      "@": 36,
      "A": 37,
      "B": 38,
      "C": 39,
      "D": 40,
      "E": 41,
      "F": 42,
      "G": 43,
      "H": 44,
      "I": 45,
      "J": 46,
      "K": 47,
      "L": 48,
      "M": 49,
      "N": 50,
      "O": 51,
      "P": 52,
      "Q": 53,
      "R": 54,
      "S": 55,
      "T": 56,
      "U": 57,
      "V": 58,
      "W": 59,
      "X": 60,
      "Y": 61,
      "Z": 62,
      "[": 63,
      "\\": 64,
      "]": 65,
      "^": 66,
      "_": 67,
      "`": 68,
      "a": 69,
      "b": 70,
      "c": 71,
      "d": 72,
      "e": 73,
      "f": 74,
      "g": 75,
      "h": 76,
      "i": 77,
      "j": 78,
      "k": 79,
      "l": 80,
      "m": 81,
      "n": 82,
      "o": 83,
      "p": 84,
      "q": 85,
      "r": 86,
      "s": 87,
      "t": 88,
      "u": 89,
      "v": 90,
      "w": 91,
      "x": 92,
      "y": 93,
      "z": 94,
      "{": 95,
      "|": 96,
      "}": 97,
      "~": 98,
      "¡": 99,
      "¢": 100,
      "£": 101,
      "¤": 102,
      "¥": 103,
      "¦": 104,
      "§": 105,
      "¨": 106,
      "©": 107,
      "ª": 108,
      "«": 109,
      "¬": 110,
      "®": 111,
      "¯": 112,
      "°": 113,
      "±": 114,
      "²": 115,
      "³": 116,
      "´": 117,
      "µ": 118,
      "¶": 119,
      "·": 120,
      "¸": 121,
      "¹": 122,
      "º": 123,
      "»": 124,
      "¼": 125,
      "½": 126,
      "¾": 127,
      "¿": 128,
      "À": 129,
      "Á": 130,
      "Â": 131,
      "Ã": 132,
      "Ä": 133,
      "Å": 134,
      "Æ": 135,
      "Ç": 136,
      "È": 137,
      "É": 138,
      "Ê": 139,
      "Ë": 140,
      "Ì": 141,
      "Í": 142,
      "Î": 143,
      "Ï": 144,
      "Ð": 145,
      "Ñ": 146,
      "Ò": 147,
      "Ó": 148,
      "Ô": 149,
      "Õ": 150,
      "Ö": 151,
      "×": 152,
      "Ø": 153,
      "Ù": 154,
      "Ú": 155,
      "Û": 156,
      "Ü": 157,
      "Ý": 158,
      "Þ": 159,
      "ß": 160,
      "à": 161,
      "á": 162,
      "â": 163,
      "ã": 164,
      "ä": 165,
      "å": 166,
      "æ": 167,
      "ç": 168,
      "è": 169,
      "é": 170,
      "ê": 171,
      "ë": 172,
      "ì": 173,
      "í": 174,
      "î": 175,
      "ï": 176,
      "ð": 177,
      "ñ": 178,
      "ò": 179,
      "ó": 180,
      "ô": 181,
      "õ": 182,
      "ö": 183,
      "÷": 184,
      "ø": 185,
      "ù": 186,
      "ú": 187,
      "û": 188,
      "ü": 189,
      "ý": 190,
      "þ": 191,
      "ÿ": 192,
      "Ā": 193,
      "ā": 194,
      "Ă": 195,
      "ă": 196,
      "Ą": 197,
      "ą": 198,
      "Ć": 199,
      "ć": 200,
      "Ĉ": 201,
      "ĉ": 202,
      "Ċ": 203,
      "ċ": 204,
      "Č": 205,
      "č": 206,
      "Ď": 207,
      "ď": 208,
      "Đ": 209,
      "đ": 210,
      "Ē": 211,
      "ē": 212,
      "Ĕ": 213,
      "ĕ": 214,
      "Ė": 215,
      "ė": 216,
      "Ę": 217,
      "ę": 218,
      "Ě": 219,
      "ě": 220,
      "Ĝ": 221,
      "ĝ": 222,
      "Ğ": 223,
      "ğ": 224,
      "Ġ": 225,
      "ġ": 226,
      "Ģ": 227,
      "ģ": 228,
      "Ĥ": 229,
      "ĥ": 230,
      "Ħ": 231,
      "ħ": 232,
      "Ĩ": 233,
      "ĩ": 234,
      "Ī": 235,
      "ī": 236,
      "Ĭ": 237,
      "ĭ": 238,
      "Į": 239,
      "į": 240,
      "İ": 241,
      "ı": 242,
      "Ĳ": 243,
      "ĳ": 244,
      "Ĵ": 245,
      "ĵ": 246,
      "Ķ": 247,
      "ķ": 248,
      "ĸ": 249,
      "Ĺ": 250,
      "ĺ": 251,
      "Ļ": 252,
      "ļ": 253,
      "Ľ": 254,
      "ľ": 255,
      "Ŀ": 256,
      "ŀ": 257,
      "Ł": 258,
      "ł": 259,
      "Ń": 260,
      "en": 261,
      "er": 262,
      "in": 263,
      "Ġa": 264,
      "Ġt": 265,
      "Ġd": 266,
      "ch": 267,
      "Ġs": 268,
      "on": 269,
      "es": 270,
      "Ġth": 271,
      "un": 272,
      "Ġw": 273,
      "it": 274,
      "is": 275,
      "at": 276,
      "Ġb": 277,
      "an": 278,
      "or": 279,
      "Ġthe": 280,
      "ie": 281,
      "Ġm": 282,
      "re": 283,
      "Ġf": 284,
      "Ġp": 285,
      "Ġe": 286,
      "Ġin": 287,
      "ur": 288,
      "Ġo": 289,
      "al": 290,
      "ar": 291,
      "Ġc": 292,
      "Ġh": 293,
      "ich": 294,
      "Ġan": 295,
      "Ġg": 296,
      "te": 297,
      "as": 298,
      "ion": 299,
      "Ġun": 300,
      "Ġv": 301,
      "le": 302,
      "Ġn": 303,
      "us": 304,
      "ent": 305,
      "ro": 306,
      "Ġof": 307,
      "Ġdie": 308,
      "ing": 309,
      "Ġto": 310,
      "Ġand": 311,
      "Ġbe": 312,
      "ung": 313,
      "Ġder": 314,
      "ll": 315,
      "Ġz": 316,
      "Ġk": 317,
      "ig": 318,
      "Ġund": 319,
      "Ġi": 320,
      "om": 321,
      "ed": 322,
      "Ġl": 323,
      "Ġein": 324,
      "ic": 325,
      "st": 326,
      "Ġis": 327,
      "ra": 328,
      "el": 329,
      "ut": 330,
      "em": 331,
      "Ġre": 332,
      "ir": 333,
      "et": 334,
      "ter": 335,
      "il": 336,
      "ol": 337,
      "ation": 338,
      "am": 339,
      "ten": 340,
      "eit": 341,
      "um": 342,
      "der": 343,
      "Ġver": 344,
      "Ġst": 345,
      "ge": 346,
      "den": 347,
      "Ġau": 348,
      "ies": 349,
      "Ġr": 350,
      "Ġfor": 351,
      "op": 352,
      "hr": 353,
      "ct": 354,
      "ul": 355,
      "sch": 356,
      "de": 357,
      "ber": 358,
      "iv": 359,
      "Ġdas": 360,
      "Ġpro": 361,
      "lich": 362,
      "Ġzu": 363,
      "ab": 364,
      "ot": 365,
      "Ġon": 366,
      "Ġer": 367,
      "im": 368,
      "isch": 369,
      "ier": 370,
      "Ġwe": 371,
      "icht": 372,
      "Ġal": 373,
      "gen": 374,
      "os": 375,
      "and": 376,
      "Ġden": 377,
      "Ġthat": 378,
      "Ġwir": 379,
      "Ġse": 380,
      "ach": 381,
      "est": 382,
      "ess": 383,
      "ly": 384,
      "Ġwh": 385,
      "Ġj": 386,
      "Ġim": 387,
      "ere": 388,
      "Ġso": 389,
      "Ġmit": 390,
      "Ġy": 391,
      "ce": 392,
      "id": 393,
      "omm": 394,
      "Ġvon": 395,
      "ort": 396,
      "Ġit": 397,
      "Ġauf": 398,
      "Ġcon": 399,
      "ÃŁ": 400,
      "Ġge": 401,
      "Ġfur": 402,
      "Ġde": 403,
      "ver": 404,
      "ith": 405,
      "kt": 406,
      "Ġeur": 407,
      "Ġas": 408,
      "ow": 409,
      "Ġwith": 410,
      "Ġist": 411,
      "Ġdies": 412,
      "Ġu": 413,
      "Ġdes": 414,
      "ft": 415,
      "Ġha": 416,
      "Ġne": 417,
      "Ġsie": 418,
      "la": 419,
      "Ġyo": 420,
      "ff": 421,
      "Ġaus": 422,
      "Ġeurop": 423,
      "Ġsch": 424,
      "Ġare": 425,
      "ill": 426,
      "ers": 427,
      "ve": 428,
      "Ġthis": 429,
      "Ġpr": 430,
      "ind": 431,
      "ck": 432,
      "âĢ": 433,
      "Ġ1": 434,
      "Ġle": 435,
      "qu": 436,
      "Ġ(": 437,
      "Ġco": 438,
      "iss": 439,
      "Ġpar": 440,
      "ein": 441,
      "end": 442,
      "ad": 443,
      "ay": 444,
      "ist": 445,
      "Ġsp": 446,
      "ate": 447,
      "pp": 448,
      "ah": 449,
      "ik": 450,
      "Ġex": 451,
      "Ġab": 452,
      "ant": 453,
      "Ġmo": 454,
      "Ġsu": 455,
      "th": 456,
      "Ġals": 457,
      "Ġ2": 458,
      "Ġes": 459,
      "Ġor": 460,
      "Ġeine": 461,
      "ungen": 462,
      "Ġdem": 463,
      "men": 464,
      "00": 465,
      "ischen": 466,
      "Ġwer": 467,
      "ib": 468,
      "for": 469,
      "Ġall": 470,
      "nen": 471,
      "ak": 472,
      "Ġch": 473,
      "und": 474,
      "ment": 475,
      "ug": 476,
      "ag": 477,
      "Ġsich": 478,
      "ust": 479,
      "Ġnot": 480,
      "ity": 481,
      "Ġnicht": 482,
      "Ġvor": 483,
      "Ġho": 484,
      "ste": 485,
      "ht": 486,
      "ien": 487,
      "ive": 488,
      "Ġent": 489,
      "ial": 490,
      "sp": 491,
      "ann": 492,
      "Ġkon": 493,
      "ahr": 494,
      "ru": 495,
      "Ġat": 496,
      "uss": 497,
      "Ġuber": 498,
      "Ġen": 499,
      "rom": 500,
      "Ġum": 501,
      "Ġ-": 502,
      "Ġyou": 503,
      "Ġich": 504,
      "Ġme": 505,
      "ne": 506,
      "Ġwerden": 507,
      "Ġby": 508,
      "Ġsh": 509,
      "tel": 510,
      "au": 511,
      "ass": 512,
      "we": 513,
      "if": 514,
      "Ġar": 515,
      "all": 516,
      "Ġcom": 517,
      "ben": 518,
      "ang": 519,
      "Ġhave": 520,
      "Ġdass": 521,
      "Ġuns": 522,
      "igen": 523,
      "Ġcomm": 524,
      "Ġus": 525,
      "ain": 526,
      "Ġwill": 527,
      "uld": 528,
      "ern": 529,
      "Ġwas": 530,
      "Ġam": 531,
      "Ġinter": 532,
      "hal": 533,
      "iel": 534,
      "Ġauch": 535,
      "og": 536,
      "Ġunter": 537,
      "ze": 538,
      "ran": 539,
      "Ġwhich": 540,
      "ions": 541,
      "Ġda": 542,
      "Ġwo": 543,
      "ted": 544,
      "Ġfrom": 545,
      "Ġher": 546,
      "Ġte": 547,
      "Ġhe": 548,
      "du": 549,
      "ure": 550,
      "Ġdo": 551,
      "Ġreg": 552,
      "Ġges": 553,
      "lie": 554,
      "Ġeurope": 555,
      "ission": 556,
      "Ġwor": 557,
      "ungs": 558,
      "aft": 559,
      "ard": 560,
      "pt": 561,
      "hen": 562,
      "ĠâĢ": 563,
      "ine": 564,
      "Ġres": 565,
      "uch": 566,
      "Ġno": 567,
      "Ġwie": 568,
      "Ġsind": 569,
      "ast": 570,
      "Ġman": 571,
      "Ġbes": 572,
      "Ġnach": 573,
      "aus": 574,
      "Ġber": 575,
      "ect": 576,
      "..": 577,
      "Ġwird": 578,
      "ub": 579,
      "Ġeuropa": 580,
      "Ġhab": 581,
      "Ġro": 582,
      "Ġhas": 583,
      "od": 584,
      "iz": 585,
      "Ġgro": 586,
      "Ġdur": 587,
      "Ġih": 588,
      "Ġcan": 589,
      "Ġcomp": 590,
      "ident": 591,
      "ip": 592,
      "Ġpol": 593,
      "tr": 594,
      "Ġour": 595,
      "Ġhat": 596,
      "age": 597,
      "ult": 598,
      "Ġad": 599,
      "are": 600,
      "ische": 601,
      "ick": 602,
      "ens": 603,
      "form": 604,
      "ight": 605,
      "ert": 606,
      "ue": 607,
      "Ġqu": 608,
      "her": 609,
      "llen": 610,
      "ap": 611,
      "ise": 612,
      "art": 613,
      "me": 614,
      "Ġdi": 615,
      "ok": 616,
      "able": 617,
      "cc": 618,
      "Ġbei": 619,
      "ia": 620,
      "keit": 621,
      "enn": 622,
      "utz": 623,
      "Ġzur": 624,
      "etz": 625,
      "port": 626,
      "Ġoder": 627,
      "be": 628,
      "Ġpart": 629,
      "schaft": 630,
      "Ġag": 631,
      "Ġkomm": 632,
      "Ġma": 633,
      "ament": 634,
      "Ġalso": 635,
      "aten": 636,
      "ige": 637,
      "ore": 638,
      "lo": 639,
      "eren": 640,
      "mer": 641,
      "ud": 642,
      "ations": 643,
      "ark": 644,
      "beit": 645,
      "Ġoff": 646,
      "se": 647,
      "Ġeuropean": 648,
      "Ġwur": 649,
      "rit": 650,
      "Ġhaben": 651,
      "Ġthere": 652,
      "Ġste": 653,
      "ges": 654,
      "Ġ\"": 655,
      "ational": 656,
      "Ġcoun": 657,
      "ical": 658,
      "heit": 659,
      "cht": 660,
      "Ġhotel": 661,
      "lichen": 662,
      "ition": 663,
      "oc": 664,
      "Ġfra": 665,
      "io": 666,
      "ice": 667,
      "ated": 668,
      "Ġtra": 669,
      "ction": 670,
      "Ġeiner": 671,
      "Ġfin": 672,
      "Ġgo": 673,
      "Ġbut": 674,
      "Ġra": 675,
      "Ġser": 676,
      "Ġdurch": 677,
      "tra": 678,
      "gr": 679,
      "Ġparl": 680,
      "Ġfa": 681,
      "dern": 682,
      "ord": 683,
      "Ġwar": 684,
      "Ġgen": 685,
      "elt": 686,
      "Ġpres": 687,
      "Ġ200": 688,
      "Ġgr": 689,
      "Ġsein": 690,
      "ome": 691,
      "Ġdiese": 692,
      "ieren": 693,
      "out": 694,
      "Ġyour": 695,
      "pr": 696,
      "Ġihr": 697,
      "ish": 698,
      "Ġits": 699,
      "ign": 700,
      "fu": 701,
      "per": 702,
      "Ġeinen": 703,
      "Ġfre": 704,
      "Ġdar": 705,
      "Ġunion": 706,
      "'s": 707,
      "tet": 708,
      "iert": 709,
      "ates": 710,
      "Ġprodu": 711,
      "vel": 712,
      "our": 713,
      "Ġspe": 714,
      "Ġapp": 715,
      "chen": 716,
      "ahl": 717,
      "ite": 718,
      "cial": 719,
      "ear": 720,
      "Ġintern": 721,
      "ake": 722,
      "anz": 723,
      "ement": 724,
      "con": 725,
      "ank": 726,
      "ms": 727,
      "Ġdis": 728,
      "sten": 729,
      "Ġmuss": 730,
      "Ġind": 731,
      "ther": 732,
      "yste": 733,
      "Ġkonnen": 734,
      "Ġherr": 735,
      "ian": 736,
      "ary": 737,
      "ose": 738,
      "ember": 739,
      "Ġpre": 740,
      "zu": 741,
      "Ġmore": 742,
      "ide": 743,
      "liche": 744,
      "Ġmr": 745,
      "Ġwenn": 746,
      "Ġcl": 747,
      "Ġzum": 748,
      "cl": 749,
      "Ġcont": 750,
      "hmen": 751,
      "Ġcommission": 752,
      "hl": 753,
      "Ġ3": 754,
      "he": 755,
      "Ġsa": 756,
      "Ġnew": 757,
      "Ġpo": 758,
      "wo": 759,
      "ong": 760,
      "Ġper": 761,
      "Ġwould": 762,
      "fen": 763,
      "Ġ19": 764,
      "Ġone": 765,
      "Ġalle": 766,
      "Ġtheir": 767,
      "Ġbet": 768,
      "ime": 769,
      "Ġacc": 770,
      "Ġob": 771,
      "Ġfe": 772,
      "Ġstr": 773,
      "Ġif": 774,
      "ance": 775,
      "che": 776,
      "Ġihre": 777,
      "ile": 778,
      "Ġeinem": 779,
      "Ġpos": 780,
      "Ġbeen": 781,
      "ese": 782,
      "ĠâĢĵ": 783,
      "Ġnur": 784,
      "Ġpl": 785,
      "ma": 786,
      "one": 787,
      "chn": 788,
      "ase": 789,
      "Ġinform": 790,
      "reat": 791,
      "imm": 792,
      "Ġwurde": 793,
      "Ġla": 794,
      "Ġsho": 795,
      "ute": 796,
      "âĢĻ": 797,
      "Ġinst": 798,
      "Ġkann": 799,
      "gra": 800,
      "ts": 801,
      "ild": 802,
      "ble": 803,
      "chte": 804,
      "atz": 805,
      "Ġthey": 806,
      "Ġdieser": 807,
      "Ġzw": 808,
      "to": 809,
      "Ġeu": 810,
      "Ġwork": 811,
      "gan": 812,
      "Ġup": 813,
      "Ġpolit": 814,
      "oll": 815,
      "Ġfu": 816,
      "Ġev": 817,
      "ame": 818,
      "ugh": 819,
      "Ġjed": 820,
      "Ġtran": 821,
      "Ġshould": 822,
      "Âł": 823,
      "Ġpla": 824,
      "land": 825,
      "gt": 826,
      "ally": 827,
      "pro": 828,
      "ĠgroÃŁ": 829,
      "Ġmein": 830,
      "rie": 831,
      "ger": 832,
      "wer": 833,
      "Ġweit": 834,
      "amp": 835,
      "Ġgem": 836,
      "Ġjahr": 837,
      "Ġ.": 838,
      "Ġaber": 839,
      "up": 840,
      "Ġmehr": 841,
      "Ġpe": 842,
      "Ġeuropaischen": 843,
      "ely": 844,
      "Ġpers": 845,
      "ution": 846,
      "ike": 847,
      "Ġout": 848,
      "lic": 849,
      "Ġ,": 850,
      "Ġger": 851,
      "ierung": 852,
      "itat": 853,
      "fe": 854,
      "Ġhin": 855,
      "ater": 856,
      "Ġem": 857,
      "Ġverb": 858,
      "Ġserv": 859,
      "ac": 860,
      "uck": 861,
      "Ġmember": 862,
      "ire": 863,
      "Ġsol": 864,
      "Ġmin": 865,
      "ner": 866,
      "ktion": 867,
      "asident": 868,
      "Ġvery": 869,
      "bar": 870,
      "Ġother": 871,
      "igkeit": 872,
      "ack": 873,
      "Ġzus": 874,
      "Ġcountr": 875,
      "geb": 876,
      "Ġwho": 877,
      "alt": 878,
      "reich": 879,
      "Ġsyste": 880,
      "mit": 881,
      "ho": 882,
      "Ġnoch": 883,
      "ld": 884,
      "Ġbo": 885,
      "Ġthese": 886,
      "ings": 887,
      "Ġmust": 888,
      "Ġlo": 889,
      "...": 890,
      "Ġcons": 891,
      "ĠdaÃŁ": 892,
      "Ġkommission": 893,
      "ommen": 894,
      "ke": 895,
      "Ġarbeit": 896,
      "Ġfir": 897,
      "ities": 898,
      "Ġmen": 899,
      "ces": 900,
      "Ġproble": 901,
      "Ġkein": 902,
      "Ġonly": 903,
      "Ġsoll": 904,
      "bs": 905,
      "Ġbr": 906,
      "Ġneed": 907,
      "Ġsupp": 908,
      "Ġgegen": 909,
      "ink": 910,
      "Ġdire": 911,
      "ors": 912,
      "Ġbec": 913,
      "Ġhand": 914,
      "gram": 915,
      "ph": 916,
      "atur": 917,
      "Ġbest": 918,
      "ander": 919,
      "Ġhow": 920,
      "Ġyear": 921,
      "Ġmon": 922,
      "halt": 923,
      "Ġprov": 924,
      "fahr": 925,
      "Ġunser": 926,
      "Ġlike": 927,
      "Ġgew": 928,
      "pe": 929,
      "Ġsit": 930,
      "Ġter": 931,
      "Ġperson": 932,
      "pos": 933,
      "Ġany": 934,
      "Ġpresident": 935,
      "ri": 936,
      "pl": 937,
      "Ġtime": 938,
      "schen": 939,
      "fuhr": 940,
      "Ġmar": 941,
      "ents": 942,
      "Ġeff": 943,
      "Ġright": 944,
      "Ġaut": 945,
      "Ġvie": 946,
      "ced": 947,
      "olog": 948,
      "wick": 949,
      "Ġinformation": 950,
      "Ġabout": 951,
      "teil": 952,
      "Ġsehr": 953,
      "glie": 954,
      "sib": 955,
      "Ġmark": 956,
      "ry": 957,
      "Ġ5": 958,
      "Ġprasident": 959,
      "Ġinternational": 960,
      "Ġrec": 961,
      "Ġfl": 962,
      "Ġins": 963,
      "stand": 964,
      "Ġbis": 965,
      "ments": 966,
      "Ġwhat": 967,
      "cil": 968,
      "Ġmy": 969,
      "Ġ4": 970,
      "tern": 971,
      "Ġgesch": 972,
      "assen": 973,
      "ject": 974,
      "Ġaf": 975,
      "ious": 976,
      "entr": 977,
      "Ġviel": 978,
      "sta": 979,
      "ffen": 980,
      "leich": 981,
      "use": 982,
      ").": 983,
      "uen": 984,
      "Ġhier": 985,
      "nah": 986,
      "Ġmussen": 987,
      "velop": 988,
      "olle": 989,
      "hn": 990,
      "Ġinv": 991,
      "unden": 992,
      "xt": 993,
      "rat": 994,
      "get": 995,
      "Ġland": 996,
      "Ġwhen": 997,
      "Ġdevelop": 998,
      "Ġparlament": 999,
      "Ġdam": 1000,
      "als": 1001,
      "arbeit": 1002,
      "lin": 1003,
      "iament": 1004,
      "ular": 1005,
      "auf": 1006,
      "Ġlie": 1007,
      "cess": 1008,
      "ange": 1009,
      "ammen": 1010,
      "Ġgu": 1011,
      "onder": 1012,
      "igh": 1013,
      "Ġart": 1014,
      "Ġrat": 1015,
      "Ġparliament": 1016,
      "Ġimport": 1017,
      "Ġact": 1018,
      "ans": 1019,
      "Ġele": 1020,
      "Ġmitglie": 1021,
      "Ġtechn": 1022,
      "Ġstand": 1023,
      "led": 1024,
      "fore": 1025,
      "Ġet": 1026,
      "Ġpeop": 1027,
      "fl": 1028,
      "ibt": 1029,
      "tell": 1030,
      "fol": 1031,
      "ied": 1032,
      "Ġover": 1033,
      "Ġreport": 1034,
      "mo": 1035,
      "Ġwell": 1036,
      "Ġbas": 1037,
      "Ġzeit": 1038,
      "Ġdiesem": 1039,
      "fer": 1040,
      "ient": 1041,
      "Ġentwick": 1042,
      "ale": 1043,
      "Ġsome": 1044,
      "wn": 1045,
      "wend": 1046,
      "ider": 1047,
      "own": 1048,
      "Ġstates": 1049,
      "Ġdec": 1050,
      "tschaft": 1051,
      "cy": 1052,
      "man": 1053,
      "ility": 1054,
      "igt": 1055,
      "Ġseit": 1056,
      "Ġrel": 1057,
      "Ġpeople": 1058,
      "ail": 1059,
      "Ġzusammen": 1060,
      "halten": 1061,
      "Ġfirst": 1062,
      "tz": 1063,
      "Ġvers": 1064,
      "Ġsc": 1065,
      "lichkeit": 1066,
      "wor": 1067,
      "Ġdieses": 1068,
      "Ġmach": 1069,
      "Ġgemein": 1070,
      "Ġsuch": 1071,
      "Ġkn": 1072,
      "Ġjust": 1073,
      "act": 1074,
      "int": 1075,
      "los": 1076,
      "iger": 1077,
      "ual": 1078,
      "Ġph": 1079,
      "Ġwel": 1080,
      "ause": 1081,
      "Ġprogram": 1082,
      "iven": 1083,
      "Ġgeb": 1084,
      "hor": 1085,
      "ateg": 1086,
      "ks": 1087,
      "Ġben": 1088,
      "ific": 1089,
      "dition": 1090,
      "ds": 1091,
      "Ġunder": 1092,
      "sche": 1093,
      "ism": 1094,
      "Ġass": 1095,
      "Ġhel": 1096,
      "etzt": 1097,
      "Ġfo": 1098,
      "vor": 1099,
      "af": 1100,
      "Ġmog": 1101,
      "Ġkl": 1102,
      "Ġloc": 1103,
      "Ġinto": 1104,
      "nehmen": 1105,
      "Ġ20": 1106,
      "Ġuse": 1107,
      "enden": 1108,
      "Ġbeg": 1109,
      "Ġeing": 1110,
      "Ġworld": 1111,
      "wie": 1112,
      "Ġwere": 1113,
      "Ġrecht": 1114,
      "Ġsystem": 1115,
      "lieÃŁ": 1116,
      "Ġsub": 1117,
      "ices": 1118,
      "ative": 1119,
      "Ġop": 1120,
      "ays": 1121,
      "Ġson": 1122,
      "Ġresp": 1123,
      "iden": 1124,
      "Ġihnen": 1125,
      "Ġfun": 1126,
      "Ġform": 1127,
      "Ġrest": 1128,
      "Ġnow": 1129,
      "Ġko": 1130,
      "),": 1131,
      "Ġever": 1132,
      "Ġdiff": 1133,
      "Ġroom": 1134,
      "Ġmochte": 1135,
      "Ġinc": 1136,
      "Ġgrund": 1137,
      "Ġmost": 1138,
      "zeit": 1139,
      "Ġnational": 1140,
      "Ġhis": 1141,
      "erg": 1142,
      "lung": 1143,
      "conom": 1144,
      "isten": 1145,
      "eln": 1146,
      "ree": 1147,
      "Ġmed": 1148,
      "Ġwicht": 1149,
      "ous": 1150,
      "Ġpra": 1151,
      "Ġeines": 1152,
      "Ġsel": 1153,
      "Ġvom": 1154,
      "Ġbesch": 1155,
      "Ġget": 1156,
      "Ġunsere": 1157,
      "Ġtr": 1158,
      "Ġpolic": 1159,
      "Ġbed": 1160,
      "sen": 1161,
      "min": 1162,
      "Ġregion": 1163,
      "Ġsta": 1164,
      "sicht": 1165,
      "Ġbur": 1166,
      "uber": 1167,
      "ov": 1168,
      "Ġincl": 1169,
      "ell": 1170,
      "unt": 1171,
      "Ġleg": 1172,
      "Ġeconom": 1173,
      "Ġmany": 1174,
      "Ġcountries": 1175,
      "Ġqual": 1176,
      "essen": 1177,
      "Ġunterst": 1178,
      "ory": 1179,
      "Ġthan": 1180,
      "Ġorgan": 1181,
      "Ġpartic": 1182,
      "Ġthem": 1183,
      "Ġsupport": 1184,
      "ron": 1185,
      "Ġmitglied": 1186,
      "Ġsicher": 1187,
      "ention": 1188,
      "Ġexp": 1189,
      "Ġstat": 1190,
      "ures": 1191,
      "Ġpub": 1192,
      "Ġwahr": 1193,
      "ĠauÃŁ": 1194,
      "Ġkom": 1195,
      "Ġdeb": 1196,
      "les": 1197,
      "enz": 1198,
      "ple": 1199,
      "ken": 1200,
      "Ġcouncil": 1201,
      "Ġmarket": 1202,
      "kte": 1203,
      "Ġbar": 1204,
      "Ġnatur": 1205,
      "Ġcar": 1206,
      "av": 1207,
      "ages": 1208,
      "Ġbus": 1209,
      "fin": 1210,
      "Ġzwe": 1211,
      "itte": 1212,
      "ards": 1213,
      "schla": 1214,
      "Ġagain": 1215,
      "Ġav": 1216,
      "Ġmenschen": 1217,
      "Ġbereit": 1218,
      "Ġmake": 1219,
      "Ġander": 1220,
      "Ġsee": 1221,
      "Ġsowie": 1222,
      "Ġzwischen": 1223,
      "Ġcre": 1224,
      "Ġeinz": 1225,
      "hand": 1226,
      "Ġwelt": 1227,
      "Ġmet": 1228,
      "iet": 1229,
      "Ġbericht": 1230,
      "ruck": 1231,
      "kl": 1232,
      "Ġsitu": 1233,
      "Ġbecause": 1234,
      "Ġimportant": 1235,
      "Ġgibt": 1236,
      "els": 1237,
      "uf": 1238,
      "wir": 1239,
      "Ġgel": 1240,
      "Ġcent": 1241,
      "Ġbu": 1242,
      "Ġmay": 1243,
      "ween": 1244,
      "dit": 1245,
      "Ġdr": 1246,
      "Ġtur": 1247,
      "Ġbetween": 1248,
      "Ġdirect": 1249,
      "urs": 1250,
      "abe": 1251,
      "Ġtake": 1252,
      "dem": 1253,
      "ues": 1254,
      "ren": 1255,
      "co": 1256,
      "ating": 1257,
      "kommen": 1258,
      "inn": 1259,
      "Ġcle": 1260,
      "Ġversch": 1261,
      "Ġrequ": 1262,
      "Ġhigh": 1263,
      "staaten": 1264,
      "Ġreal": 1265,
      "Ġgroup": 1266,
      "tre": 1267,
      "sible": 1268,
      "Ġevery": 1269,
      "Ġfam": 1270,
      "Ġpropos": 1271,
      "Ġverf": 1272,
      "Ġconc": 1273,
      "Ġend": 1274,
      "halb": 1275,
      "Ġac": 1276,
      "Ġemp": 1277,
      "ware": 1278,
      "Ġ6": 1279,
      "ric": 1280,
      "Ġgreat": 1281,
      "Ġwurden": 1282,
      "issen": 1283,
      "day": 1284,
      "forder": 1285,
      "ives": 1286,
      "igung": 1287,
      "Ġunterstutz": 1288,
      "Ġjo": 1289,
      "Ġteil": 1290,
      "Ġgood": 1291,
      "Ġ'": 1292,
      "ett": 1293,
      "Ġwhere": 1294,
      "Ġtrans": 1295,
      "Ġeven": 1296,
      "Ġwieder": 1297,
      "Ġweiter": 1298,
      "lle": 1299,
      "zie": 1300,
      "Ġeuropaische": 1301,
      "ster": 1302,
      "Ġbl": 1303,
      "Ġfind": 1304,
      "Ġthro": 1305,
      "legen": 1306,
      "net": 1307,
      "Ġenerg": 1308,
      "mal": 1309,
      "Ġerw": 1310,
      "Ġcommun": 1311,
      "amen": 1312,
      "ister": 1313,
      "Ġfall": 1314,
      "Ġgener": 1315,
      "Ġwirtschaft": 1316,
      "stell": 1317,
      "Ġtwo": 1318,
      "och": 1319,
      "ever": 1320,
      "Ġafter": 1321,
      "ful": 1322,
      "Ġconf": 1323,
      "je": 1324,
      "ved": 1325,
      "Ġbere": 1326,
      "oth": 1327,
      "Ġfest": 1328,
      "fur": 1329,
      "atter": 1330,
      "Ġihrer": 1331,
      "Ġkeine": 1332,
      "ats": 1333,
      "Ġricht": 1334,
      "zial": 1335,
      "off": 1336,
      "Ġide": 1337,
      "Ġdamit": 1338,
      "ys": 1339,
      "nis": 1340,
      "ath": 1341,
      "Ġke": 1342,
      "Ġeng": 1343,
      "cept": 1344,
      "Ġbie": 1345,
      "Ġgleich": 1346,
      "Ġtransp": 1347,
      "Ġchar": 1348,
      "cted": 1349,
      "rauch": 1350,
      "Ġmade": 1351,
      "Ġfar": 1352,
      "Ġthose": 1353,
      "Ġvis": 1354,
      "Ġthrough": 1355,
      "fall": 1356,
      "Ġproduct": 1357,
      "Ġpolicy": 1358,
      "Ġdann": 1359,
      "bst": 1360,
      "erung": 1361,
      "vern": 1362,
      "Ġhad": 1363,
      "Ġange": 1364,
      "Ġcour": 1365,
      "ĠâĢŀ": 1366,
      "Ġschw": 1367,
      "Ġdeut": 1368,
      "Ġlang": 1369,
      "Ġyears": 1370,
      "Ġanderen": 1371,
      "uman": 1372,
      "olit": 1373,
      "ace": 1374,
      "Ġway": 1375,
      "Ġval": 1376,
      "Ġhere": 1377,
      "tro": 1378,
      "Ġair": 1379,
      "Ġvo": 1380,
      "Ġproblem": 1381,
      "Ġiss": 1382,
      "com": 1383,
      "ession": 1384,
      "Ġindust": 1385,
      "Ġmus": 1386,
      "Ġbeste": 1387,
      "Ġdel": 1388,
      "Ġnum": 1389,
      "ital": 1390,
      "Ġ199": 1391,
      "Ġbre": 1392,
      "Ġknow": 1393,
      "Ġimmer": 1394,
      "Ġ[": 1395,
      "ss": 1396,
      "Ġhaus": 1397,
      "Ġganz": 1398,
      "Ġorder": 1399,
      "ischer": 1400,
      "unft": 1401,
      "fort": 1402,
      "Ġview": 1403,
      "Ġprof": 1404,
      "Ġmitgliedstaaten": 1405,
      "Ġservice": 1406,
      "trag": 1407,
      "Ġur": 1408,
      "âĢľ": 1409,
      "Ġsim": 1410,
      "Ġsm": 1411,
      "Ġinstit": 1412,
      "ina": 1413,
      "Ġtak": 1414,
      "Ġfund": 1415,
      "ium": 1416,
      "Ġakt": 1417,
      "Ġhowever": 1418,
      "unkt": 1419,
      "lish": 1420,
      "Ġgut": 1421,
      "Ġ7": 1422,
      "weise": 1423,
      "zug": 1424,
      "Ġsec": 1425,
      "Ġfol": 1426,
      "Ġze": 1427,
      "immer": 1428,
      "geben": 1429,
      "Ġeben": 1430,
      "Ġagre": 1431,
      "Ġsin": 1432,
      "Ġschon": 1433,
      "Ġgar": 1434,
      "adt": 1435,
      "richt": 1436,
      "Ġkonn": 1437,
      "Ġbeing": 1438,
      "Ġpriv": 1439,
      "ument": 1440,
      "Ġfact": 1441,
      "erv": 1442,
      "innen": 1443,
      "Ġlong": 1444,
      "rei": 1445,
      "Ġlos": 1446,
      "ower": 1447,
      "Ġfran": 1448,
      "acht": 1449,
      "bal": 1450,
      "Ġdiesen": 1451,
      "isation": 1452,
      "Ġ10": 1453,
      "Ġ8": 1454,
      "Ġselbst": 1455,
      "Ġcur": 1456,
      "Ġfamil": 1457,
      "Ġel": 1458,
      "Ġbelie": 1459,
      "Ġmain": 1460,
      "bes": 1461,
      "Ġfuhr": 1462,
      "Ġappro": 1463,
      "ivers": 1464,
      "isen": 1465,
      "âĢĿ": 1466,
      "Ġquest": 1467,
      "ĠâĢľ": 1468,
      "Ġpublic": 1469,
      "itz": 1470,
      "Ġparticular": 1471,
      "Ġcompan": 1472,
      "ited": 1473,
      "gest": 1474,
      "hne": 1475,
      "Ġprocess": 1476,
      "tens": 1477,
      "Ġleben": 1478,
      "gend": 1479,
      "nung": 1480,
      "Ġbereich": 1481,
      "Ġinclud": 1482,
      "uÃŁ": 1483,
      "aut": 1484,
      "luss": 1485,
      "part": 1486,
      "000": 1487,
      "Ġdat": 1488,
      "nahmen": 1489,
      "gang": 1490,
      "Ġmill": 1491,
      "Ġfinanz": 1492,
      "Ġown": 1493,
      "schlieÃŁ": 1494,
      "Ġbede": 1495,
      "ĠauÃŁer": 1496,
      "ingen": 1497,
      "satz": 1498,
      "Ġheute": 1499,
      "Ġhuman": 1500,
      "Ġmich": 1501,
      "ows": 1502,
      "Ġgovern": 1503,
      "Ġzahl": 1504,
      "Ġseine": 1505,
      "Ġprote": 1506,
      "ior": 1507,
      "Ġarea": 1508,
      "licher": 1509,
      "Ġdevelopment": 1510,
      "Ġopt": 1511,
      "ieden": 1512,
      "Ġsk": 1513,
      "Ġwant": 1514,
      "setz": 1515,
      "isse": 1516,
      "Ġrights": 1517,
      "raft": 1518,
      "Ġihren": 1519,
      "Ġrespon": 1520,
      "Ġtherefore": 1521,
      "Ġest": 1522,
      "Ġfrau": 1523,
      "iness": 1524,
      "ĠmaÃŁ": 1525,
      "Ġdenn": 1526,
      "Ġgra": 1527,
      "Ġplay": 1528,
      "zeich": 1529,
      "10": 1530,
      "Ġsituation": 1531,
      "fach": 1532,
      "Ġcor": 1533,
      "Ġant": 1534,
      "Ġkle": 1535,
      "Ġlar": 1536,
      "Ġstud": 1537,
      "wort": 1538,
      "Ġeconomic": 1539,
      "Ġsocial": 1540,
      "ultur": 1541,
      "Ġunserer": 1542,
      "ision": 1543,
      "Ġinvest": 1544,
      "Ġvoll": 1545,
      "fra": 1546,
      "hang": 1547,
      "aur": 1548,
      "Ġstrateg": 1549,
      "Ġdesign": 1550,
      "Ġdist": 1551,
      "Ġthen": 1552,
      "Ġhelp": 1553,
      "Ġvar": 1554,
      "Ġvorschla": 1555,
      "ough": 1556,
      "chten": 1557,
      "Ġdet": 1558,
      "Ġeigen": 1559,
      "Ġsign": 1560,
      "gesch": 1561,
      "Ġglo": 1562,
      "ict": 1563,
      "read": 1564,
      "Ġcomple": 1565,
      "Ġbek": 1566,
      "tem": 1567,
      "Ġcr": 1568,
      "Ġrem": 1569,
      "Ġjedoch": 1570,
      "Ġplace": 1571,
      "Ġhal": 1572,
      "ler": 1573,
      "Ġlast": 1574,
      "az": 1575,
      "alk": 1576,
      "Ġunternehmen": 1577,
      "itt": 1578,
      "Ġadd": 1579,
      "Ġsur": 1580,
      "ix": 1581,
      "hin": 1582,
      "Ġclear": 1583,
      "Ġhabe": 1584,
      "Ġverfug": 1585,
      "round": 1586,
      "Ġrep": 1587,
      "Ġopp": 1588,
      "elle": 1589,
      "Ġpolitical": 1590,
      "Ġlu": 1591,
      "Ġbro": 1592,
      "Ġ9": 1593,
      "Ġsondern": 1594,
      "Ġneue": 1595,
      "rechen": 1596,
      "fr": 1597,
      "Ġoper": 1598,
      "Ġhol": 1599,
      "gem": 1600,
      "mittel": 1601,
      "Ġtechnolog": 1602,
      "Ġincre": 1603,
      "Ġgemeins": 1604,
      "Ġetw": 1605,
      "Ġnutz": 1606,
      "laub": 1607,
      "Ġservices": 1608,
      "Ġkur": 1609,
      "ade": 1610,
      "Ġverein": 1611,
      "Ġwen": 1612,
      "Ġconcern": 1613,
      "rag": 1614,
      "Ġple": 1615,
      "hol": 1616,
      "Ġdisc": 1617,
      "Ġcontin": 1618,
      "Ġwithin": 1619,
      "Ġcould": 1620,
      "ently": 1621,
      "Ġpossible": 1622,
      "Ġdoes": 1623,
      "Ġsame": 1624,
      "Ġboth": 1625,
      "Ġequ": 1626,
      "Ġbusiness": 1627,
      "iff": 1628,
      "so": 1629,
      "Ġdown": 1630,
      "Ġinternet": 1631,
      "isp": 1632,
      "Ġfree": 1633,
      "Ġohne": 1634,
      "Ġmod": 1635,
      "Ġresult": 1636,
      "ines": 1637,
      "ving": 1638,
      "Ġwebs": 1639,
      "Ġinte": 1640,
      "Ġhist": 1641,
      "oper": 1642,
      "ÃŁen": 1643,
      "Ġ...": 1644,
      "ests": 1645,
      "line": 1646,
      "Ġmittel": 1647,
      "Ġmanag": 1648,
      "Ġvol": 1649,
      "ertain": 1650,
      "Ġnumber": 1651,
      "Ġconst": 1652,
      "Ġhoch": 1653,
      "Ġfil": 1654,
      "Ġoffer": 1655,
      "bo": 1656,
      "ants": 1657,
      "Ġje": 1658,
      "res": 1659,
      "Ġkolle": 1660,
      "Ġbereits": 1661,
      "Ġsozial": 1662,
      "Ġsay": 1663,
      "Ġbel": 1664,
      "ons": 1665,
      "oren": 1666,
      "ope": 1667,
      "Ġfull": 1668,
      "Ġeffect": 1669,
      "under": 1670,
      "gar": 1671,
      "andern": 1672,
      "ruct": 1673,
      "Ġenv": 1674,
      "Ġrev": 1675,
      "Ġsollte": 1676,
      "olitik": 1677,
      "Ġwichtig": 1678,
      "att": 1679,
      "Ġprin": 1680,
      "Ġport": 1681,
      "Ġagreement": 1682,
      "Ġtour": 1683,
      "uer": 1684,
      "Ġrestaur": 1685,
      "Ġfinan": 1686,
      "Ġavail": 1687,
      "Ġta": 1688,
      "ierte": 1689,
      "Ġmuch": 1690,
      "Ġlevel": 1691,
      "Ġagainst": 1692,
      "Ġinn": 1693,
      "bl": 1694,
      "Ġbesonder": 1695,
      "zahl": 1696,
      "sh": 1697,
      "iti": 1698,
      "Ġzwei": 1699,
      "yp": 1700,
      "Ġsw": 1701,
      "Ġletz": 1702,
      "Ġintegr": 1703,
      "Ġnor": 1704,
      "Ġtre": 1705,
      "Ġdiffer": 1706,
      "ende": 1707,
      "Ġdazu": 1708,
      "iver": 1709,
      "kehr": 1710,
      "Ġbef": 1711,
      "Ġandere": 1712,
      "Ġopen": 1713,
      "Ġeuro": 1714,
      "Ġtoday": 1715,
      "Ġsoft": 1716,
      "br": 1717,
      "Ġli": 1718,
      "Ġgest": 1719,
      "wert": 1720,
      "Ġviele": 1721,
      "Ġset": 1722,
      "iron": 1723,
      "alen": 1724,
      "Ġ15": 1725,
      "Ġcommitte": 1726,
      "Ġausge": 1727,
      "Ġused": 1728,
      "Ġerfol": 1729,
      "Ġaller": 1730,
      "bur": 1731,
      "Ġspiel": 1732,
      "kunft": 1733,
      "Ġentwicklung": 1734,
      "Ġwithout": 1735,
      "sel": 1736,
      "licht": 1737,
      "Ġcap": 1738,
      "Ġneuen": 1739,
      "Ġmil": 1740,
      "Ġback": 1741,
      "Ġstill": 1742,
      "lage": 1743,
      "grund": 1744,
      "Ġexper": 1745,
      "Ġstark": 1746,
      "Ġcountry": 1747,
      "Ġbud": 1748,
      "que": 1749,
      "fahren": 1750,
      "Ġcity": 1751,
      "Ġru": 1752,
      "utions": 1753,
      "ÂłÂł": 1754,
      "Ġsollten": 1755,
      "Ġnah": 1756,
      "Ġaccess": 1757,
      "omet": 1758,
      "Ġadv": 1759,
      "ep": 1760,
      "Ġgerman": 1761,
      "ierten": 1762,
      "Ġentsche": 1763,
      "ahn": 1764,
      "ustom": 1765,
      "Ġpoint": 1766,
      "Ġspecial": 1767,
      "Ġentsp": 1768,
      "esent": 1769,
      "ised": 1770,
      "Ġprovid": 1771,
      "fern": 1772,
      "ulation": 1773,
      "anden": 1774,
      "Ġfut": 1775,
      "ivid": 1776,
      "Ġfru": 1777,
      "aren": 1778,
      "Ġfrage": 1779,
      "mog": 1780,
      "ics": 1781,
      "Ġthink": 1782,
      "Ġenviron": 1783,
      "loy": 1784,
      "work": 1785,
      "gel": 1786,
      "Ġdu": 1787,
      "Ġglobal": 1788,
      "Ġmak": 1789,
      "Ġjahren": 1790,
      "hm": 1791,
      "Ġatt": 1792,
      "Ġsince": 1793,
      "Ġamer": 1794,
      "Ġcustom": 1795,
      "Ġens": 1796,
      "Ġfoll": 1797,
      "reichen": 1798,
      "Ġeas": 1799,
      "leg": 1800,
      "Ġable": 1801,
      "hing": 1802,
      "ically": 1803,
      "Ġmeas": 1804,
      "ress": 1805,
      "ĠÂłÂł": 1806,
      "way": 1807,
      "vers": 1808,
      "Ġdoch": 1809,
      "par": 1810,
      "urch": 1811,
      "Ġconsider": 1812,
      "Ġbefore": 1813,
      "Ġwissen": 1814,
      "Ġsicherheit": 1815,
      "Ġche": 1816,
      "Ġhar": 1817,
      "Ġjetzt": 1818,
      "Ġdifferent": 1819,
      "unst": 1820,
      "Ġtreat": 1821,
      "mar": 1822,
      "Ġspec": 1823,
      "Ġcommittee": 1824,
      "Ġ18": 1825,
      "Ġfinden": 1826,
      "Ġburger": 1827,
      "Ġsy": 1828,
      "Ġdank": 1829,
      "zen": 1830,
      "ichte": 1831,
      "Ġduring": 1832,
      "its": 1833,
      "wohl": 1834,
      "Ġamend": 1835,
      "rupp": 1836,
      "Ġverschieden": 1837,
      "Ġdenen": 1838,
      "immt": 1839,
      "Ġenvironment": 1840,
      "Ġbeisp": 1841,
      "ritt": 1842,
      "lagen": 1843,
      "Ġlook": 1844,
      "Ġeinige": 1845,
      "ount": 1846,
      "Ġ12": 1847,
      "Ġpat": 1848,
      "ize": 1849,
      "Ġmor": 1850,
      "Ġstate": 1851,
      "Ġpass": 1852,
      "Ġwaren": 1853,
      "Ġavailable": 1854,
      "iÃŁ": 1855,
      "entral": 1856,
      "Ġpal": 1857,
      "Ġsmall": 1858,
      "ves": 1859,
      "Ġweil": 1860,
      "ife": 1861,
      "Ġhouse": 1862,
      "Ġeinfach": 1863,
      "kon": 1864,
      "Ġnet": 1865,
      "ists": 1866,
      "Ġcurr": 1867,
      "rol": 1868,
      "une": 1869,
      "Ġverw": 1870,
      "Ġdien": 1871,
      "Ġziel": 1872,
      "Ġrequire": 1873,
      "Ġmeine": 1874,
      "Ġproject": 1875,
      "tellt": 1876,
      "zeug": 1877,
      "Ġdata": 1878,
      "ness": 1879,
      "Ġdaten": 1880,
      "Ġposition": 1881,
      "Ġthank": 1882,
      "Ġbank": 1883,
      "Ġdah": 1884,
      "Ġrepr": 1885,
      "Ġref": 1886,
      "Ġwahrend": 1887,
      "nahme": 1888,
      "ache": 1889,
      "Ġscha": 1890,
      "Ġbetr": 1891,
      "air": 1892,
      "Ġsoftware": 1893,
      "unde": 1894,
      "Ġrom": 1895,
      "Ġbietet": 1896,
      "Ġnun": 1897,
      "weit": 1898,
      "Ġredu": 1899,
      "Ġaff": 1900,
      "Ġruss": 1901,
      "ret": 1902,
      "unter": 1903,
      "cing": 1904,
      "Ġmachen": 1905,
      "Ġput": 1906,
      "Ġgas": 1907,
      "org": 1908,
      "Ġfuture": 1909,
      "ready": 1910,
      "ability": 1911,
      "druck": 1912,
      "Ġcal": 1913,
      "Ġallen": 1914,
      "Ġprev": 1915,
      "Ġfollow": 1916,
      "zus": 1917,
      "ond": 1918,
      "okrat": 1919,
      "welt": 1920,
      "alth": 1921,
      "Ġmot": 1922,
      "Ġir": 1923,
      "Ġfurther": 1924,
      "akt": 1925,
      "ience": 1926,
      "Ġalready": 1927,
      "Ġcas": 1928,
      "Ġsecon": 1929,
      "Ġerst": 1930,
      "Ġcann": 1931,
      "angen": 1932,
      "Ġliegt": 1933,
      "ins": 1934,
      "ws": 1935,
      "ahre": 1936,
      "Ġcompet": 1937,
      "Ġtro": 1938,
      "Ġdafur": 1939,
      "ude": 1940,
      "Ġkommiss": 1941,
      "Ġnam": 1942,
      "Ġmir": 1943,
      "Ġbedeut": 1944,
      "str": 1945,
      "Ġlink": 1946,
      "Ġcit": 1947,
      "Ġbelieve": 1948,
      "Ġdarauf": 1949,
      "Ġindivid": 1950,
      "eng": 1951,
      "Ġproducts": 1952,
      "Ġcourse": 1953,
      "press": 1954,
      "ward": 1955,
      "Ġris": 1956,
      "ktur": 1957,
      "Ġday": 1958,
      "ionen": 1959,
      "Ġsecur": 1960,
      "Ġfinancial": 1961,
      "Ġplan": 1962,
      "Ġdemoc": 1963,
      "Ġrooms": 1964,
      "Ġseiner": 1965,
      "Ġmeet": 1966,
      "Ġoffent": 1967,
      "Ġtag": 1968,
      "Ġbeispiel": 1969,
      "fang": 1970,
      "Ġtoo": 1971,
      "Ġquestion": 1972,
      "Ġbin": 1973,
      "ationen": 1974,
      "]]": 1975,
      "Ġwirk": 1976,
      "Ġcertain": 1977,
      "Ġmodern": 1978,
      "jor": 1979,
      "Ġinde": 1980,
      "Ġexamp": 1981,
      "ene": 1982,
      "aften": 1983,
      "Ġeach": 1984,
      "Ġstart": 1985,
      "annt": 1986,
      "Ġprogramm": 1987,
      "Ġstra": 1988,
      "Ġmoglichkeit": 1989,
      "ismus": 1990,
      "ible": 1991,
      "achst": 1992,
      "jo": 1993,
      "Ġsecond": 1994,
      "Ġverl": 1995,
      "inen": 1996,
      "schuss": 1997,
      "Ġwahl": 1998,
      "ante": 1999,
      "Ġstadt": 2000,
      "Ġlage": 2001,
      "Ġtext": 2002,
      "Ġbeit": 2003,
      "Ġpark": 2004,
      "Ġbudget": 2005,
      "Ġach": 2006,
      "Ġregard": 2007,
      "Ġiniti": 2008,
      "Ġpower": 2009,
      "Ġneg": 2010,
      "omen": 2011,
      "imin": 2012,
      "ence": 2013,
      "ilt": 2014,
      "aben": 2015,
      "Ġgeht": 2016,
      "Ġcol": 2017,
      "Ġcase": 2018,
      "pf": 2019,
      "Ġcannot": 2020,
      "ting": 2021,
      "Ġimple": 2022,
      "Ġrahmen": 2023,
      "Ġcommunity": 2024,
      "nisse": 2025,
      "Ġimpro": 2026,
      "uth": 2027,
      "Ġcolle": 2028,
      "Ġstar": 2029,
      "aterial": 2030,
      "Ġbook": 2031,
      "Ġital": 2032,
      "Ġdaher": 2033,
      "Ġmal": 2034,
      "ĠmaÃŁnahmen": 2035,
      "Ġfound": 2036,
      "Ġx": 2037,
      "Ġinformationen": 2038,
      "tend": 2039,
      "Ġoffers": 2040,
      "Ġposit": 2041,
      "Ġforder": 2042,
      "eign": 2043,
      "Ġcitiz": 2044,
      "maÃŁ": 2045,
      "iving": 2046,
      "Ġzuruck": 2047,
      "Ġ0": 2048,
      "Ġquality": 2049,
      "ately": 2050,
      "ucht": 2051,
      "Ġeinge": 2052,
      "Ġmoglich": 2053,
      "por": 2054,
      "Ġterr": 2055,
      "Ġtun": 2056,
      "ased": 2057,
      "olution": 2058,
      "ichten": 2059,
      "sk": 2060,
      "ragen": 2061,
      "red": 2062,
      "Ġ[[": 2063,
      "Ġ&": 2064,
      "Ġkosten": 2065,
      "Ġautom": 2066,
      "Ġcommissioner": 2067,
      "operation": 2068,
      "abei": 2069,
      "Ġapplic": 2070,
      "Ġfort": 2071,
      "Ġbild": 2072,
      "Ġdabei": 2073,
      "ature": 2074,
      "Ġactiv": 2075,
      "Ġherrn": 2076,
      "ters": 2077,
      "Ġsecurity": 2078,
      "ential": 2079,
      "ungsant": 2080,
      "lossen": 2081,
      "Ġchild": 2082,
      "amm": 2083,
      "Ġbal": 2084,
      "Ġret": 2085,
      "recht": 2086,
      "Ġmajor": 2087,
      "Ġlassen": 2088,
      "isierung": 2089,
      "ified": 2090,
      "Ġjahre": 2091,
      "ulture": 2092,
      "Ġrechts": 2093,
      "imes": 2094,
      "200": 2095,
      "Ġcost": 2096,
      "Ġmembers": 2097,
      "Ġsl": 2098,
      "ually": 2099,
      "Ġreas": 2100,
      "Ġtransport": 2101,
      "Ġconv": 2102,
      "Ġzimmer": 2103,
      "ily": 2104,
      "Ġkonnte": 2105,
      "bere": 2106,
      "Ġcommon": 2107,
      "Ġear": 2108,
      "Ġnie": 2109,
      "lex": 2110,
      "Ġtradition": 2111,
      "Ġdisk": 2112,
      "rib": 2113,
      "Ġwhile": 2114,
      "Ġstre": 2115,
      "ning": 2116,
      "Ġhatte": 2117,
      "amer": 2118,
      "Ġid": 2119,
      "Ġask": 2120,
      "ctions": 2121,
      "Ġnotwend": 2122,
      "Ġminut": 2123,
      "Ġstell": 2124,
      "leist": 2125,
      "Ġsaid": 2126,
      "bed": 2127,
      "Ġmult": 2128,
      "ps": 2129,
      "Ġcontrol": 2130,
      "Ġallem": 2131,
      "Ġenergy": 2132,
      "20": 2133,
      "ator": 2134,
      "ogra": 2135,
      "Ġachie": 2136,
      "rache": 2137,
      "Ġzweit": 2138,
      "Ġauthor": 2139,
      "the": 2140,
      "ichter": 2141,
      "Ġmeans": 2142,
      "Ġwind": 2143,
      "Ġissue": 2144,
      "Ġproposal": 2145,
      "Ġexample": 2146,
      "heiten": 2147,
      "Ġkin": 2148,
      "Ġsehen": 2149,
      "Ġ2009": 2150,
      "ob": 2151,
      "Ġabge": 2152,
      "Ġpop": 2153,
      "Ġwollen": 2154,
      "ctor": 2155,
      "raum": 2156,
      "besonder": 2157,
      "Ġnext": 2158,
      "Ġschutz": 2159,
      "Ġobject": 2160,
      "mb": 2161,
      "ways": 2162,
      "esse": 2163,
      "Ġdaruber": 2164,
      "Ġgovernment": 2165,
      "Ġpresent": 2166,
      "Ġdra": 2167,
      "Ġwhy": 2168,
      "isl": 2169,
      "besondere": 2170,
      "mail": 2171,
      "Ġhil": 2172,
      "esen": 2173,
      "Ġhealth": 2174,
      "Ġthree": 2175,
      "Ġunseren": 2176,
      "Ġgesam": 2177,
      "Ġpersonal": 2178,
      "Ġlet": 2179,
      "Ġcitizens": 2180,
      "iter": 2181,
      "reg": 2182,
      "ains": 2183,
      "Ġnecess": 2184,
      "Ġadop": 2185,
      "ffe": 2186,
      "Ġbeim": 2187,
      "ird": 2188,
      "Ġdebate": 2189,
      "Ġcontr": 2190,
      "Ġgeneral": 2191,
      "ized": 2192,
      "Ġkommissar": 2193,
      "gress": 2194,
      "Ġpay": 2195,
      "Ġdeshalb": 2196,
      "other": 2197,
      "Ġcompany": 2198,
      "punkt": 2199,
      "Ġumwelt": 2200,
      "Ġwebsite": 2201,
      "Ġprior": 2202,
      "Ġsal": 2203,
      "Ġinsbesondere": 2204,
      "Ġlaw": 2205,
      "antwort": 2206,
      "Ġgl": 2207,
      "fuhrt": 2208,
      "iben": 2209,
      "Ġabs": 2210,
      "Ġbestimm": 2211,
      "Ġhistor": 2212,
      "Ġreform": 2213,
      "Ġschne": 2214,
      "orte": 2215,
      "ining": 2216,
      "Ġverbess": 2217,
      "Ġinstr": 2218,
      "stellen": 2219,
      "Ġstay": 2220,
      "med": 2221,
      "Ġmatter": 2222,
      "Ġallow": 2223,
      "ĠÂ": 2224,
      "Ġapart": 2225,
      "ktionen": 2226,
      "Ġincluding": 2227,
      "upt": 2228,
      "Ġaddition": 2229,
      "ccess": 2230,
      "Ġinnov": 2231,
      "Ġstehen": 2232,
      "Ġread": 2233,
      "Ġcentre": 2234,
      "eld": 2235,
      "kten": 2236,
      "asser": 2237,
      "gangen": 2238,
      "Ġsum": 2239,
      "mon": 2240,
      "Ġgemeinschaft": 2241,
      "orth": 2242,
      "Ġprogramme": 2243,
      "ders": 2244,
      "Ġcall": 2245,
      "Ġetwas": 2246,
      "Ġfragen": 2247,
      "ught": 2248,
      "Ġfahr": 2249,
      "Ġsan": 2250,
      "Ġdemokrat": 2251,
      "Ġemploy": 2252,
      "Ġinstitution": 2253,
      "full": 2254,
      "erence": 2255,
      "Ġbuild": 2256,
      "spro": 2257,
      "Ġproblems": 2258,
      "Ġsagen": 2259,
      "Ġmad": 2260,
      "Ġtele": 2261,
      "Ġkey": 2262,
      "syste": 2263,
      "cip": 2264,
      "Ġca": 2265,
      "Ġlarge": 2266,
      "Ġzusammenarbeit": 2267,
      "Ġpolitik": 2268,
      "Ġeinzel": 2269,
      "zept": 2270,
      "Ġsing": 2271,
      "Ġlocated": 2272,
      "Ġzukunft": 2273,
      "Ġparlaments": 2274,
      "Ġverg": 2275,
      "Ġmob": 2276,
      "ged": 2277,
      "Ġsystems": 2278,
      "come": 2279,
      "Ġware": 2280,
      "Ġunivers": 2281,
      "ets": 2282,
      "Ġmeasures": 2283,
      "uchen": 2284,
      "Ġhaupt": 2285,
      "abil": 2286,
      "Ġrespect": 2287,
      "ipp": 2288,
      "Ġ30": 2289,
      "jekt": 2290,
      "Ġareas": 2291,
      "Ġgrow": 2292,
      "genommen": 2293,
      "orts": 2294,
      "Ġbasis": 2295,
      "Ġgive": 2296,
      "Ġlife": 2297,
      "ablish": 2298,
      "zw": 2299,
      "ziel": 2300,
      "Ġonline": 2301,
      "Ġrece": 2302,
      "Ġarch": 2303,
      "Ġerfolg": 2304,
      "Ġhotels": 2305,
      "Ġlegisl": 2306,
      "Ġgiven": 2307,
      "Ġfew": 2308,
      "Ġvorschlag": 2309,
      "no": 2310,
      "Ġhome": 2311,
      "asst": 2312,
      "Ġdav": 2313,
      "Ġ/": 2314,
      "bau": 2315,
      "riend": 2316,
      "Ġkurz": 2317,
      "linie": 2318,
      "Ġmaterial": 2319,
      "ï¿": 2320,
      "ï¿½": 2321,
      "opp": 2322,
      "Ġpa": 2323,
      "ef": 2324,
      "arte": 2325,
      "Ġgol": 2326,
      "Ġdiscuss": 2327,
      "ditions": 2328,
      "cken": 2329,
      "Ġmanagement": 2330,
      "Ġlander": 2331,
      "Ġweb": 2332,
      "eder": 2333,
      "ĠgroÃŁe": 2334,
      "Ġensure": 2335,
      "ordnung": 2336,
      "Ġsuccess": 2337,
      "Ġarbeits": 2338,
      "ha": 2339,
      "iten": 2340,
      "Ġcome": 2341,
      "Ġprovide": 2342,
      "Ġdefin": 2343,
      "Ġeinmal": 2344,
      "ruktur": 2345,
      "earch": 2346,
      "Ġdrei": 2347,
      "Ġkunden": 2348,
      "Ġ%": 2349,
      "Ġinstall": 2350,
      "Ġprotection": 2351,
      "Ġsomet": 2352,
      "hip": 2353,
      "Ġtaken": 2354,
      "falls": 2355,
      "Ġimp": 2356,
      "schaften": 2357,
      "Ġerhalten": 2358,
      "Ġnon": 2359,
      "Ġsens": 2360,
      "Ġbor": 2361,
      "Ġmarkt": 2362,
      "Ġzust": 2363,
      "stellung": 2364,
      "Ġanal": 2365,
      "ration": 2366,
      "Ġsite": 2367,
      "Ġlis": 2368,
      "Ġbeach": 2369,
      "Ġestablish": 2370,
      "Ġzie": 2371,
      "Ġgre": 2372,
      "Ġresearch": 2373,
      "Ġstellen": 2374,
      "spr": 2375,
      "Ġbew": 2376,
      "ec": 2377,
      "Ġdef": 2378,
      "Ġdid": 2379,
      "iate": 2380,
      "Ġchange": 2381,
      "Ġcooperation": 2382,
      "ott": 2383,
      "Ġmag": 2384,
      "aum": 2385,
      "Ġaction": 2386,
      "Ġnaturlich": 2387,
      "Ġorig": 2388,
      "Ġlegal": 2389,
      "Ġlab": 2390,
      "ination": 2391,
      "burg": 2392,
      "immung": 2393,
      "ellschaft": 2394,
      "Ġchina": 2395,
      "ether": 2396,
      "Ġersten": 2397,
      "Ġlim": 2398,
      "Ġenjo": 2399,
      "Ġtats": 2400,
      "Ġopport": 2401,
      "Ġgeben": 2402,
      "ande": 2403,
      "Ġihrem": 2404,
      "indet": 2405,
      "Ġpract": 2406,
      "lungs": 2407,
      "Ġopportun": 2408,
      "etzen": 2409,
      "Ġprincip": 2410,
      "Ġverantwort": 2411,
      "Ġbenutz": 2412,
      "ampf": 2413,
      "itaten": 2414,
      "Ġuntersch": 2415,
      "Ġjeder": 2416,
      "legt": 2417,
      "Ġimplement": 2418,
      "assung": 2419,
      "Ġaccord": 2420,
      "ultural": 2421,
      "ried": 2422,
      "Ġwelche": 2423,
      "Ġrestaurant": 2424,
      "Ġtrade": 2425,
      "Ġkm": 2426,
      "igten": 2427,
      "Ġbreak": 2428,
      "Ġkr": 2429,
      "agt": 2430,
      "ules": 2431,
      "pend": 2432,
      "Ġanother": 2433,
      "Ġshall": 2434,
      "Ġwrit": 2435,
      "Ġstatt": 2436,
      "asch": 2437,
      "ĠÐ": 2438,
      "Ġunited": 2439,
      "Ġenter": 2440,
      "icher": 2441,
      "asse": 2442,
      "gemein": 2443,
      "Ġbess": 2444,
      "Ġak": 2445,
      "Ġhope": 2446,
      "Ġlead": 2447,
      "Ġkor": 2448,
      "Ġkomp": 2449,
      "Ġbezug": 2450,
      "ica": 2451,
      "Ġ11": 2452,
      "ross": 2453,
      "Ġerkl": 2454,
      "inge": 2455,
      "setzung": 2456,
      "Ġcho": 2457,
      "ĠgroÃŁen": 2458,
      "Ġheraus": 2459,
      "Ġ25": 2460,
      "Ġvisit": 2461,
      "Ġnecessary": 2462,
      "Ġconsum": 2463,
      "Ġunterstutzung": 2464,
      "vement": 2465,
      "wur": 2466,
      "igkeiten": 2467,
      "Ġrad": 2468,
      "Ġpack": 2469,
      "Ġrele": 2470,
      "Ġteam": 2471,
      "Ġbitte": 2472,
      "Ġaccount": 2473,
      "Ġnamen": 2474,
      "Ġ14": 2475,
      "Ġ|": 2476,
      "po": 2477,
      "alle": 2478,
      "Ġfolgen": 2479,
      "ises": 2480,
      "Ġangeb": 2481,
      "Ġinvol": 2482,
      "Ġvill": 2483,
      "Ġinner": 2484,
      "Ġcomb": 2485,
      "Ġlebens": 2486,
      "fre": 2487,
      "ches": 2488,
      "ĠmuÃŁ": 2489,
      "Ġexce": 2490,
      "Ġpartner": 2491,
      "bereich": 2492,
      "lungen": 2493,
      "Ġbased": 2494,
      "Ġmer": 2495,
      "Ġcomplete": 2496,
      "Ġusing": 2497,
      "wards": 2498,
      "Ġpost": 2499,
      "bewer": 2500,
      "Ġanderungsant": 2501,
      "gehen": 2502,
      "Ġbesteht": 2503,
      "Ġwhether": 2504,
      "Ġmacht": 2505,
      "Ġplease": 2506,
      "spl": 2507,
      "yn": 2508,
      "lau": 2509,
      "iety": 2510,
      "Ġabst": 2511,
      "Ġorigin": 2512,
      "ively": 2513,
      "uter": 2514,
      "Ġdienst": 2515,
      "Ġble": 2516,
      "Ġdial": 2517,
      "ared": 2518,
      "Ġversion": 2519,
      "Ġalways": 2520,
      "Ġtem": 2521,
      "Ġbil": 2522,
      "Ġwish": 2523,
      "Ġenjoy": 2524,
      "Ġgeschaft": 2525,
      "text": 2526,
      "ock": 2527,
      "Ġ16": 2528,
      "fuhrung": 2529,
      "Ġshe": 2530,
      "Ġhapp": 2531,
      "Ġdirective": 2532,
      "Ġconne": 2533,
      "itar": 2534,
      "schein": 2535,
      "Ġrates": 2536,
      "go": 2537,
      "Ġtyp": 2538,
      "markt": 2539,
      "ty": 2540,
      "Ġextre": 2541,
      "Ġterms": 2542,
      "Ġseinen": 2543,
      "by": 2544,
      "Ġsor": 2545,
      "Ġtop": 2546,
      "uge": 2547,
      "Ġlog": 2548,
      "Ġsteht": 2549,
      "Ġtat": 2550,
      "Ġneeds": 2551,
      "Ġmeiner": 2552,
      "wendung": 2553,
      "Ġlandern": 2554,
      "Ġanges": 2555,
      "Ġwater": 2556,
      "Ġbetter": 2557,
      "Ġshow": 2558,
      "Ġreach": 2559,
      "atze": 2560,
      "Ġweitere": 2561,
      "ek": 2562,
      "Ġfriend": 2563,
      "Ġweg": 2564,
      "Ġvote": 2565,
      "sibility": 2566,
      "Ġold": 2567,
      "wirtschaft": 2568,
      "altung": 2569,
      "Ġspan": 2570,
      "Ġbring": 2571,
      "Ġvielen": 2572,
      "Ġqualitat": 2573,
      "Ġminister": 2574,
      "ÃŁe": 2575,
      "ente": 2576,
      "Ġinterest": 2577,
      "Ġfiel": 2578,
      "Ġthird": 2579,
      "Ġenergie": 2580,
      "zo": 2581,
      "Ġtax": 2582,
      "Ġ17": 2583,
      "Ġprivate": 2584,
      "weg": 2585,
      "Ġgewahr": 2586,
      "Ġdort": 2587,
      "zieh": 2588,
      "ko": 2589,
      "Ġentscheid": 2590,
      "Ġstandard": 2591,
      "Ġsuper": 2592,
      "Ġschluss": 2593,
      "ury": 2594,
      "Ġfrei": 2595,
      "Ġtoget": 2596,
      "Ġworking": 2597,
      "Ġgent": 2598,
      "Ġwett": 2599,
      "Ġtogether": 2600,
      "Ġnahe": 2601,
      "arten": 2602,
      "halts": 2603,
      "Ġans": 2604,
      "Ġdirekt": 2605,
      "Ġaround": 2606,
      "Ġwa": 2607,
      "ivil": 2608,
      "Ġletzten": 2609,
      "ising": 2610,
      "zess": 2611,
      "ichterst": 2612,
      "Ġchang": 2613,
      "Ġlea": 2614,
      "Ġless": 2615,
      "ller": 2616,
      "entrum": 2617,
      "Ġnear": 2618,
      "gaben": 2619,
      "Ġkind": 2620,
      "Ġalles": 2621,
      "Ġvi": 2622,
      "Ġchildren": 2623,
      "Ġprofession": 2624,
      "sequ": 2625,
      "Ġkont": 2626,
      "Ġren": 2627,
      "Ġentfern": 2628,
      "Ġkollegen": 2629,
      "ique": 2630,
      "Ġdon": 2631,
      "Ġbeh": 2632,
      "ichts": 2633,
      "Ġshort": 2634,
      "rechte": 2635,
      "tain": 2636,
      "Ġkunst": 2637,
      "enten": 2638,
      "Ġproduction": 2639,
      "Ġlin": 2640,
      "Ġvertrag": 2641,
      "wahl": 2642,
      "Ġ2008": 2643,
      "Ġ2010": 2644,
      "Ġwomen": 2645,
      "Ġdeutsch": 2646,
      "ven": 2647,
      "Ġterror": 2648,
      "Ġfacil": 2649,
      "auer": 2650,
      "achen": 2651,
      "blick": 2652,
      "Ġworden": 2653,
      "Ġprodukt": 2654,
      "haus": 2655,
      "iation": 2656,
      "Ġregierung": 2657,
      "app": 2658,
      "Ġende": 2659,
      "kungen": 2660,
      "ingungen": 2661,
      "less": 2662,
      "pre": 2663,
      "Ġstim": 2664,
      "iod": 2665,
      "ikan": 2666,
      "Ġcurrent": 2667,
      "Ġpage": 2668,
      "ierungs": 2669,
      "elf": 2670,
      "Ġderen": 2671,
      "Ġlad": 2672,
      "undheit": 2673,
      "Ġpress": 2674,
      "Ġ50": 2675,
      "iges": 2676,
      "eten": 2677,
      "Ġcare": 2678,
      "Ġproced": 2679,
      "ca": 2680,
      "Ġprom": 2681,
      "hof": 2682,
      "Ġcentral": 2683,
      "Ġkontro": 2684,
      "Ġcrit": 2685,
      "Ġlocal": 2686,
      "Ġsubject": 2687,
      "Ġarr": 2688,
      "Ġname": 2689,
      "bild": 2690,
      "jahr": 2691,
      "Ġverfugung": 2692,
      "Ġrapp": 2693,
      "Ġvide": 2694,
      "clus": 2695,
      "Ġconditions": 2696,
      "Ġdate": 2697,
      "Ġsele": 2698,
      "Ġbesonders": 2699,
      "Ġident": 2700,
      "Ġhos": 2701,
      "Ġ13": 2702,
      "Ġverk": 2703,
      "ify": 2704,
      "Ġmrs": 2705,
      "Ġindustry": 2706,
      "rist": 2707,
      "Ġinternationalen": 2708,
      "entlich": 2709,
      "Ġergeb": 2710,
      "Ġdom": 2711,
      "Ġparticularly": 2712,
      "Ġhim": 2713,
      "Ġstaff": 2714,
      "atte": 2715,
      "Ġbecome": 2716,
      "ring": 2717,
      "Ġsoc": 2718,
      "Ġbetra": 2719,
      "Ġbedeutung": 2720,
      "Ġfood": 2721,
      "Ġliber": 2722,
      "Ġusa": 2723,
      "Ġseite": 2724,
      "Ġja": 2725,
      "Ġclos": 2726,
      "Ġkinder": 2727,
      "pect": 2728,
      "Ġwin": 2729,
      "Ġmind": 2730,
      "load": 2731,
      "Ġumf": 2732,
      "uments": 2733,
      "Ġbeaut": 2734,
      "Ġsowohl": 2735,
      "pla": 2736,
      "Ġexperience": 2737,
      "Ġonce": 2738,
      "ption": 2739,
      "Ġdiffic": 2740,
      "gestellt": 2741,
      "cially": 2742,
      "Ġtot": 2743,
      "Ġsever": 2744,
      "Ġhervor": 2745,
      "Ġdifficult": 2746,
      "Ġausschuss": 2747,
      "Ġdavon": 2748,
      "Ġwettbewer": 2749,
      "rift": 2750,
      "met": 2751,
      "Ġred": 2752,
      "Ġrun": 2753,
      "fon": 2754,
      "ront": 2755,
      "Ġperform": 2756,
      "Ġfunktion": 2757,
      "Ġdoc": 2758,
      "Ġprot": 2759,
      "tellen": 2760,
      "gabe": 2761,
      "stehen": 2762,
      "room": 2763,
      "Ġsaf": 2764,
      "rif": 2765,
      "Ġermog": 2766,
      "Ġdialog": 2767,
      "Ġregel": 2768,
      "Ġphot": 2769,
      "Ġpartn": 2770,
      "Ġglaub": 2771,
      "Ġrapporte": 2772,
      "tt": 2773,
      "Ġbrauch": 2774,
      "politik": 2775,
      "Ġklar": 2776,
      "Ġlist": 2777,
      "xim": 2778,
      "Ġ24": 2779,
      "Ġexist": 2780,
      "Ġcomfort": 2781,
      "Ġruck": 2782,
      "iar": 2783,
      "Ġcontrib": 2784,
      "Ġaddress": 2785,
      "Ġregul": 2786,
      "Ġevent": 2787,
      "cle": 2788,
      "Ġrules": 2789,
      "Ġprop": 2790,
      "Ġissues": 2791,
      "Ġbeschaft": 2792,
      "Ġstruct": 2793,
      "Ġguar": 2794,
      "ling": 2795,
      "Ġwhole": 2796,
      "Ġsingle": 2797,
      "Ġtown": 2798,
      "Ġspecific": 2799,
      "Ġ100": 2800,
      "Ġbeginn": 2801,
      "tract": 2802,
      "Ġweise": 2803,
      "Ġgegenuber": 2804,
      "Ġsud": 2805,
      "Ð¾": 2806,
      "spru": 2807,
      "Ġlocation": 2808,
      "ites": 2809,
      "Ġespe": 2810,
      "Ġvarious": 2811,
      "Ġbieten": 2812,
      "Ġtar": 2813,
      "Ġfehl": 2814,
      "amt": 2815,
      "Ġberichterst": 2816,
      "schutz": 2817,
      "Ġamong": 2818,
      "Ġrepresent": 2819,
      "ands": 2820,
      "Ġaktiv": 2821,
      "Ġerreichen": 2822,
      "Ġwun": 2823,
      "Ġerforder": 2824,
      "Ġreason": 2825,
      "Ġframe": 2826,
      "sc": 2827,
      "over": 2828,
      "Ġkommen": 2829,
      "Ġcompanies": 2830,
      "Ġthema": 2831,
      "Ġclose": 2832,
      "Ġsouth": 2833,
      "Ġocc": 2834,
      "Ġexpress": 2835,
      "ums": 2836,
      "Ġ2007": 2837,
      "Ġflex": 2838,
      "ural": 2839,
      "Ġdeal": 2840,
      "fast": 2841,
      "Ġmass": 2842,
      "des": 2843,
      "ots": 2844,
      "Ġtas": 2845,
      "Ġbenef": 2846,
      "ser": 2847,
      "Ġrole": 2848,
      "Ġhard": 2849,
      "Ġguarante": 2850,
      "Ġmom": 2851,
      "ody": 2852,
      "ckt": 2853,
      "ika": 2854,
      "rech": 2855,
      "produ": 2856,
      "ols": 2857,
      "Ġlangu": 2858,
      "ino": 2859,
      "Ġautomat": 2860,
      "Ġcheck": 2861,
      "rieden": 2862,
      "vo": 2863,
      "Ġfrauen": 2864,
      "Ġespecially": 2865,
      "Ġzwar": 2866,
      "Ġinnerhalb": 2867,
      "Ġprobleme": 2868,
      "vour": 2869,
      "ategor": 2870,
      "Ġspeak": 2871,
      "Ġfollowing": 2872,
      "komm": 2873,
      "ennt": 2874,
      "lemen": 2875,
      "fah": 2876,
      "ikel": 2877,
      "Ġcamp": 2878,
      "Ġaim": 2879,
      "finden": 2880,
      "mos": 2881,
      "Ġturke": 2882,
      "Ġwelcome": 2883,
      "Ġsector": 2884,
      "Ġeigenen": 2885,
      "Ġdoub": 2886,
      "mark": 2887,
      "ĠschlieÃŁ": 2888,
      "ehen": 2889,
      "ints": 2890,
      "Ġpolitischen": 2891,
      "Ġvertre": 2892,
      "lock": 2893,
      "Ġve": 2894,
      "Ġresolution": 2895,
      "arch": 2896,
      "ength": 2897,
      "Ġunt": 2898,
      "Ġbefindet": 2899,
      "50": 2900,
      "Ġdan": 2901,
      "Ġreally": 2902,
      "isches": 2903,
      "llent": 2904,
      "werk": 2905,
      "Ġwes": 2906,
      "aÃŁ": 2907,
      "wa": 2908,
      "isions": 2909,
      "ober": 2910,
      "Ġneu": 2911,
      "Ġseveral": 2912,
      "Ġdemocrat": 2913,
      "Ġcommit": 2914,
      "Ġvertra": 2915,
      "ding": 2916,
      "wh": 2917,
      "ash": 2918,
      "oney": 2919,
      "bet": 2920,
      "dings": 2921,
      "Ġwirklich": 2922,
      "Ġperiod": 2923,
      "Ġfamily": 2924,
      "thing": 2925,
      "Ġoptim": 2926,
      "Ġmann": 2927,
      "tag": 2928,
      "imate": 2929,
      "Ġmonth": 2930,
      "Ġcreate": 2931,
      "Ġwohl": 2932,
      "ritte": 2933,
      "Ġseiten": 2934,
      "Ġzusatz": 2935,
      "Ġgenau": 2936,
      "chan": 2937,
      "Ġorganis": 2938,
      "fte": 2939,
      "Ġlux": 2940,
      "bt": 2941,
      "racht": 2942,
      "aster": 2943,
      "Ġdone": 2944,
      "Ġbrit": 2945,
      "Ġgeh": 2946,
      "Ġallgemein": 2947,
      "riften": 2948,
      "Ġtreaty": 2949,
      "Ġforsch": 2950,
      "ived": 2951,
      "Ġaid": 2952,
      "Ġmochten": 2953,
      "Ġstaaten": 2954,
      "Ġstrong": 2955,
      "feren": 2956,
      "ift": 2957,
      "ably": 2958,
      "Ġunterstutzen": 2959,
      "Ġmillion": 2960,
      "ima": 2961,
      "ization": 2962,
      "30": 2963,
      "Ġverschiedenen": 2964,
      "Ġclass": 2965,
      "Ġdecision": 2966,
      "Ġaccept": 2967,
      "Ġyet": 2968,
      "Ġlau": 2969,
      "Ġpeace": 2970,
      "vol": 2971,
      "Ġnever": 2972,
      "ety": 2973,
      "Ġnegot": 2974,
      "Ġol": 2975,
      "Ġentfernt": 2976,
      "Ġresour": 2977,
      "itution": 2978,
      "reif": 2979,
      "ifiz": 2980,
      "Ġline": 2981,
      "Ġelect": 2982,
      "Ġverbrauch": 2983,
      "Ġerweit": 2984,
      "Ġprogress": 2985,
      "Ġgesundheit": 2986,
      "chs": 2987,
      "ktor": 2988,
      "ances": 2989,
      "ival": 2990,
      "19": 2991,
      "Ġsolid": 2992,
      "Ġess": 2993,
      "Ġzugang": 2994,
      "Ġexcellent": 2995,
      "iere": 2996,
      "oten": 2997,
      "Ġcommunic": 2998,
      "Ġtest": 2999,
      "Ġcontact": 3000,
      "fuhren": 3001,
      "Ġrelations": 3002,
      "na": 3003,
      "Ġort": 3004,
      "Ġberichterstatter": 3005,
      "Ġerste": 3006,
      "Ġsport": 3007,
      "Ġsea": 3008,
      "Ġapproach": 3009,
      "Ġstor": 3010,
      "Ġ:": 3011,
      "ograph": 3012,
      "Ġsomething": 3013,
      "rage": 3014,
      "iew": 3015,
      "Ġadmin": 3016,
      "Ġkonnten": 3017,
      "Ġrolle": 3018,
      "of": 3019,
      "Ġpersonen": 3020,
      "ides": 3021,
      "Ġhig": 3022,
      "Ġgesetz": 3023,
      "Ġverst": 3024,
      "icient": 3025,
      "ichtet": 3026,
      "Ġfour": 3027,
      "spolitik": 3028,
      "wart": 3029,
      "Ġfast": 3030,
      "Ġindustr": 3031,
      "ugen": 3032,
      "asing": 3033,
      "eter": 3034,
      "Ġschnell": 3035,
      "Ġindividual": 3036,
      "\".": 3037,
      "Ġdig": 3038,
      "Ġdetail": 3039,
      "Ġintro": 3040,
      "Ġfavour": 3041,
      "zip": 3042,
      "Ġextrem": 3043,
      "indung": 3044,
      "Ġtechnology": 3045,
      "Ġfrank": 3046,
      "Ġfuhren": 3047,
      "Ġarg": 3048,
      "Ġmaking": 3049,
      "weisen": 3050,
      "Ġdue": 3051,
      "Ġbehand": 3052,
      "let": 3053,
      "\",": 3054,
      "enzen": 3055,
      "liegen": 3056,
      "Ġhinter": 3057,
      "Ġgelegen": 3058,
      "Ġisra": 3059,
      "Ġpartners": 3060,
      "iner": 3061,
      "Ġdest": 3062,
      "Ġturn": 3063,
      "Ġsett": 3064,
      "Ġverpf": 3065,
      "Ġlat": 3066,
      "Ġjan": 3067,
      "fect": 3068,
      "wohn": 3069,
      "Ġausdruck": 3070,
      "Ġregional": 3071,
      "Ġitself": 3072,
      "mat": 3073,
      "Ġkrit": 3074,
      "duc": 3075,
      "ordin": 3076,
      "Ġwalk": 3077,
      "Ġminutes": 3078,
      "Ġlight": 3079,
      "Ġcontinue": 3080,
      "Ġfruh": 3081,
      "Ġstandards": 3082,
      "allen": 3083,
      "Ġkre": 3084,
      "neh": 3085,
      "Ġneben": 3086,
      "Ġbra": 3087,
      "Ġfr": 3088,
      "ension": 3089,
      "ux": 3090,
      "Ġladies": 3091,
      "Ġintrodu": 3092,
      "ifft": 3093,
      "Ġfer": 3094,
      "Ġrapporteur": 3095,
      "Ġgermany": 3096,
      "'t": 3097,
      "Ġoften": 3098,
      "Ġorganisation": 3099,
      "Ġallerdings": 3100,
      "Ġschwier": 3101,
      "Ġparticip": 3102,
      "Ġuntil": 3103,
      "Ġideal": 3104,
      "ruppe": 3105,
      "ittle": 3106,
      "Ġsafety": 3107,
      "sprache": 3108,
      "isis": 3109,
      "tember": 3110,
      "Ġarm": 3111,
      "zeichnet": 3112,
      "ove": 3113,
      "cel": 3114,
      "Ġbill": 3115,
      "Ġmess": 3116,
      "Ġrichtlinie": 3117,
      "ians": 3118,
      "ĠauÃŁerdem": 3119,
      "Ġprice": 3120,
      "Ġvier": 3121,
      "Ġunterschied": 3122,
      "schriften": 3123,
      "Ġhinaus": 3124,
      "Ġnorth": 3125,
      "Ġmoment": 3126,
      "rop": 3127,
      "Ġfundament": 3128,
      "Ġabsol": 3129,
      "wand": 3130,
      "Ġbig": 3131,
      "Ġgoing": 3132,
      "Ġpreis": 3133,
      "Ġbreakfast": 3134,
      "Ġaccording": 3135,
      "Ġleast": 3136,
      "Ġuhr": 3137,
      "Ġmoney": 3138,
      "Ġnutzen": 3139,
      "Ġern": 3140,
      "Ġgentlemen": 3141,
      "Ġberlin": 3142,
      "Ġunderstand": 3143,
      "seit": 3144,
      "Ġoffen": 3145,
      "Ġaway": 3146,
      "bei": 3147,
      "Ġbuch": 3148,
      "Ġserious": 3149,
      "Ġlittle": 3150,
      "Ġfeel": 3151,
      "Ġnu": 3152,
      "lands": 3153,
      "Ġopin": 3154,
      "ksam": 3155,
      "ification": 3156,
      "Ġamendments": 3157,
      "Ġframework": 3158,
      "Ġmid": 3159,
      "Ġbetre": 3160,
      "gleich": 3161,
      "Ġrefer": 3162,
      "Ġfair": 3163,
      "Ġgeschafts": 3164,
      "ined": 3165,
      "Ġgrowth": 3166,
      "Ġeduc": 3167,
      "ios": 3168,
      "iations": 3169,
      "Ġpan": 3170,
      "Ġhaving": 3171,
      "Ġdays": 3172,
      "Ġhead": 3173,
      "Ġcrisis": 3174,
      "Ġeig": 3175,
      "fehl": 3176,
      "Ġhatten": 3177,
      "Ġpap": 3178,
      "zeitig": 3179,
      "Ġgesellschaft": 3180,
      "atives": 3181,
      "Ġerg": 3182,
      "Ġwider": 3183,
      "Ġmuse": 3184,
      "Ġagric": 3185,
      "Ġartic": 3186,
      "Ðµ": 3187,
      "urn": 3188,
      "lass": 3189,
      "Ġflo": 3190,
      "Ġforward": 3191,
      "Ġthings": 3192,
      "row": 3193,
      "Ġgerade": 3194,
      "Ġcop": 3195,
      "Ġgaste": 3196,
      "Ġaltern": 3197,
      "Ġwest": 3198,
      "Ġwert": 3199,
      "zimmer": 3200,
      "Ġ2000": 3201,
      "Ġec": 3202,
      "Ġrange": 3203,
      "Ġhohe": 3204,
      "iken": 3205,
      "leistungen": 3206,
      "Ð¸": 3207,
      "Ġinstitutions": 3208,
      "Ġtowards": 3209,
      "Ġgute": 3210,
      "Ġque": 3211,
      "teilung": 3212,
      "Ġisrael": 3213,
      "Ġkomple": 3214,
      "Ġrather": 3215,
      "ars": 3216,
      "Ġnight": 3217,
      "Ġinitiative": 3218,
      "telle": 3219,
      "yl": 3220,
      "leit": 3221,
      "ierungen": 3222,
      "Ġrecog": 3223,
      "Ġintegration": 3224,
      "Ġetc": 3225,
      "Ġfunction": 3226,
      "Ġcustomers": 3227,
      "Ġpot": 3228,
      "nehmer": 3229,
      "han": 3230,
      "Ġmeinung": 3231,
      "Ġbestehen": 3232,
      "Ġgefahr": 3233,
      "Ġzusammenhang": 3234,
      "icial": 3235,
      "voll": 3236,
      "stuck": 3237,
      "Ġged": 3238,
      "though": 3239,
      "Ġberu": 3240,
      "Ġtry": 3241,
      "Ġrela": 3242,
      "Ġcontent": 3243,
      "Ġparty": 3244,
      "Ġkeep": 3245,
      "ype": 3246,
      "Ġwesent": 3247,
      "ichen": 3248,
      "Ġmean": 3249,
      "Ġabsch": 3250,
      "kre": 3251,
      "Ġamb": 3252,
      "aps": 3253,
      "Ġ198": 3254,
      "Ġadminist": 3255,
      "Ġkommt": 3256,
      "ality": 3257,
      "istic": 3258,
      "erstell": 3259,
      "Ð°": 3260,
      "Ġstation": 3261,
      "Ġtimes": 3262,
      "Ġkultur": 3263,
      "Ġpur": 3264,
      "Ġmention": 3265,
      "Ġmount": 3266,
      "Ġfisch": 3267,
      "zogen": 3268,
      "Ġindem": 3269,
      "11": 3270,
      "itor": 3271,
      "Ġquite": 3272,
      "Ġerho": 3273,
      "atch": 3274,
      "Ġhor": 3275,
      "griff": 3276,
      "hil": 3277,
      "Ġaufge": 3278,
      "weis": 3279,
      "liches": 3280,
      "Ġalthough": 3281,
      "Ġleft": 3282,
      "Ġbeiden": 3283,
      "Ġnord": 3284,
      "Ġjeden": 3285,
      "thers": 3286,
      "Ġweltweit": 3287,
      "Ġunserem": 3288,
      "Ġabgeord": 3289,
      "Ġnehmen": 3290,
      "Ġeasy": 3291,
      "pru": 3292,
      "Ġpresiden": 3293,
      "ativen": 3294,
      "ww": 3295,
      "Ġstrategy": 3296,
      "ĠentschlieÃŁ": 3297,
      "atten": 3298,
      "Ġrepub": 3299,
      "Ġbau": 3300,
      "Ġgef": 3301,
      "Ġce": 3302,
      "bereit": 3303,
      "ost": 3304,
      "Ġmadam": 3305,
      "bon": 3306,
      "Ġwasser": 3307,
      "Ġentsprechen": 3308,
      "reit": 3309,
      "Ġnov": 3310,
      "ison": 3311,
      "Ġled": 3312,
      "Ġcla": 3313,
      "Ġcreat": 3314,
      "Ġhilfe": 3315,
      "Ġartikel": 3316,
      "Ġincrease": 3317,
      "stadt": 3318,
      "Ġvia": 3319,
      "lik": 3320,
      "erk": 3321,
      "Ġverhand": 3322,
      "Ġlive": 3323,
      "sweise": 3324,
      "Ġactivities": 3325,
      "Ġcomputer": 3326,
      "ruppen": 3327,
      "Ġgemeinsamen": 3328,
      "Ġreserv": 3329,
      "baren": 3330,
      "Ġalong": 3331,
      "atis": 3332,
      "Ġjul": 3333,
      "Ġbekannt": 3334,
      "Ġagree": 3335,
      "iesen": 3336,
      "Ġresources": 3337,
      "Ġfoc": 3338,
      "Ġholid": 3339,
      "Ġaufgrund": 3340,
      "plan": 3341,
      "Ġbegru": 3342,
      "ex": 3343,
      "Ġdaran": 3344,
      "Ġvolk": 3345,
      "idence": 3346,
      "Ġopportunity": 3347,
      "Ġpast": 3348,
      "Ġdownload": 3349,
      "Ġuser": 3350,
      "bru": 3351,
      "Ġetwa": 3352,
      "Ġzun": 3353,
      "leicht": 3354,
      "Ġsep": 3355,
      "Ġvir": 3356,
      "Ġ2006": 3357,
      "program": 3358,
      "Ġbehal": 3359,
      "spe": 3360,
      "Ġschul": 3361,
      "Ġjung": 3362,
      "Ġalt": 3363,
      "Ġmusic": 3364,
      "Ġfreed": 3365,
      "Ġseem": 3366,
      "onen": 3367,
      "Ġstellt": 3368,
      "Ġkonz": 3369,
      "mu": 3370,
      "Ġroad": 3371,
      "ieten": 3372,
      "Ġabove": 3373,
      "Ġpositive": 3374,
      "Ġweniger": 3375,
      "Ġbringen": 3376,
      "Ġprovided": 3377,
      "ana": 3378,
      "Ġkap": 3379,
      "Ġsubs": 3380,
      "Ġeinges": 3381,
      "Ġfully": 3382,
      "Ġerfahr": 3383,
      "Ġlosung": 3384,
      "Ġdev": 3385,
      "Ġforeign": 3386,
      "ief": 3387,
      "Ġleist": 3388,
      "stra": 3389,
      "weil": 3390,
      "Ġsuff": 3391,
      "Ġarbeiten": 3392,
      "Ġbeautif": 3393,
      "Ġhinsicht": 3394,
      "verb": 3395,
      "Ġraum": 3396,
      "Ġsimp": 3397,
      "Ġbzw": 3398,
      "dien": 3399,
      "Ġfern": 3400,
      "Ġvalue": 3401,
      "Ġweek": 3402,
      "bour": 3403,
      "most": 3404,
      "Ġbetrie": 3405,
      "forderungen": 3406,
      "Ġsogar": 3407,
      "ton": 3408,
      "Ġaustr": 3409,
      "icken": 3410,
      "frage": 3411,
      "Ġpresidency": 3412,
      "Ġpunkt": 3413,
      "Ġdesc": 3414,
      "Ġmight": 3415,
      "Ġentscheiden": 3416,
      "bank": 3417,
      "Ġassoc": 3418,
      "Ġuk": 3419,
      "Ġbad": 3420,
      "annten": 3421,
      "Ġprasidentin": 3422,
      "fugen": 3423,
      "Ġbath": 3424,
      "Ġint": 3425,
      "Ġfield": 3426,
      "letz": 3427,
      "Ġatmos": 3428,
      "Ġprojekt": 3429,
      "Ġfinally": 3430,
      "Ġjap": 3431,
      "Ġtraining": 3432,
      "za": 3433,
      "Ġgilt": 3434,
      "uellen": 3435,
      "uring": 3436,
      "Ġregulation": 3437,
      "cher": 3438,
      "Ġheart": 3439,
      "Ġsignific": 3440,
      "Ġebenfalls": 3441,
      "Ġinfl": 3442,
      "Ġfreedom": 3443,
      "Ġeconomy": 3444,
      "Ġbehalf": 3445,
      "Ġmoder": 3446,
      "falt": 3447,
      "achlich": 3448,
      "Ġsolution": 3449,
      "Ġsociety": 3450,
      "racy": 3451,
      "Ġsubst": 3452,
      "12": 3453,
      "Ġverkehr": 3454,
      "reiche": 3455,
      "Ġviol": 3456,
      "rank": 3457,
      "Ġinclude": 3458,
      "ommend": 3459,
      "Ġhaushalts": 3460,
      "abhang": 3461,
      "fs": 3462,
      "lichkeiten": 3463,
      "ba": 3464,
      "hod": 3465,
      "Ġentsch": 3466,
      "Ġgesagt": 3467,
      "roffen": 3468,
      "Ġnetwork": 3469,
      "Ġnamlich": 3470,
      "Ġcir": 3471,
      "Ġcenter": 3472,
      "Ġsend": 3473,
      "uche": 3474,
      "Ġkons": 3475,
      "Ġairport": 3476,
      "ames": 3477,
      "Ġbla": 3478,
      "Ġdarin": 3479,
      "Ġtaking": 3480,
      "Ġinteress": 3481,
      "Â®": 3482,
      "Ġrecommend": 3483,
      "vention": 3484,
      "Ġothers": 3485,
      "stoff": 3486,
      "Ġderzeit": 3487,
      "volk": 3488,
      "Ġpun": 3489,
      "Ġnichts": 3490,
      "Ġbuilding": 3491,
      "Ġessential": 3492,
      "Ġprodukte": 3493,
      "einander": 3494,
      "Ġapplication": 3495,
      "side": 3496,
      "ception": 3497,
      "Ġbit": 3498,
      "Ġwindows": 3499,
      "utet": 3500,
      "Ġproposals": 3501,
      "fo": 3502,
      "ucksicht": 3503,
      "Ġeuropas": 3504,
      "berg": 3505,
      "Ġdistrib": 3506,
      "Ġsound": 3507,
      "ona": 3508,
      "Ġscho": 3509,
      "gew": 3510,
      "Ġsolidar": 3511,
      "Ġperfect": 3512,
      "Ġyoung": 3513,
      "Ġchrist": 3514,
      "Ġgehen": 3515,
      "hunder": 3516,
      "leben": 3517,
      "Ġmiss": 3518,
      "Ġihm": 3519,
      "ban": 3520,
      "platz": 3521,
      "Ġenc": 3522,
      "ops": 3523,
      "ennen": 3524,
      "Ġremain": 3525,
      "Ġschwer": 3526,
      "self": 3527,
      "Ġfocus": 3528,
      "Ġfundamental": 3529,
      "Ġstabil": 3530,
      "uten": 3531,
      "Ġseptember": 3532,
      "Ġrechte": 3533,
      "airs": 3534,
      "bahn": 3535,
      "wendet": 3536,
      "Ġcosts": 3537,
      "Ġihn": 3538,
      "Ġmeeting": 3539,
      "Ġpolitische": 3540,
      "Ġvielleicht": 3541,
      "Ġvergangen": 3542,
      "Ġsure": 3543,
      "Ġsimply": 3544,
      "ote": 3545,
      "fully": 3546,
      "Ġcard": 3547,
      "Ġanst": 3548,
      "ured": 3549,
      "Ġ)": 3550,
      "Ġharmon": 3551,
      "Ġles": 3552,
      "Ġstad": 3553,
      "Ġberucksicht": 3554,
      "Ġimm": 3555,
      "anst": 3556,
      "Ġann": 3557,
      "Ġju": 3558,
      "Ġdarf": 3559,
      "Ġfilm": 3560,
      "Ġcover": 3561,
      "date": 3562,
      "Ġ21": 3563,
      "Ġpoints": 3564,
      "Ġbesser": 3565,
      "Ġstrength": 3566,
      "Ġcharac": 3567,
      "Ġtotal": 3568,
      "Ġatmosph": 3569,
      "Ġweiterhin": 3570,
      "Ġmeisten": 3571,
      "verkehr": 3572,
      "Ġgeld": 3573,
      "Ġverbunden": 3574,
      "Ġdessen": 3575,
      "Ġjapan": 3576,
      "Ġdeliver": 3577,
      "Ġsour": 3578,
      "Ġguest": 3579,
      "Ġubern": 3580,
      "Ġnatural": 3581,
      "Ġclub": 3582,
      "Ġjahres": 3583,
      "Ġfordern": 3584,
      "Ġthus": 3585,
      "Ġbi": 3586,
      "ĠgroÃŁer": 3587,
      "Ġed": 3588,
      "Ġinstrument": 3589,
      "Ġadopted": 3590,
      "Ġbetrifft": 3591,
      "Ġtv": 3592,
      "Ġfot": 3593,
      "lauf": 3594,
      "word": 3595,
      "Ġbeautiful": 3596,
      "Ġoppos": 3597,
      "Ġtable": 3598,
      "Ġmakes": 3599,
      "Ġamendment": 3600,
      "Ġseinem": 3601,
      "bare": 3602,
      "Ġentire": 3603,
      "Ġguests": 3604,
      "alten": 3605,
      "cal": 3606,
      "Ġmut": 3607,
      "Ġopinion": 3608,
      "pekt": 3609,
      "Ġschrift": 3610,
      "Ġgemacht": 3611,
      "Ġinfr": 3612,
      "Ġkar": 3613,
      "Ġfraktion": 3614,
      "Ġschlussel": 3615,
      "Ġflug": 3616,
      "Ġlear": 3617,
      "Ġquestions": 3618,
      "Ġunterstutzt": 3619,
      "Ġdruck": 3620,
      "Ġsil": 3621,
      "lei": 3622,
      "Ġwirtschafts": 3623,
      "Ġfortsch": 3624,
      "Ġprojects": 3625,
      "ĠauÃŁen": 3626,
      "Ġlegislation": 3627,
      "ferenz": 3628,
      "Ġextra": 3629,
      "Ġtrotz": 3630,
      "Ġresults": 3631,
      "Ġlater": 3632,
      "Ġcalled": 3633,
      "Ġforderung": 3634,
      "Ġclean": 3635,
      "Ġrisk": 3636,
      "Ġrelax": 3637,
      "Ġenvironmental": 3638,
      "Ġ40": 3639,
      "Ġdeutschland": 3640,
      "Ġattention": 3641,
      "Ġmechan": 3642,
      "Ġbeteil": 3643,
      "Ġinternal": 3644,
      "Ġmethod": 3645,
      "Ġvideo": 3646,
      "Ġgroups": 3647,
      "atures": 3648,
      "Ġdisco": 3649,
      "Ġcivil": 3650,
      "Ġgere": 3651,
      "Ġprovides": 3652,
      "nete": 3653,
      "Ġschl": 3654,
      "Ġglaube": 3655,
      "ka": 3656,
      "Ġresponsibility": 3657,
      "Ġgleichzeitig": 3658,
      "ledge": 3659,
      "erst": 3660,
      "Ġpolicies": 3661,
      "Ġfis": 3662,
      "reicht": 3663,
      "Ġdok": 3664,
      "ested": 3665,
      "iers": 3666,
      "Ġlinks": 3667,
      "Ġnationalen": 3668,
      "Ġstep": 3669,
      "iled": 3670,
      "Ġindustrie": 3671,
      "Ġitalien": 3672,
      "Ġcourt": 3673,
      "Ġsolche": 3674,
      "Ġgarant": 3675,
      "Ġcapital": 3676,
      "gebung": 3677,
      "Ġschaffen": 3678,
      "Ġemployment": 3679,
      "Ġentwicklungs": 3680,
      "Ġunver": 3681,
      "system": 3682,
      "Ġclearly": 3683,
      "ont": 3684,
      "Ġanim": 3685,
      "prochen": 3686,
      "Ġrei": 3687,
      "ira": 3688,
      "Ġmeer": 3689,
      "ruction": 3690,
      "Ġoffentlichen": 3691,
      "Ġcontinu": 3692,
      "Ġreturn": 3693,
      "Ġkos": 3694,
      "Ġgreater": 3695,
      "Ġtru": 3696,
      "Ġconcerned": 3697,
      "Ġindeed": 3698,
      "Ġevents": 3699,
      "Ġtranspar": 3700,
      "ĠweiÃŁ": 3701,
      "Ġira": 3702,
      "Ġtechnical": 3703,
      "Ġeinigen": 3704,
      "Ġassist": 3705,
      "Ġebenso": 3706,
      "Ġappropr": 3707,
      "Ġdurfen": 3708,
      "Ġeffective": 3709,
      "Ġgreen": 3710,
      "Ġhy": 3711,
      "oting": 3712,
      "Ġkommun": 3713,
      "Ġnews": 3714,
      "ada": 3715,
      "Ġsollen": 3716,
      "Ġjanu": 3717,
      "Ġmillionen": 3718,
      "Ġ2005": 3719,
      "ape": 3720,
      "ufact": 3721,
      "Ġfacilities": 3722,
      "sa": 3723,
      "Ġerk": 3724,
      "Ġsolutions": 3725,
      "Ġnature": 3726,
      "lig": 3727,
      "Ġjahrhunder": 3728,
      "ented": 3729,
      "Ġhistory": 3730,
      "rach": 3731,
      "ators": 3732,
      "âĤ": 3733,
      "Ġlange": 3734,
      "Ġpf": 3735,
      "ished": 3736,
      "Ġtalk": 3737,
      "âĤ¬": 3738,
      "Ġsitz": 3739,
      "Ġshare": 3740,
      "Ġcode": 3741,
      "Ġrestaurants": 3742,
      "Ġhostel": 3743,
      "Ġknown": 3744,
      "Ġquick": 3745,
      "Ġerne": 3746,
      "Ġimportance": 3747,
      "Ġbrauchen": 3748,
      "gegen": 3749,
      "Ġwohn": 3750,
      "ij": 3751,
      "Ġverbraucher": 3752,
      "Ġmic": 3753,
      "Ġeth": 3754,
      "rieben": 3755,
      "Ġcontext": 3756,
      "Ġremo": 3757,
      "Ġwachst": 3758,
      "Ġauswir": 3759,
      "schlieÃŁlich": 3760,
      "Ġmanufact": 3761,
      "achten": 3762,
      "Ġunabhang": 3763,
      "Ġsituated": 3764,
      "ican": 3765,
      "ustain": 3766,
      "Ġsty": 3767,
      "aden": 3768,
      "mitted": 3769,
      "Ġdigital": 3770,
      "Ġhandelt": 3771,
      "Ġrelig": 3772,
      "Ġkeinen": 3773,
      "ÑĤ": 3774,
      "Ġmedia": 3775,
      "gal": 3776,
      "itions": 3777,
      "ript": 3778,
      "Ġdre": 3779,
      "Ġoft": 3780,
      "Ġlot": 3781,
      "Ġdemon": 3782,
      "Ġstruktur": 3783,
      "staat": 3784,
      "Ġbesten": 3785,
      "Ġnote": 3786,
      "Ġcultural": 3787,
      "Ġkolleg": 3788,
      "uelle": 3789,
      "Ġaussprache": 3790,
      "zustellen": 3791,
      "Ġchallen": 3792,
      "Ġincreasing": 3793,
      "Ġlow": 3794,
      "Ġfish": 3795,
      "Ġclick": 3796,
      "Ġbezieh": 3797,
      "Ġbesuch": 3798,
      "ements": 3799,
      "rimin": 3800,
      "ips": 3801,
      "anze": 3802,
      "Ġprec": 3803,
      "ients": 3804,
      "inst": 3805,
      "Ġapr": 3806,
      "istan": 3807,
      "Ġprocedure": 3808,
      "Ġcurrently": 3809,
      "Ġschwe": 3810,
      "Ġtit": 3811,
      "Ġbevor": 3812,
      "rieg": 3813,
      "Ġuberw": 3814,
      "Ġrecent": 3815,
      "Ġmaxim": 3816,
      "Ġrecord": 3817,
      "ather": 3818,
      "Ġwords": 3819,
      "neten": 3820,
      "Ġwahlen": 3821,
      "do": 3822,
      "Ġsei": 3823,
      "Ġlanguage": 3824,
      "esten": 3825,
      "Ġfront": 3826,
      "haltung": 3827,
      "Ġprinciple": 3828,
      "Ġfunds": 3829,
      "Ñģ": 3830,
      "Ġserver": 3831,
      "techn": 3832,
      "Ġfunf": 3833,
      "Ġoriginal": 3834,
      "uren": 3835,
      "ato": 3836,
      "Ġforce": 3837,
      "Ġdemand": 3838,
      "Ġconference": 3839,
      "Ġviews": 3840,
      "Ġside": 3841,
      "hren": 3842,
      "cen": 3843,
      "lag": 3844,
      "Ġsignificant": 3845,
      "eits": 3846,
      "Ġsug": 3847,
      "Ġebene": 3848,
      "unehmen": 3849,
      "Ġwenig": 3850,
      "Ġmusik": 3851,
      "Ġluft": 3852,
      "Ġrequired": 3853,
      "Ġzunachst": 3854,
      "Ġzustand": 3855,
      "Ġober": 3856,
      "Ġeducation": 3857,
      "Ġ2004": 3858,
      "ziehen": 3859,
      "hotel": 3860,
      "orted": 3861,
      "reifen": 3862,
      "Ġsafe": 3863,
      "ufen": 3864,
      "Ġtravel": 3865,
      "Ġminim": 3866,
      "Ġoffice": 3867,
      "Ġelekt": 3868,
      "fil": 3869,
      "Ġord": 3870,
      "Ġobwohl": 3871,
      "Ġbenot": 3872,
      "Ġpool": 3873,
      "cent": 3874,
      "Ġbedeutet": 3875,
      "isiert": 3876,
      "Ġbemu": 3877,
      "Ġplatz": 3878,
      "bel": 3879,
      "itive": 3880,
      "Ġauthorities": 3881,
      "hib": 3882,
      "setzen": 3883,
      "Ġprakt": 3884,
      "Ġii": 3885,
      "Ġdeutlich": 3886,
      "anger": 3887,
      "atul": 3888,
      "Ġrund": 3889,
      "Ġwichtige": 3890,
      "Ġgegeben": 3891,
      "Ġjun": 3892,
      "Ġfarm": 3893,
      "ule": 3894,
      "Ġprofessional": 3895,
      "atal": 3896,
      "Ġmitarbeit": 3897,
      "Ġ23": 3898,
      "Ġstaat": 3899,
      "Ġsustain": 3900,
      "Ġstock": 3901,
      "Ġabstimmung": 3902,
      "Ġgemeinsame": 3903,
      "Ġmun": 3904,
      "ette": 3905,
      "Ġoption": 3906,
      "Ġvorh": 3907,
      "Ġklima": 3908,
      "Ġflexib": 3909,
      "Ġprotect": 3910,
      "Ġregions": 3911,
      "Ġbevolk": 3912,
      "Ġupon": 3913,
      "best": 3914,
      "asent": 3915,
      "ided": 3916,
      "''": 3917,
      "mals": 3918,
      "Ġcompetition": 3919,
      "mp": 3920,
      "Ġaspect": 3921,
      "Ġexch": 3922,
      "hlen": 3923,
      "Ġdemocracy": 3924,
      "Ġliberal": 3925,
      "Ġmonitor": 3926,
      "Ġpages": 3927,
      "ims": 3928,
      "genda": 3929,
      "Ġcontain": 3930,
      "Ġdarum": 3931,
      "Ġlas": 3932,
      "Ġachieve": 3933,
      "Ġcentury": 3934,
      "Ġmicro": 3935,
      "sehen": 3936,
      "Ġther": 3937,
      "Ġsun": 3938,
      "Ġbeispielsweise": 3939,
      "val": 3940,
      "Ġdirectly": 3941,
      "Ġcy": 3942,
      "ony": 3943,
      "standen": 3944,
      "Ġvorgesch": 3945,
      "Ġwissenschaft": 3946,
      "Ġwegen": 3947,
      "ases": 3948,
      "verstand": 3949,
      "Ġnachsten": 3950,
      "Ġparties": 3951,
      "Ġspace": 3952,
      "Ġresponsible": 3953,
      "Ġnieder": 3954,
      "Ġappear": 3955,
      "jen": 3956,
      "Ġrequirements": 3957,
      "Ġportug": 3958,
      "Ġfindet": 3959,
      "Ġeverything": 3960,
      "Ġparte": 3961,
      "Ġille": 3962,
      "gesetzt": 3963,
      "ane": 3964,
      "oph": 3965,
      "Ġenough": 3966,
      "Ġlonger": 3967,
      "Ġcharacter": 3968,
      "horden": 3969,
      "angt": 3970,
      "60": 3971,
      "Ġmonths": 3972,
      "Ġdemokratie": 3973,
      "Ġmenschenrechte": 3974,
      "Ġdeter": 3975,
      "ativ": 3976,
      "Ġprevent": 3977,
      "Ġfight": 3978,
      "Ġverfahren": 3979,
      "Ġumsetzung": 3980,
      "iste": 3981,
      "Ġproposed": 3982,
      "gelegt": 3983,
      "Ġrichtung": 3984,
      "Ð½": 3985,
      "Ġwal": 3986,
      "play": 3987,
      "Ġnovember": 3988,
      "gency": 3989,
      "ffung": 3990,
      "Ġhon": 3991,
      "Ġitem": 3992,
      "Ġwettbewerbs": 3993,
      "elves": 3994,
      "Ġdrit": 3995,
      "Ġihres": 3996,
      "Ġgewahrle": 3997,
      "immen": 3998,
      "stellt": 3999,
      "Ġinvestment": 4000,
      "Ġansicht": 4001,
      "Ġinterests": 4002,
      "Ġkraft": 4003,
      "heb": 4004,
      "Ġcustomer": 4005,
      "Ġarticle": 4006,
      "ones": 4007,
      "deut": 4008,
      "fluss": 4009,
      "Ġapply": 4010,
      "Ġpet": 4011,
      "teilen": 4012,
      "Ġimplementation": 4013,
      "Ġtw": 4014,
      "Ġseen": 4015,
      "Ġwort": 4016,
      "Ġwerde": 4017,
      "Ġpict": 4018,
      "utzt": 4019,
      "Ġjede": 4020,
      "bil": 4021,
      "Ġang": 4022,
      "Ġdemocratic": 4023,
      "lling": 4024,
      "Ġhinzu": 4025,
      "Ġherren": 4026,
      "Ġenterpr": 4027,
      "Ġrecogn": 4028,
      "heim": 4029,
      "ano": 4030,
      "Ġrequest": 4031,
      "mbh": 4032,
      "Ġgarden": 4033,
      "richtung": 4034,
      "frist": 4035,
      "umente": 4036,
      "Ġboard": 4037,
      "horen": 4038,
      "Ġsom": 4039,
      "Ġjedes": 4040,
      "ither": 4041,
      "Ġkleinen": 4042,
      "Ġparis": 4043,
      "rict": 4044,
      "ables": 4045,
      "Ġfile": 4046,
      "Ġguarantee": 4047,
      "ama": 4048,
      "bu": 4049,
      "Ġconsequ": 4050,
      "Ġfinal": 4051,
      "Ġsepar": 4052,
      "Ġapril": 4053,
      "lar": 4054,
      "ĠschlieÃŁlich": 4055,
      "Ġprep": 4056,
      "organ": 4057,
      "Ġinternationale": 4058,
      "Ġthems": 4059,
      "Ġinvolved": 4060,
      "Ġextremely": 4061,
      "Ġcorre": 4062,
      "istischen": 4063,
      "die": 4064,
      "Ġweiteren": 4065,
      "Ġchanges": 4066,
      "Ġthemselves": 4067,
      "Ġdyn": 4068,
      "Ġschritt": 4069,
      "fordert": 4070,
      "Ġ22": 4071,
      "Ġafric": 4072,
      "Ġtal": 4073,
      "Ġverantwortung": 4074,
      "Ġerziel": 4075,
      "Ġthough": 4076,
      "Ġnotwendig": 4077,
      "Ġbedingungen": 4078,
      "ellen": 4079,
      "Ġaud": 4080,
      "Ġjud": 4081,
      "Ġclimate": 4082,
      "agement": 4083,
      "Ġhappen": 4084,
      "Ġneeded": 4085,
      "Ġgmbh": 4086,
      "Ġsoon": 4087,
      "Ġaffairs": 4088,
      "Ġanwendung": 4089,
      "rench": 4090,
      "Ġnice": 4091,
      "Ġefforts": 4092,
      "Ġtages": 4093,
      "dam": 4094,
      "Ġeinsatz": 4095,
      "alitat": 4096,
      "ingt": 4097,
      "teile": 4098,
      "Ġcomfortable": 4099,
      "Ġiran": 4100,
      "cke": 4101,
      "Ġvoted": 4102,
      "hnen": 4103,
      "Ġhoffe": 4104,
      "Ġequip": 4105,
      "Ġhohen": 4106,
      "iting": 4107,
      "Ġsprechen": 4108,
      "Ġmode": 4109,
      "omp": 4110,
      "Ġliegen": 4111,
      "Ġentscheidung": 4112,
      "Ġnormal": 4113,
      "ship": 4114,
      "Ġrein": 4115,
      "linien": 4116,
      "ieg": 4117,
      "acy": 4118,
      "Ġaug": 4119,
      "Ġgebiet": 4120,
      "haft": 4121,
      "Ġjeweil": 4122,
      "Ġeither": 4123,
      "Ġ197": 4124,
      "Ġsn": 4125,
      "mann": 4126,
      "Ġgegenwart": 4127,
      "Ġziele": 4128,
      "Ġmarkets": 4129,
      "Ġaufmer": 4130,
      "Ġadditional": 4131,
      "Ġdocument": 4132,
      "Ġkop": 4133,
      "unch": 4134,
      "Ġvorschlage": 4135,
      "Ġfranz": 4136,
      "lander": 4137,
      "Ġsurround": 4138,
      "Ġinteresse": 4139,
      "Ġgehort": 4140,
      "lied": 4141,
      "Ġhalten": 4142,
      "Ġexpect": 4143,
      "Ġregist": 4144,
      "Ġago": 4145,
      "Ġtransl": 4146,
      "Ġholiday": 4147,
      "cies": 4148,
      "Ġbooking": 4149,
      "Ġcaus": 4150,
      "arf": 4151,
      "Ġsozialen": 4152,
      "Ġprices": 4153,
      "Ġconsult": 4154,
      "Ġcross": 4155,
      "Ġunters": 4156,
      "Ġgolf": 4157,
      "ommod": 4158,
      "Ġprevious": 4159,
      "Ġgrundlage": 4160,
      "Ġchance": 4161,
      "Ġten": 4162,
      "Ġdeveloped": 4163,
      "Ġakzept": 4164,
      "kur": 4165,
      "Ġoblig": 4166,
      "Ġbisher": 4167,
      "Ġphil": 4168,
      "Ġausgest": 4169,
      "reib": 4170,
      "Ġagenda": 4171,
      "Ġliving": 4172,
      "Ġgame": 4173,
      "Ġvollstand": 4174,
      "Ġverwendet": 4175,
      "Ġverschiedene": 4176,
      "Ġenthalten": 4177,
      "itionen": 4178,
      "Ġmilit": 4179,
      "Ġstatus": 4180,
      "Ġfallen": 4181,
      "Ġexpert": 4182,
      "irm": 4183,
      "Ġanalys": 4184,
      "Ġalmost": 4185,
      "Ġlib": 4186,
      "Ġ2003": 4187,
      "Ġcut": 4188,
      "schlag": 4189,
      "atory": 4190,
      "Ġculture": 4191,
      "Ġaccommod": 4192,
      "Ġsen": 4193,
      "vert": 4194,
      "Ġtrue": 4195,
      "Ġfeatures": 4196,
      "Ġeinzelnen": 4197,
      "Ġprem": 4198,
      "Ġnegotiations": 4199,
      "Ġfrieden": 4200,
      "Ġverander": 4201,
      "atic": 4202,
      "ĠheiÃŁ": 4203,
      "Ġlandwirtschaft": 4204,
      "Ġempfehl": 4205,
      "Ġmaintain": 4206,
      "Ġinfrast": 4207,
      "Ġangelegen": 4208,
      "Ġnetz": 4209,
      "Ġdeveloping": 4210,
      "igungs": 4211,
      "Ġcases": 4212,
      "Ġengine": 4213,
      "Ġcontract": 4214,
      "Ġeast": 4215,
      "Ġerreicht": 4216,
      "Ġthanks": 4217,
      "Ġcommunication": 4218,
      "uell": 4219,
      "-,": 4220,
      "wurd": 4221,
      "Ġpropert": 4222,
      "Ġlack": 4223,
      "Ġgeschichte": 4224,
      "Ġrussia": 4225,
      "Ġschein": 4226,
      "jekte": 4227,
      "hes": 4228,
      "Ġfamilien": 4229,
      "Ġfriendly": 4230,
      "Ġbon": 4231,
      "Ġofficial": 4232,
      "affen": 4233,
      "auft": 4234,
      "Ġreihe": 4235,
      "hem": 4236,
      "Ġtype": 4237,
      "Ġindic": 4238,
      "Ġrot": 4239,
      "Ġgemeinsam": 4240,
      "Ġanw": 4241,
      "Ġcomes": 4242,
      "ired": 4243,
      "teilt": 4244,
      "Ġgewalt": 4245,
      "uses": 4246,
      "nitt": 4247,
      "Ġground": 4248,
      "tended": 4249,
      "Ġveroff": 4250,
      "ÑĢ": 4251,
      "Ġfrance": 4252,
      "andid": 4253,
      "Ġblock": 4254,
      "Ġmoglichkeiten": 4255,
      "Ġjour": 4256,
      "Ġgran": 4257,
      "Ġunique": 4258,
      "va": 4259,
      "landern": 4260,
      "Ġrate": 4261,
      "Ġwide": 4262,
      "Ġknowledge": 4263,
      "Ġzentral": 4264,
      "Ġlok": 4265,
      "vere": 4266,
      "arbeitung": 4267,
      "Ġut": 4268,
      "Ġham": 4269,
      "Ġimmed": 4270,
      "ense": 4271,
      "Ġeffe": 4272,
      "Ġjoint": 4273,
      "Ġcreated": 4274,
      "Ġleider": 4275,
      "Ġincluded": 4276,
      "Ġblick": 4277,
      "Ġapartments": 4278,
      "Ġexport": 4279,
      "Ġneues": 4280,
      "Ġcirc": 4281,
      "Ġfrench": 4282,
      "hend": 4283,
      "Ġbesitz": 4284,
      "Ġaufmerksam": 4285,
      "Ġconvention": 4286,
      "Ġcast": 4287,
      "Ġwinter": 4288,
      "Ġexpl": 4289,
      "bildung": 4290,
      "Ġpotential": 4291,
      "Ġill": 4292,
      "Ġdivers": 4293,
      "ley": 4294,
      "Ġfreund": 4295,
      "Ġdim": 4296,
      "Ġfit": 4297,
      "vant": 4298,
      "Ġisland": 4299,
      "Ġtransfer": 4300,
      "Ġgenie": 4301,
      "Ġerklar": 4302,
      "Ġdebatte": 4303,
      "Ġvict": 4304,
      "ommer": 4305,
      "Ġgab": 4306,
      "Ġmobil": 4307,
      "Ġactually": 4308,
      "Ġdamen": 4309,
      "ipped": 4310,
      "fert": 4311,
      "Ġbund": 4312,
      "Ġdemonstr": 4313,
      "Ġprim": 4314,
      "Ġrechn": 4315,
      "Ġarbeitspl": 4316,
      "lauben": 4317,
      "Ġimprove": 4318,
      "Ġdepend": 4319,
      "Ġlooking": 4320,
      "attet": 4321,
      "ental": 4322,
      "Ġanfang": 4323,
      "Ġ60": 4324,
      "zeigt": 4325,
      "Ġbleiben": 4326,
      "ering": 4327,
      "Ġnachhalt": 4328,
      "13": 4329,
      "Ġanerk": 4330,
      "Ġsearch": 4331,
      "Ġattra": 4332,
      "Ġfail": 4333,
      "Ġdetails": 4334,
      "Ġfive": 4335,
      "gu": 4336,
      "erseits": 4337,
      "Ġfalls": 4338,
      "Ġvorgeschlagen": 4339,
      "Ġzahlen": 4340,
      "Ġsicherheits": 4341,
      "Ġintens": 4342,
      "Ġalter": 4343,
      "Ġhinblick": 4344,
      "Ġimage": 4345,
      "fel": 4346,
      "Ġherz": 4347,
      "Ġverfugt": 4348,
      "Ġmotor": 4349,
      "Ġgal": 4350,
      "ĠâĤ¬": 4351,
      "Ġpak": 4352,
      "Ġdad": 4353,
      "Ġkir": 4354,
      "Ġmensch": 4355,
      "Ġfruhstuck": 4356,
      "Ġearly": 4357,
      "wegen": 4358,
      "Ġminuten": 4359,
      "Ġermoglicht": 4360,
      "oss": 4361,
      "Ġlandes": 4362,
      "Ġklein": 4363,
      "Ġterrit": 4364,
      "Ġheld": 4365,
      "utes": 4366,
      "Ġthroughout": 4367,
      "Ġvereinbar": 4368,
      "Ġuberein": 4369,
      "Ġprozess": 4370,
      "Ġidea": 4371,
      "Ġusers": 4372,
      "verfahren": 4373,
      "arbeiten": 4374,
      "Ġsubsid": 4375,
      "Ġperformance": 4376,
      "fragen": 4377,
      "Ġworkers": 4378,
      "ĠâĢĺ": 4379,
      "Ġhandels": 4380,
      "Ġcru": 4381,
      "eur": 4382,
      "Ġemph": 4383,
      "istet": 4384,
      "emp": 4385,
      "Ġerr": 4386,
      "Ġzentrum": 4387,
      "Ġmodel": 4388,
      "Ġdut": 4389,
      "Ġexclus": 4390,
      "agen": 4391,
      "haps": 4392,
      "Ġdesigned": 4393,
      "iffen": 4394,
      "Ġzeigt": 4395,
      "Ġmand": 4396,
      "Ġoutside": 4397,
      "eless": 4398,
      "Ġkil": 4399,
      "ights": 4400,
      "Ġdiskuss": 4401,
      "igte": 4402,
      "Ġcertainly": 4403,
      "Ġencour": 4404,
      "bre": 4405,
      "Ġverfol": 4406,
      "Ġinstitutionen": 4407,
      "Ġeffiz": 4408,
      "Ġfal": 4409,
      "Ġreceive": 4410,
      "sprasident": 4411,
      "Ġchem": 4412,
      "Ġerforderlich": 4413,
      "Ġauswirkungen": 4414,
      "nehm": 4415,
      "Ġara": 4416,
      "soft": 4417,
      "di": 4418,
      "dle": 4419,
      "Ġworks": 4420,
      "cer": 4421,
      "Ġtatsachlich": 4422,
      "Ġbinnen": 4423,
      "Ġadopt": 4424,
      "Ġvan": 4425,
      "ube": 4426,
      "Ġacross": 4427,
      "Ġpublish": 4428,
      "lang": 4429,
      "anten": 4430,
      "schluss": 4431,
      "Ġdro": 4432,
      "Ġlond": 4433,
      "Ġwunder": 4434,
      "Ġsem": 4435,
      "Ġergebnis": 4436,
      "Ġuberpru": 4437,
      "Ġanzu": 4438,
      "Ġsteuer": 4439,
      "Ġappropriate": 4440,
      "Ġanderungsantrag": 4441,
      "rar": 4442,
      "Ġrea": 4443,
      "Ġdienstleistungen": 4444,
      "Ġfuhrt": 4445,
      "Ġstreet": 4446,
      "serv": 4447,
      "Ġcommer": 4448,
      "chter": 4449,
      "Ġterm": 4450,
      "Ġenthalt": 4451,
      "Ġrail": 4452,
      "oking": 4453,
      "Ġapartment": 4454,
      "Ġforschung": 4455,
      "Ġperhaps": 4456,
      "jenigen": 4457,
      "Ġstrategie": 4458,
      "gesehen": 4459,
      "15": 4460,
      "ying": 4461,
      "ielle": 4462,
      "Ġmig": 4463,
      "Ġgesamten": 4464,
      "usst": 4465,
      "Ġauswahl": 4466,
      "old": 4467,
      "Ġtatsache": 4468,
      "Ġlag": 4469,
      "Ġrefle": 4470,
      "Ġdraw": 4471,
      "Ġfamous": 4472,
      "Ġpopular": 4473,
      "Ġentde": 4474,
      "Ġinnovation": 4475,
      "Ġdynam": 4476,
      "Ġwirtschaftlichen": 4477,
      "Ġsicht": 4478,
      "Ġkontakt": 4479,
      "Ġkern": 4480,
      "hinder": 4481,
      "spiel": 4482,
      "Ġprofit": 4483,
      "Ġsorgen": 4484,
      "iance": 4485,
      "icherheit": 4486,
      "Ġbasic": 4487,
      "Ġthing": 4488,
      "Ġstaats": 4489,
      "Ġangesichts": 4490,
      "achsen": 4491,
      "Ġindustrial": 4492,
      "Ġmuseum": 4493,
      "Ġregionen": 4494,
      "Ġpromo": 4495,
      "Ġhandel": 4496,
      "Ġcredit": 4497,
      "entwick": 4498,
      "lies": 4499,
      "Ġ27": 4500,
      "Ġsuggest": 4501,
      "Ġnothing": 4502,
      "li": 4503,
      "Ġmem": 4504,
      "igur": 4505,
      "Ġsetzen": 4506,
      "ilar": 4507,
      "Ġtraditional": 4508,
      "Ġdadurch": 4509,
      "Ġinsp": 4510,
      "Ġka": 4511,
      "Ġconcept": 4512,
      "Ġabgeordneten": 4513,
      "Ġparts": 4514,
      "hung": 4515,
      "orf": 4516,
      "Ġimpact": 4517,
      "Ġanswer": 4518,
      "Ġanspru": 4519,
      "ball": 4520,
      "buch": 4521,
      "mitteln": 4522,
      "iellen": 4523,
      "ester": 4524,
      "Ġfach": 4525,
      "Ġveranst": 4526,
      "Ġamerican": 4527,
      "Ġenglish": 4528,
      "Ġentwickelt": 4529,
      "Ġdanken": 4530,
      "atisf": 4531,
      "Ġmajority": 4532,
      "Ġkolleginnen": 4533,
      "ologie": 4534,
      "Ġwarm": 4535,
      "Ġrich": 4536,
      "Ġherstell": 4537,
      "afen": 4538,
      "Ġsau": 4539,
      "stead": 4540,
      "Ġzudem": 4541,
      "Ġsag": 4542,
      "anced": 4543,
      "Ġhours": 4544,
      "Ġlondon": 4545,
      "ternal": 4546,
      "vis": 4547,
      "Ġdoing": 4548,
      "ump": 4549,
      "Ġexchange": 4550,
      "auss": 4551,
      "Ġangenommen": 4552,
      "ampfung": 4553,
      "Ġdiv": 4554,
      "Ġwarum": 4555,
      "mor": 4556,
      "ilities": 4557,
      "Ġanaly": 4558,
      "Ġmu": 4559,
      "Ġmorgen": 4560,
      "Ġschle": 4561,
      "Ġtool": 4562,
      "Ġspielen": 4563,
      "Ġsex": 4564,
      "Ġexec": 4565,
      "vent": 4566,
      "Ġschool": 4567,
      "Ġburg": 4568,
      "Ġcomplex": 4569,
      "Ġconcerning": 4570,
      "Ġvern": 4571,
      "ging": 4572,
      "Ġjedem": 4573,
      "Ġpu": 4574,
      "Ġstrengthen": 4575,
      "Ġdenke": 4576,
      "aking": 4577,
      "Ġbroad": 4578,
      "Ġubr": 4579,
      "Ġmitglieder": 4580,
      "Ġgrundsatz": 4581,
      "Ġgesp": 4582,
      "Ġbuilt": 4583,
      "Ġtakes": 4584,
      "oun": 4585,
      "barkeit": 4586,
      "Ġface": 4587,
      "Ġenable": 4588,
      "Ġdesp": 4589,
      "Ġemphas": 4590,
      "Ġq": 4591,
      "ceed": 4592,
      "Ġhalf": 4593,
      "rechts": 4594,
      "Ġgast": 4595,
      "fahigkeit": 4596,
      "isieren": 4597,
      "Ġcoll": 4598,
      "Ġdouble": 4599,
      "iele": 4600,
      "Ġkomfort": 4601,
      "Ġconstitution": 4602,
      "fassung": 4603,
      "Ġcolleag": 4604,
      "Ġproper": 4605,
      "Ġtex": 4606,
      "Ġban": 4607,
      "rachen": 4608,
      "Ġdiscover": 4609,
      "Ġterra": 4610,
      "Ġantwort": 4611,
      "Ġresol": 4612,
      "Ġkleine": 4613,
      "arm": 4614,
      "Ġmovement": 4615,
      "Ġanderungsantrage": 4616,
      "Ġseries": 4617,
      "bus": 4618,
      "reiben": 4619,
      "clear": 4620,
      "Ġenlar": 4621,
      "Ġzweif": 4622,
      "Ġprogrammes": 4623,
      "Ġvereinigten": 4624,
      "Ġtreffen": 4625,
      "Ġbereichen": 4626,
      "Ġverhandlungen": 4627,
      "Ġsand": 4628,
      "Ġaugust": 4629,
      "Ġconnection": 4630,
      "Ġregarding": 4631,
      "grenz": 4632,
      "Ġmang": 4633,
      "face": 4634,
      "ery": 4635,
      "Ġbefinden": 4636,
      "iews": 4637,
      "ou": 4638,
      "Ġwall": 4639,
      "Ġ000": 4640,
      "Ġbul": 4641,
      "Ġbody": 4642,
      "Ġextens": 4643,
      "Ġdokument": 4644,
      "Ġtarget": 4645,
      "Ġinstead": 4646,
      "zer": 4647,
      "Ġsinn": 4648,
      "Ġjobs": 4649,
      "Ġmilitary": 4650,
      "Ġ*": 4651,
      "Ġmilitar": 4652,
      "oid": 4653,
      "Ġexisting": 4654,
      "abel": 4655,
      "Ġurspr": 4656,
      "aging": 4657,
      "ork": 4658,
      "Ġsyn": 4659,
      "Ġumfassen": 4660,
      "aufen": 4661,
      "Ġproz": 4662,
      "Ġabsolute": 4663,
      "Ġstop": 4664,
      "Ġwerk": 4665,
      "Ġjob": 4666,
      "Ġhoher": 4667,
      "Ġ80": 4668,
      "Ġgerne": 4669,
      "Ġverd": 4670,
      "wal": 4671,
      "ico": 4672,
      "Ġtook": 4673,
      "Ġhinsichtlich": 4674,
      "Ġ2002": 4675,
      "Ġspir": 4676,
      "Ġganze": 4677,
      "ja": 4678,
      "Ġsqu": 4679,
      "Ġfranzos": 4680,
      "Ġerzeug": 4681,
      "Ġkam": 4682,
      "Ġassess": 4683,
      "Ġfeder": 4684,
      "Ġspezie": 4685,
      "Ġamount": 4686,
      "Ġsix": 4687,
      "afte": 4688,
      "Ġconcerns": 4689,
      "asc": 4690,
      "Ġbeziehungen": 4691,
      "Ġleading": 4692,
      "dom": 4693,
      "Ġequipment": 4694,
      "Ġreich": 4695,
      "ĠheiÃŁt": 4696,
      "Ġemer": 4697,
      "Ġmehrere": 4698,
      "Ġwriting": 4699,
      "Ġpractice": 4700,
      "ille": 4701,
      "Ġbevolkerung": 4702,
      "sitz": 4703,
      "Ġturkey": 4704,
      "Ġscient": 4705,
      "Ġagreements": 4706,
      "Ġspa": 4707,
      "Ġdecisions": 4708,
      "Ġanb": 4709,
      "pack": 4710,
      "Ġconflic": 4711,
      "ausch": 4712,
      "una": 4713,
      "Ġcompletely": 4714,
      "Ġhelfen": 4715,
      "Ġobjective": 4716,
      "Ġabkommen": 4717,
      "Ġkampf": 4718,
      "Ġunseres": 4719,
      "teid": 4720,
      "Ġprivat": 4721,
      "Ġamerica": 4722,
      "Ġpen": 4723,
      "erei": 4724,
      "Ġsimple": 4725,
      "Ġsimilar": 4726,
      "Ġpackage": 4727,
      "uted": 4728,
      "Ġemail": 4729,
      "Ġtor": 4730,
      "Ġamerikan": 4731,
      "anzen": 4732,
      "rane": 4733,
      "Ġdep": 4734,
      "halte": 4735,
      "ini": 4736,
      "aring": 4737,
      "ences": 4738,
      "Ġganzen": 4739,
      "Ġinteressen": 4740,
      "Ġking": 4741,
      "da": 4742,
      "Ġpc": 4743,
      "Ġangem": 4744,
      "formen": 4745,
      "Ġthemen": 4746,
      "Ġpurch": 4747,
      "Ġmentioned": 4748,
      "Ġflugh": 4749,
      "Ġlay": 4750,
      "Ġanti": 4751,
      "Ġpopulation": 4752,
      "alu": 4753,
      "Ġwestern": 4754,
      "Ġregister": 4755,
      "Ġbelow": 4756,
      "Ġmeinen": 4757,
      "Ġok": 4758,
      "Ġster": 4759,
      "Ġschla": 4760,
      "Ġ2001": 4761,
      "Ġzug": 4762,
      "Ġreasons": 4763,
      "Ġeffekt": 4764,
      "fortun": 4765,
      "Ġrelated": 4766,
      "term": 4767,
      "Ġsomit": 4768,
      "Ġeveryone": 4769,
      "artet": 4770,
      "Ġincludes": 4771,
      "Ġchoice": 4772,
      "Ġbeitrag": 4773,
      "Ġapplications": 4774,
      "Ġaufgabe": 4775,
      "uste": 4776,
      "richtungen": 4777,
      "ological": 4778,
      "Ġtick": 4779,
      "Ġruh": 4780,
      "Ġstrand": 4781,
      "ires": 4782,
      "Ġaware": 4783,
      "cks": 4784,
      "Ġlearn": 4785,
      "Ġtim": 4786,
      "Ð¾Ð": 4787,
      "Ġhaushalt": 4788,
      "bor": 4789,
      "zif": 4790,
      "Ġfiles": 4791,
      "licherweise": 4792,
      "Ġwonder": 4793,
      "ara": 4794,
      "Ġerinn": 4795,
      "Ġliste": 4796,
      "Ġrule": 4797,
      "more": 4798,
      "inner": 4799,
      "Ġverm": 4800,
      "Ġplann": 4801,
      "Ġturkei": 4802,
      "Ġtrain": 4803,
      "pted": 4804,
      "Ġgelten": 4805,
      "Ġimpos": 4806,
      "Ġunfortun": 4807,
      "Ġkontrolle": 4808,
      "see": 4809,
      "Ġmobile": 4810,
      "Ġmeines": 4811,
      "Ġself": 4812,
      "arbeitet": 4813,
      "Ġverpflicht": 4814,
      "Ġba": 4815,
      "frei": 4816,
      "Ġinstallation": 4817,
      "Ġactive": 4818,
      "Ġgestellt": 4819,
      "opa": 4820,
      "Ġmove": 4821,
      "Ġage": 4822,
      "Ġep": 4823,
      "Ġbarcel": 4824,
      "Ġattack": 4825,
      "Ġkonst": 4826,
      "Ġrecently": 4827,
      "Ġpoor": 4828,
      "Ġconsumer": 4829,
      "Ġwichtigen": 4830,
      "bedingungen": 4831,
      "amera": 4832,
      "Ġaugen": 4833,
      "geschlossen": 4834,
      "Ġukra": 4835,
      "Ġernst": 4836,
      "Ġdeleg": 4837,
      "Ġchoose": 4838,
      "Ġvolks": 4839,
      "Ġabend": 4840,
      "Ġagricultural": 4841,
      "Ġverbindung": 4842,
      "Ġadvant": 4843,
      "Ġerschein": 4844,
      "Ġindepend": 4845,
      "Ġallows": 4846,
      "Ġenor": 4847,
      "clud": 4848,
      "Ġunge": 4849,
      "Ġost": 4850,
      "Ġumfang": 4851,
      "Ġexternal": 4852,
      "sv": 4853,
      "Ġphys": 4854,
      "Ġbleibt": 4855,
      "gl": 4856,
      "Ġjustice": 4857,
      "Ġword": 4858,
      "Ġconclus": 4859,
      "Ġerweiterung": 4860,
      "Ġvergleich": 4861,
      "Ġvalues": 4862,
      "Ġinformations": 4863,
      "Ġgrand": 4864,
      "Ġobjectives": 4865,
      "fallen": 4866,
      "Ġspeed": 4867,
      "Ġski": 4868,
      "Ġreports": 4869,
      "nissen": 4870,
      "Ġcongr": 4871,
      "fonds": 4872,
      "quis": 4873,
      "Ġspend": 4874,
      "Ġbecom": 4875,
      "Ġspezial": 4876,
      "Ġacht": 4877,
      "Ġalternative": 4878,
      "Ġpain": 4879,
      "Ġelement": 4880,
      "utt": 4881,
      "Ġbestat": 4882,
      "Ġestablished": 4883,
      "yr": 4884,
      "Ġfehler": 4885,
      "Ġtermin": 4886,
      "ĠfuÃŁ": 4887,
      "Ġrichtig": 4888,
      "Ġcapac": 4889,
      "Ġps": 4890,
      "Ġgestimmt": 4891,
      "ology": 4892,
      "lant": 4893,
      "Ġhost": 4894,
      "Ġ$": 4895,
      "Ġsatisf": 4896,
      "ume": 4897,
      "Ġgoods": 4898,
      "forderung": 4899,
      "gene": 4900,
      "mitglie": 4901,
      "Ġpassen": 4902,
      "Ġfebru": 4903,
      "Ġausschusses": 4904,
      "Ġbekommen": 4905,
      "ias": 4906,
      "Ġkeyword": 4907,
      "zunehmen": 4908,
      "indust": 4909,
      "worten": 4910,
      "aupt": 4911,
      ".,": 4912,
      "Ġblack": 4913,
      "zeugen": 4914,
      "Ġkla": 4915,
      "Ġreceived": 4916,
      "Ġfire": 4917,
      "Ġ1999": 4918,
      "Ġspater": 4919,
      "Ġ-,": 4920,
      "Ġnutzung": 4921,
      "Ġverteid": 4922,
      "Ġdraft": 4923,
      "Ġpleas": 4924,
      "ush": 4925,
      "Ġverordnung": 4926,
      "minister": 4927,
      "gro": 4928,
      "Ġandern": 4929,
      "Ġliefer": 4930,
      "ĠentschlieÃŁung": 4931,
      "Ġfle": 4932,
      "fahrt": 4933,
      "Ġahn": 4934,
      "Ġmiddle": 4935,
      "Ġaussch": 4936,
      "Ġmail": 4937,
      "Ġstability": 4938,
      "Ġerhalt": 4939,
      "abon": 4940,
      "Ġhighl": 4941,
      "annte": 4942,
      "Ġoil": 4943,
      "iated": 4944,
      "auen": 4945,
      "Ġslow": 4946,
      "Ġspac": 4947,
      "Ġfisher": 4948,
      "ipl": 4949,
      "Ġhauf": 4950,
      "asion": 4951,
      "ovo": 4952,
      "Ġexhib": 4953,
      "Ġlic": 4954,
      "Ġgree": 4955,
      "Ġlisbon": 4956,
      "Ġsant": 4957,
      "ĠgenieÃŁen": 4958,
      "Ġsymb": 4959,
      "lad": 4960,
      "onnen": 4961,
      "Ġwunsch": 4962,
      "Ġmitarbeiter": 4963,
      "Ġverwenden": 4964,
      "Ġbemer": 4965,
      "Ġstimme": 4966,
      "Ġbehorden": 4967,
      "Ġexc": 4968,
      "Ġgot": 4969,
      "Ġaufent": 4970,
      "iens": 4971,
      "Ġcro": 4972,
      "ikation": 4973,
      "Ġschaden": 4974,
      "Ġtreatment": 4975,
      "Ġveh": 4976,
      "Ġdez": 4977,
      "Ġwochen": 4978,
      "ason": 4979,
      "Ġbenefit": 4980,
      "Ġberuf": 4981,
      "Ġroman": 4982,
      "Ġstelle": 4983,
      "Ġmaterials": 4984,
      "Ġwichtigsten": 4985,
      "erve": 4986,
      "Ġquickly": 4987,
      "Ġven": 4988,
      "Ġliss": 4989,
      "Ġeinzig": 4990,
      "Ġuberzeug": 4991,
      "Ġurlaub": 4992,
      "ennung": 4993,
      "Ġreise": 4994,
      "Ġfig": 4995,
      "kung": 4996,
      "pression": 4997,
      "trie": 4998,
      "Ġexperien": 4999,
      "Ġdurchge": 5000,
      "Ġstress": 5001,
      "Ġberg": 5002,
      "Ġeinheit": 5003,
      "Ġleicht": 5004,
      "Ġdepart": 5005,
      "Ġbruss": 5006,
      "Ġcorpor": 5007,
      "amb": 5008,
      "issions": 5009,
      "Ġfoot": 5010,
      "Ġleit": 5011,
      "gement": 5012,
      "hungen": 5013,
      "Ġmountain": 5014,
      "Ġgovernments": 5015,
      "gesamt": 5016,
      "Ġkonig": 5017,
      "leb": 5018,
      "Ġdespite": 5019,
      "Ġcorrect": 5020,
      "Ġvirt": 5021,
      "Ġedit": 5022,
      "Ġstage": 5023,
      "Ġap": 5024,
      "Ġfloor": 5025,
      "gener": 5026,
      "Ġmitt": 5027,
      "ausschuss": 5028,
      "Ġ+": 5029,
      "Ġkrise": 5030,
      "Ġtraff": 5031,
      "Ġfrankreich": 5032,
      "Ġwobei": 5033,
      "kraft": 5034,
      "Ġeg": 5035,
      "Ġdialogue": 5036,
      "Ġdopp": 5037,
      "reen": 5038,
      "Ġturk": 5039,
      "Ġsense": 5040,
      "Ġbran": 5041,
      "Ġeinger": 5042,
      "Ġcongratul": 5043,
      "programm": 5044,
      "wide": 5045,
      "sto": 5046,
      "griffen": 5047,
      "Ġverbesserung": 5048,
      "Ġoster": 5049,
      "Ġfurn": 5050,
      "stellungen": 5051,
      "Ġchin": 5052,
      "Ġreview": 5053,
      "len": 5054,
      "daten": 5055,
      "Ġgruppe": 5056,
      "ground": 5057,
      "Ġcontains": 5058,
      "este": 5059,
      "vorschriften": 5060,
      "wander": 5061,
      "lla": 5062,
      "Ġzeigen": 5063,
      "besch": 5064,
      "Ġermoglichen": 5065,
      "just": 5066,
      "Ġguten": 5067,
      "Ġhuge": 5068,
      "17": 5069,
      "Ġkonzentr": 5070,
      "Ġlissabon": 5071,
      "Ġsofort": 5072,
      "Ġdecl": 5073,
      "Ġlasst": 5074,
      "Ġgrie": 5075,
      "Ġbeginning": 5076,
      "Ġhighly": 5077,
      "Ġsummer": 5078,
      "40": 5079,
      "aged": 5080,
      "Ġbetroffen": 5081,
      "Ġwachstum": 5082,
      "Ġuniversity": 5083,
      "Ġconsumers": 5084,
      "Ġcarry": 5085,
      "ams": 5086,
      "sm": 5087,
      "Ġzweiten": 5088,
      "phone": 5089,
      "18": 5090,
      "pected": 5091,
      "Ġtell": 5092,
      "Ġverz": 5093,
      "ctors": 5094,
      "Ġlevels": 5095,
      "itect": 5096,
      "iko": 5097,
      "urf": 5098,
      "Ġvorbereit": 5099,
      "Ġachieved": 5100,
      "Ġseems": 5101,
      "Ġlabour": 5102,
      "ÃŁt": 5103,
      "otion": 5104,
      "Ġmis": 5105,
      "Ġinstruments": 5106,
      "Ġlimited": 5107,
      "Ġinsgesamt": 5108,
      "Ġnuclear": 5109,
      "Ġplayer": 5110,
      "Ġwhite": 5111,
      "Ġgene": 5112,
      "rechend": 5113,
      "Ġvilla": 5114,
      "Ġult": 5115,
      "Ġbinnenmarkt": 5116,
      "Ġflughafen": 5117,
      "rad": 5118,
      "schlieÃŁend": 5119,
      "iveness": 5120,
      "Ġneuer": 5121,
      "Ġadded": 5122,
      "Ġvollig": 5123,
      "absch": 5124,
      "Ġefficient": 5125,
      "Ġformer": 5126,
      "Ġadministrat": 5127,
      "Ġdisplay": 5128,
      "Ġformul": 5129,
      "Ġequipped": 5130,
      "Ġrepublic": 5131,
      "mehr": 5132,
      "Ġbarcelona": 5133,
      "Ġkulture": 5134,
      "ernen": 5135,
      "Ġschaffung": 5136,
      "Ġshows": 5137,
      "fun": 5138,
      "opping": 5139,
      "Ġsuccessful": 5140,
      "Ġregular": 5141,
      "Ġbathroom": 5142,
      "Ġgelegenheit": 5143,
      "Ġubrigen": 5144,
      "xis": 5145,
      "istische": 5146,
      "Ġvorhanden": 5147,
      "Ġhigher": 5148,
      "Ġincreased": 5149,
      "Ġhom": 5150,
      "Ġallgemeinen": 5151,
      "Ġhung": 5152,
      "bin": 5153,
      "Ġsupply": 5154,
      "Ġfalle": 5155,
      "Ġnachdem": 5156,
      "Ġmac": 5157,
      "Ġsource": 5158,
      "Ġinsel": 5159,
      "Ġsent": 5160,
      "iment": 5161,
      "Ġgebau": 5162,
      "Ġfert": 5163,
      "Ġattem": 5164,
      "Ġoperation": 5165,
      "Ġmanner": 5166,
      "vious": 5167,
      "Ġyork": 5168,
      "Ġnations": 5169,
      "Ġelectron": 5170,
      "Ġzentr": 5171,
      "Ġimmig": 5172,
      "kennen": 5173,
      "Ġseek": 5174,
      "hnt": 5175,
      "Ġkonkre": 5176,
      "Ġmehrheit": 5177,
      "Ġverwendung": 5178,
      "Ġpresented": 5179,
      "Ġjugend": 5180,
      "Ġmediter": 5181,
      "Ġsoziale": 5182,
      "Ġsummit": 5183,
      "Ġzahlreiche": 5184,
      "Ġheut": 5185,
      "Ġgrundlegen": 5186,
      "Ġcu": 5187,
      "Ġnumer": 5188,
      "Ġgenu": 5189,
      "Ġ!": 5190,
      "Ġverbessern": 5191,
      "ga": 5192,
      "Ġangebot": 5193,
      "Ġcomprom": 5194,
      "Ġdeep": 5195,
      "Ġga": 5196,
      "Ġreviews": 5197,
      "Ġtragen": 5198,
      "Ġbalance": 5199,
      "Ġeigent": 5200,
      "Ġ28": 5201,
      "Ġinnovative": 5202,
      "Ġergebnisse": 5203,
      "Ġcommercial": 5204,
      "wertungen": 5205,
      "Ġamster": 5206,
      "oo": 5207,
      "itable": 5208,
      "Ġbeschaftigung": 5209,
      "Ġbelg": 5210,
      "icien": 5211,
      "Ġprob": 5212,
      "Ġgeschlossen": 5213,
      "Ġkontroll": 5214,
      "Ġjune": 5215,
      "Ġvehic": 5216,
      "Ġprinciples": 5217,
      "Ġklicken": 5218,
      "Ġproperty": 5219,
      "Ġmont": 5220,
      "cker": 5221,
      "Ġtage": 5222,
      "Ġeigene": 5223,
      "Ġdebian": 5224,
      "Ġarchitect": 5225,
      "Ġnotwendigkeit": 5226,
      "Ġsus": 5227,
      "Ġdennoch": 5228,
      "ĠgemaÃŁ": 5229,
      "Ġkan": 5230,
      "Ġopportunities": 5231,
      "Ġerach": 5232,
      "Ġursprung": 5233,
      "Ġallein": 5234,
      "ranken": 5235,
      "dr": 5236,
      "folge": 5237,
      "Ġanzahl": 5238,
      "Ġwhose": 5239,
      "Ġcarried": 5240,
      "ender": 5241,
      "Ġneigh": 5242,
      "Ġferien": 5243,
      "Ġverfugen": 5244,
      "Ġaccommodation": 5245,
      "Ġanno": 5246,
      "osen": 5247,
      "Ġdeath": 5248,
      "Ġasked": 5249,
      "Ġvillage": 5250,
      "Ġgames": 5251,
      "Ġdring": 5252,
      "Ġkit": 5253,
      "pose": 5254,
      "Ġgesamte": 5255,
      "Ġdirection": 5256,
      "stre": 5257,
      "Ġunfortunately": 5258,
      "ques": 5259,
      "Ġobvious": 5260,
      "Ġstyle": 5261,
      "ills": 5262,
      "usion": 5263,
      "umm": 5264,
      "ya": 5265,
      "Ġavoid": 5266,
      "Ġersch": 5267,
      "Ġagreed": 5268,
      "pers": 5269,
      "iable": 5270,
      "Ġbenutzer": 5271,
      "Ġwoche": 5272,
      "Ġsubmitted": 5273,
      "denken": 5274,
      "wise": 5275,
      "atell": 5276,
      "Ġleader": 5277,
      "Ġlik": 5278,
      "Ġjav": 5279,
      "Ġvorauss": 5280,
      "Ġkunft": 5281,
      "imming": 5282,
      "Ġzeitpunkt": 5283,
      "Ġbehind": 5284,
      "Ġprasent": 5285,
      "Ġselbstverstand": 5286,
      "Ġeffects": 5287,
      "maÃŁig": 5288,
      "Ġsustainable": 5289,
      "Ġhostels": 5290,
      "Ġangemessen": 5291,
      "fordern": 5292,
      "ai": 5293,
      "Ġsites": 5294,
      "Ġcondition": 5295,
      "Ġgrunde": 5296,
      "Ġcommitment": 5297,
      "Ġinfluen": 5298,
      "Ġtools": 5299,
      "Ġcame": 5300,
      "Ġfix": 5301,
      "alter": 5302,
      "ffet": 5303,
      "Ġmatters": 5304,
      "aschinen": 5305,
      "Ġdeta": 5306,
      "inger": 5307,
      "Ġmeinem": 5308,
      "Ġevalu": 5309,
      "Ġchurch": 5310,
      "Ġ500": 5311,
      "industrie": 5312,
      "Ġround": 5313,
      "Ġerheb": 5314,
      "Ġstarken": 5315,
      "Ġdiskut": 5316,
      "lam": 5317,
      "unternehmen": 5318,
      "Ġrussland": 5319,
      "Ġmai": 5320,
      "Ġstimmen": 5321,
      "Ġeleg": 5322,
      "Ġproduktion": 5323,
      "Ġmarketing": 5324,
      "Ġkennt": 5325,
      "Ġselect": 5326,
      "Ġaward": 5327,
      "Ġvielfalt": 5328,
      "zufuhren": 5329,
      "inter": 5330,
      "Ġlosungen": 5331,
      "Ġsection": 5332,
      "Ġdeutschen": 5333,
      "Ġcondu": 5334,
      "will": 5335,
      "Ġkrieg": 5336,
      "Ġsetting": 5337,
      "gas": 5338,
      "Ġgleichen": 5339,
      "Ġhall": 5340,
      "lement": 5341,
      "Ġmenu": 5342,
      "dienst": 5343,
      "Ġkauf": 5344,
      "Ġaspects": 5345,
      "Ġanderungen": 5346,
      "Ġbrand": 5347,
      "Ġguid": 5348,
      "Ġtemper": 5349,
      "itation": 5350,
      "Ġrap": 5351,
      "Ġ196": 5352,
      "atast": 5353,
      "Ġoct": 5354,
      "Ġverkehrs": 5355,
      "Ġgehoren": 5356,
      "Ġcreation": 5357,
      "Ġcoast": 5358,
      "sprechen": 5359,
      "Ġtrend": 5360,
      "Ġobtain": 5361,
      "ml": 5362,
      "frieden": 5363,
      "Ġune": 5364,
      "Ġcoming": 5365,
      "Ġproviding": 5366,
      "kn": 5367,
      "Ġpossibility": 5368,
      "Ġgold": 5369,
      "fung": 5370,
      "Ġmarch": 5371,
      "Ġpromote": 5372,
      "maÃŁnahmen": 5373,
      "ees": 5374,
      "Ġsize": 5375,
      "Ġshown": 5376,
      "Ġlatest": 5377,
      "Ġbox": 5378,
      "Ġos": 5379,
      "Ġgerecht": 5380,
      "Ġprepar": 5381,
      "Ġinnen": 5382,
      "Ġhoff": 5383,
      "Ġresponse": 5384,
      "Ġresort": 5385,
      "Ġbalk": 5386,
      "Ġalten": 5387,
      "Ġasyl": 5388,
      "Ġconsidered": 5389,
      "Ġverstehen": 5390,
      "Ġpie": 5391,
      "sprogram": 5392,
      "Ġrenov": 5393,
      "ki": 5394,
      "Ġeindeut": 5395,
      "klus": 5396,
      "Ġosterreich": 5397,
      "iglich": 5398,
      "lassen": 5399,
      "Ġausfuhr": 5400,
      "where": 5401,
      "Ġanwend": 5402,
      "Ġkomprom": 5403,
      "atzen": 5404,
      "ĠauÃŁerst": 5405,
      "Ġdistribution": 5406,
      "astic": 5407,
      "Ġspirit": 5408,
      "ourcen": 5409,
      "Ġlediglich": 5410,
      "Ġwid": 5411,
      "star": 5412,
      "ikt": 5413,
      "Ġeasily": 5414,
      "hilfe": 5415,
      "ari": 5416,
      "zy": 5417,
      "Ġdv": 5418,
      "owers": 5419,
      "Ġblo": 5420,
      "Ġkonferenz": 5421,
      "Ġgren": 5422,
      "Ġentwickeln": 5423,
      "Ġindependent": 5424,
      "Ġrede": 5425,
      "Ġzweite": 5426,
      "otes": 5427,
      "ney": 5428,
      "akter": 5429,
      "Ġherzen": 5430,
      "Ġlegit": 5431,
      "Ġerfahrung": 5432,
      "Ġgefuhrt": 5433,
      "Ġschriftlich": 5434,
      "ads": 5435,
      "onom": 5436,
      "Ġatmosphere": 5437,
      "Ġgrun": 5438,
      "erien": 5439,
      "Ġversuchen": 5440,
      "Ġregierungen": 5441,
      "nal": 5442,
      "Ġband": 5443,
      "adem": 5444,
      "gesellschaft": 5445,
      "Ġspain": 5446,
      "organisation": 5447,
      "16": 5448,
      "Ġjuni": 5449,
      "ierenden": 5450,
      "uz": 5451,
      "Ġ=": 5452,
      "Ġ90": 5453,
      "rehen": 5454,
      "Ġradio": 5455,
      "haupt": 5456,
      "Ġenlargement": 5457,
      "Ġdoll": 5458,
      "Ġmedium": 5459,
      "Ġregime": 5460,
      "Ġeinfuhrung": 5461,
      "Ġcapacity": 5462,
      "Ġpressure": 5463,
      "Ġactions": 5464,
      "Ġplaces": 5465,
      "Ġstellung": 5466,
      "ehr": 5467,
      "Ġaudio": 5468,
      "Ġvertrags": 5469,
      "ĠgroÃŁten": 5470,
      "ffee": 5471,
      "lier": 5472,
      "Ġregulations": 5473,
      "Ġmos": 5474,
      "put": 5475,
      "Ġcd": 5476,
      "iplom": 5477,
      "Ġrelevant": 5478,
      "Ġcriter": 5479,
      "okoll": 5480,
      "Ġreached": 5481,
      "mitt": 5482,
      "Ġbestimmte": 5483,
      "Ġassistance": 5484,
      "Ġverkauf": 5485,
      "Ġleave": 5486,
      "Ġprepared": 5487,
      "zub": 5488,
      "Ġitaly": 5489,
      "heben": 5490,
      "Ġkoordin": 5491,
      "Ġeinsch": 5492,
      "Ġkonfl": 5493,
      "Ġpaper": 5494,
      "Ġreduce": 5495,
      "Ġsteu": 5496,
      "Ġconstruction": 5497,
      "bert": 5498,
      "ii": 5499,
      "Ġafr": 5500,
      "Ġwann": 5501,
      "Ġbestand": 5502,
      "Ġmart": 5503,
      "cia": 5504,
      "vision": 5505,
      "Ġbase": 5506,
      "altungs": 5507,
      "Ġamsterdam": 5508,
      "Ġ26": 5509,
      "ought": 5510,
      "erences": 5511,
      "Ġkoh": 5512,
      "treten": 5513,
      "Ġwww": 5514,
      "Ġswimming": 5515,
      "14": 5516,
      "Ġtransparen": 5517,
      "rec": 5518,
      "Ġ70": 5519,
      "kauf": 5520,
      "artige": 5521,
      "Ġwirtschaftliche": 5522,
      "Ġwritten": 5523,
      "Ġrepla": 5524,
      "Ġgewahrleisten": 5525,
      "agra": 5526,
      "ored": 5527,
      "istics": 5528,
      "Ġumgebung": 5529,
      "Ġstabilitat": 5530,
      "Ġdecided": 5531,
      "Ġgott": 5532,
      "Ġitalian": 5533,
      "Ġverpflich": 5534,
      "feld": 5535,
      "inted": 5536,
      "Ġmel": 5537,
      "Ġerfolgreich": 5538,
      "Ġpriority": 5539,
      "Ġwoll": 5540,
      "Ġplat": 5541,
      "Ġerfull": 5542,
      "Ġfamilie": 5543,
      "Ġpor": 5544,
      "Ġcause": 5545,
      "Ġzivil": 5546,
      "Ġfrequ": 5547,
      "Ġregeln": 5548,
      "Ġclosed": 5549,
      "Ġratsprasident": 5550,
      "anken": 5551,
      "Ġgives": 5552,
      "Ġgebracht": 5553,
      "Ġbuy": 5554,
      "Ġausgestattet": 5555,
      "Ġku": 5556,
      "Ġanderer": 5557,
      "Ġbefur": 5558,
      "Ġvorliegen": 5559,
      "Ġfreiheit": 5560,
      "zone": 5561,
      "Ġtask": 5562,
      "Ġerwahn": 5563,
      "ado": 5564,
      "legung": 5565,
      "eff": 5566,
      "Ġtab": 5567,
      "Ġglauben": 5568,
      "Ġnav": 5569,
      "Ġerster": 5570,
      "Ġupd": 5571,
      "employ": 5572,
      "Ġaktion": 5573,
      "Ġbein": 5574,
      "Ġsports": 5575,
      "Ġpartnership": 5576,
      "Ġverstand": 5577,
      "Ġ''": 5578,
      "Ġsprache": 5579,
      "Ġthought": 5580,
      "Ġress": 5581,
      "Ġsuchen": 5582,
      "Ġremains": 5583,
      "Ġinhalt": 5584,
      "Ġquiet": 5585,
      "Ġcharge": 5586,
      "ych": 5587,
      "Ġprinzip": 5588,
      "Ġannoun": 5589,
      "Ġforms": 5590,
      "ierter": 5591,
      "mission": 5592,
      "here": 5593,
      "Ġbritish": 5594,
      "Ġ300": 5595,
      "rig": 5596,
      "wind": 5597,
      "Ġzweitens": 5598,
      "Ġvoraus": 5599,
      "iately": 5600,
      "Ġfunding": 5601,
      "wurf": 5602,
      "Ġhalt": 5603,
      "Ġstandpunkt": 5604,
      "works": 5605,
      "Ġey": 5606,
      "iture": 5607,
      "kommens": 5608,
      "Ġafrica": 5609,
      "ugs": 5610,
      "Ġliebe": 5611,
      "Ġstudy": 5612,
      "Ġattempt": 5613,
      "99": 5614,
      "Ġdoppel": 5615,
      "Ġmessage": 5616,
      "Ġhandeln": 5617,
      "Ġelse": 5618,
      "ously": 5619,
      "Ġbestimmten": 5620,
      "Ġislam": 5621,
      "Ġstunden": 5622,
      "Ġfah": 5623,
      "Ġbot": 5624,
      "Ġwettbewerb": 5625,
      "Ġdescrib": 5626,
      "Ġerfahren": 5627,
      "Ġselbstverstandlich": 5628,
      "Ġerachtens": 5629,
      "Ġkommissarin": 5630,
      "Ġcreating": 5631,
      "Ġbekampfung": 5632,
      "Ġgrunden": 5633,
      "Ġgeneration": 5634,
      "Ġauto": 5635,
      "losen": 5636,
      "Ġschiff": 5637,
      "Ġkosovo": 5638,
      "Ġext": 5639,
      "ugt": 5640,
      "son": 5641,
      "Ġdinge": 5642,
      "Ġvorher": 5643,
      "stein": 5644,
      "Ġassociation": 5645,
      "Ġmedien": 5646,
      "25": 5647,
      "eth": 5648,
      "bit": 5649,
      "zeuge": 5650,
      "Ġschweiz": 5651,
      "Ġanders": 5652,
      "Ġfurthermore": 5653,
      "unsch": 5654,
      "Ġfell": 5655,
      "ften": 5656,
      "Ġvorgesehen": 5657,
      "Ġdecember": 5658,
      "Ġstructural": 5659,
      "Ġaspe": 5660,
      "bek": 5661,
      "Ġukraine": 5662,
      "ielt": 5663,
      "sibilities": 5664,
      "Ġprint": 5665,
      "Ġdrive": 5666,
      "Ġeinzige": 5667,
      "ranean": 5668,
      "mus": 5669,
      "rise": 5670,
      "mented": 5671,
      "Ġshopping": 5672,
      "Ġthous": 5673,
      "Ġeigentlich": 5674,
      "Ġsupported": 5675,
      "Ġwto": 5676,
      "Ġstil": 5677,
      "arily": 5678,
      "Ġpurpose": 5679,
      "fraktion": 5680,
      "Ġkamp": 5681,
      "Ġimprovement": 5682,
      "Ġsamt": 5683,
      "Ġengl": 5684,
      "Ġbege": 5685,
      "rich": 5686,
      "Ġlegislative": 5687,
      "Ġplus": 5688,
      "dra": 5689,
      "Ġaktivitaten": 5690,
      "anlage": 5691,
      "wertung": 5692,
      "ateral": 5693,
      "eite": 5694,
      "atastrop": 5695,
      "rid": 5696,
      "Ġprasidentschaft": 5697,
      "antly": 5698,
      "....": 5699,
      "Ġhot": 5700,
      "Ġdiplom": 5701,
      "Ġsommer": 5702,
      "Ġfortschritte": 5703,
      "eden": 5704,
      "strateg": 5705,
      "iete": 5706,
      "Ġwine": 5707,
      "Ġrepe": 5708,
      "Ġkra": 5709,
      "Ġsignal": 5710,
      "Ġscheint": 5711,
      "view": 5712,
      "page": 5713,
      "Ġrene": 5714,
      "Ġjahrhundert": 5715,
      "Ġbrought": 5716,
      "Ġconven": 5717,
      "Ġsquare": 5718,
      "ghan": 5719,
      "stat": 5720,
      "Ġgesundheits": 5721,
      "Ġmat": 5722,
      "ategories": 5723,
      "Ġdrink": 5724,
      "selves": 5725,
      "Ġmonet": 5726,
      "Ġmeasure": 5727,
      "Ġkol": 5728,
      "Ġsagte": 5729,
      "'.": 5730,
      "Ġbir": 5731,
      "rang": 5732,
      "Ġfirm": 5733,
      "Ġreduz": 5734,
      "moglichkeiten": 5735,
      "Ġdiscussion": 5736,
      "Ġzul": 5737,
      "geber": 5738,
      "Ġtechnologies": 5739,
      "Ġstatement": 5740,
      "Ġparking": 5741,
      "Ġgefordert": 5742,
      "Ġarrang": 5743,
      "fullen": 5744,
      "iciency": 5745,
      "Ġgewor": 5746,
      "Ġpreise": 5747,
      "Ġokt": 5748,
      "rief": 5749,
      "Ġsales": 5750,
      "Ġinteresting": 5751,
      "Ġfishing": 5752,
      "unge": 5753,
      "Ġlake": 5754,
      "ym": 5755,
      "Ġvariety": 5756,
      "Ġgruppen": 5757,
      "Ġplant": 5758,
      "Ġbestimmungen": 5759,
      "Ġsolchen": 5760,
      "Ġzuge": 5761,
      "hindern": 5762,
      "kor": 5763,
      "reten": 5764,
      "Ġbey": 5765,
      "Ġdanger": 5766,
      "iro": 5767,
      "Ġsolidarity": 5768,
      "Ġbulgar": 5769,
      "orial": 5770,
      "Ġrelationship": 5771,
      "Ġheim": 5772,
      "Ġgrenzen": 5773,
      "reibung": 5774,
      "Ġsteps": 5775,
      "Ġbestell": 5776,
      "Ġdimension": 5777,
      "Ġminor": 5778,
      "Ġbillion": 5779,
      "Ġmas": 5780,
      "Ġfon": 5781,
      "Ġpleased": 5782,
      "Ġhaufig": 5783,
      "ral": 5784,
      "Ġillegal": 5785,
      "Ġbundes": 5786,
      "Ġpath": 5787,
      "Ġprosp": 5788,
      "Ġkeiner": 5789,
      "Ġsecondly": 5790,
      "Ġpurs": 5791,
      "Ġminimum": 5792,
      "burger": 5793,
      "Ġcompon": 5794,
      "volle": 5795,
      "Ġafghan": 5796,
      "ero": 5797,
      "Ġausland": 5798,
      "Ġactivity": 5799,
      "Ġbrows": 5800,
      "Ġdiejenigen": 5801,
      "Ġsymbol": 5802,
      "Ġexam": 5803,
      "Ġexpla": 5804,
      "Ġkontin": 5805,
      "Ġcert": 5806,
      "Ġriver": 5807,
      "Ġful": 5808,
      "Ġlate": 5809,
      "Ġagriculture": 5810,
      "Ġign": 5811,
      "Ġagency": 5812,
      "Ġproduced": 5813,
      "endes": 5814,
      "Ġgluck": 5815,
      "Ġ1998": 5816,
      "Ġclient": 5817,
      "Ġbezuglich": 5818,
      "Ġtourist": 5819,
      "Ġdetermin": 5820,
      "Ġcomprehen": 5821,
      "Ġtelefon": 5822,
      "Ġaufgenommen": 5823,
      "uff": 5824,
      "Ġgeist": 5825,
      "Ġbeide": 5826,
      "Ġlargest": 5827,
      "Ġdeg": 5828,
      "Ġrh": 5829,
      "stag": 5830,
      "Ġvergessen": 5831,
      "Ġarab": 5832,
      "Ġunternehmens": 5833,
      "Ġbildung": 5834,
      "Ġequal": 5835,
      "ax": 5836,
      "Ġlower": 5837,
      "Ġbecame": 5838,
      "tragen": 5839,
      "âĢĵ": 5840,
      "Ġvergangenen": 5841,
      "Ġsatell": 5842,
      "porary": 5843,
      "ategorien": 5844,
      "erc": 5845,
      "Ġaufmerksamkeit": 5846,
      "Ġprocedures": 5847,
      "Ġfres": 5848,
      "Ġpunkte": 5849,
      "Ġip": 5850,
      "Ġways": 5851,
      "mous": 5852,
      "Ġmoreover": 5853,
      "Ġerklarung": 5854,
      "Ġbay": 5855,
      "ugg": 5856,
      "angeb": 5857,
      "ded": 5858,
      "Ġmonitoring": 5859,
      "Ġansatz": 5860,
      "lines": 5861,
      "idge": 5862,
      "chsel": 5863,
      "ita": 5864,
      "Ġunterk": 5865,
      "Ġweder": 5866,
      "Ġerlaub": 5867,
      "iker": 5868,
      "Ġdezember": 5869,
      "Ġnied": 5870,
      "Ġdeutsche": 5871,
      "oker": 5872,
      "Ġnr": 5873,
      "Ġpalast": 5874,
      "Ġjur": 5875,
      "Ġappe": 5876,
      "Ġemissions": 5877,
      "Ġhistorical": 5878,
      "cement": 5879,
      "Ġstarted": 5880,
      "umb": 5881,
      "Ġexact": 5882,
      "Ġdocuments": 5883,
      "Ġdise": 5884,
      "Ġproduz": 5885,
      "bewertungen": 5886,
      "Ġeuropaischer": 5887,
      "Ġoctober": 5888,
      "Ġwenige": 5889,
      "igungen": 5890,
      "Ġeffort": 5891,
      "Ġentscheidungen": 5892,
      "Ġast": 5893,
      "Ġfant": 5894,
      "Ġwerte": 5895,
      "Ġrelation": 5896,
      "Ġimmo": 5897,
      "Ġerreich": 5898,
      "Ġregards": 5899,
      "Ġallowed": 5900,
      "Ġeroff": 5901,
      "gruppe": 5902,
      "ĠeinschlieÃŁlich": 5903,
      "Ġereign": 5904,
      "Ġsometimes": 5905,
      "Ġspanish": 5906,
      "Ġdamage": 5907,
      "Ġkuche": 5908,
      "Ġloss": 5909,
      "Ġreading": 5910,
      "Ġagent": 5911,
      "Ġjanuary": 5912,
      "Ġfirstly": 5913,
      "Ġdaily": 5914,
      "etzung": 5915,
      "Ġrent": 5916,
      "ibility": 5917,
      "Ġlaunch": 5918,
      "Ġparam": 5919,
      "Ġinit": 5920,
      "Ġnumerous": 5921,
      "kund": 5922,
      "Ġelements": 5923,
      "Ġprovisions": 5924,
      "eg": 5925,
      "Ġfriends": 5926,
      "Ġerm": 5927,
      "Ġpil": 5928,
      "Ġ29": 5929,
      "Ġvertreten": 5930,
      "Ġproduce": 5931,
      "Ġintegrated": 5932,
      "Ġgarten": 5933,
      "resse": 5934,
      "Ġdomin": 5935,
      "Ġrelease": 5936,
      "Ġberuhm": 5937,
      "itude": 5938,
      "Ġbio": 5939,
      "pres": 5940,
      "Ġgip": 5941,
      "park": 5942,
      "Ġviolence": 5943,
      "Ġprag": 5944,
      "Ġenterprise": 5945,
      "ager": 5946,
      "Ġworth": 5947,
      "Ġverring": 5948,
      "Ġformat": 5949,
      "Ġorganisations": 5950,
      "Ġpayment": 5951,
      "uropa": 5952,
      "Ġub": 5953,
      "kom": 5954,
      "back": 5955,
      "Ġwein": 5956,
      "Ġdistance": 5957,
      "tes": 5958,
      "Ġgiving": 5959,
      "Ġanforderungen": 5960,
      "ares": 5961,
      "Ġcompromise": 5962,
      "Ġbeyond": 5963,
      "Ġeuch": 5964,
      "house": 5965,
      "haltnis": 5966,
      "Ġzehn": 5967,
      "Ġcontribution": 5968,
      "Ġgeeign": 5969,
      "Ġoffentliche": 5970,
      "schw": 5971,
      "Ġbeitragen": 5972,
      "Ġleisten": 5973,
      "Ġschen": 5974,
      "emb": 5975,
      "Ġgain": 5976,
      "Ġberichts": 5977,
      "Ġtransparency": 5978,
      "resp": 5979,
      "Ġnachfol": 5980,
      "Ġunmittel": 5981,
      "Ġpatient": 5982,
      "ued": 5983,
      "Ġsonst": 5984,
      "Ġlimit": 5985,
      "zusch": 5986,
      "Ġmarz": 5987,
      "24": 5988,
      "Ġerwarten": 5989,
      "office": 5990,
      "Ġcurren": 5991,
      "Ġteach": 5992,
      "Ġbewusst": 5993,
      "Ġhinge": 5994,
      "sive": 5995,
      "Ġvorschriften": 5996,
      "sam": 5997,
      "Ġoffentlichkeit": 5998,
      "Ġentsprechend": 5999,
      "pass": 6000,
      "Ġagrar": 6001,
      "altet": 6002,
      "verty": 6003,
      "Ġbilder": 6004,
      "laden": 6005,
      "Ġdiskussion": 6006,
      "letzt": 6007,
      "Ġuntersuch": 6008,
      "Ġwellness": 6009,
      "Ġplen": 6010,
      "Ġgastebewertungen": 6011,
      "Ġpaar": 6012,
      "Ġjen": 6013,
      "âĢľ,": 6014,
      "Ġcollect": 6015,
      "Ġerstens": 6016,
      "freund": 6017,
      "Ġanalysis": 6018,
      "Ġtrag": 6019,
      "Ġteilen": 6020,
      "Ġdritt": 6021,
      "Ġbereiche": 6022,
      "Ġarbeitnehmer": 6023,
      "Ġoffiz": 6024,
      "Ġpoverty": 6025,
      "Ġcriteria": 6026,
      "Ġelektron": 6027,
      "Ġwon": 6028,
      "Ġkonf": 6029,
      "Ġtransparenz": 6030,
      "bas": 6031,
      "kosten": 6032,
      "Ġblog": 6033,
      "Ġrevolution": 6034,
      "Ġvertrauen": 6035,
      "Ġimmediately": 6036,
      "Ġstructure": 6037,
      "Ġeingesetzt": 6038,
      "Ġbeob": 6039,
      "Ġsecure": 6040,
      "Ġkennen": 6041,
      "inden": 6042,
      "auern": 6043,
      "Ġclients": 6044,
      "nungen": 6045,
      "Ġleistungs": 6046,
      "Ġaffect": 6047,
      "Ġlinux": 6048,
      "Ġintell": 6049,
      "Ġourselves": 6050,
      "Ġtagesordnung": 6051,
      "Ġrapid": 6052,
      "Ġfeature": 6053,
      "Ġstarting": 6054,
      "Ġanfrage": 6055,
      "df": 6056,
      "pret": 6057,
      "Ġmachine": 6058,
      "Ġdecor": 6059,
      "Ġbetreffen": 6060,
      "Ġfine": 6061,
      "ilen": 6062,
      ".)": 6063,
      "Ġtypes": 6064,
      "abkommen": 6065,
      "Ġwichtiger": 6066,
      "Ġoktober": 6067,
      "Ġhappy": 6068,
      "Ġapplied": 6069,
      "gende": 6070,
      "Ġgele": 6071,
      "Ġlisten": 6072,
      "Ġperman": 6073,
      "elten": 6074,
      "Ġprovin": 6075,
      "Ġoffering": 6076,
      "Ġlost": 6077,
      "Ġfruher": 6078,
      "ories": 6079,
      "orge": 6080,
      "Ġreality": 6081,
      "ola": 6082,
      "Ġbahn": 6083,
      "Ġgemeinschafts": 6084,
      "sprozess": 6085,
      "Ġbenefits": 6086,
      "Ġpatent": 6087,
      "Ġportugal": 6088,
      "Ġprasidenten": 6089,
      "dis": 6090,
      "Ġemployees": 6091,
      "Ġdurchgefuhrt": 6092,
      "Ġgeworden": 6093,
      "Ġgenommen": 6094,
      "Ġnationen": 6095,
      "ades": 6096,
      "Ġbenotigen": 6097,
      "Ġdefinition": 6098,
      "23": 6099,
      "Ġton": 6100,
      "Ġjournal": 6101,
      "Ġmaximum": 6102,
      "âĢ¦": 6103,
      "sl": 6104,
      "Ġtourism": 6105,
      "Ġabhang": 6106,
      "fi": 6107,
      "Ġconstit": 6108,
      "Ġperfe": 6109,
      "Ġconsist": 6110,
      "Ġauftrag": 6111,
      "ription": 6112,
      "Ġfirma": 6113,
      "Ġwr": 6114,
      "Ġjuli": 6115,
      "80": 6116,
      "Ġalb": 6117,
      "Ġthreat": 6118,
      "Ġopposition": 6119,
      "Ġinvestitionen": 6120,
      "Ġbesondere": 6121,
      "reng": 6122,
      "Ġvital": 6123,
      "hab": 6124,
      "ograf": 6125,
      "Ġhighest": 6126,
      "Ġmonetary": 6127,
      "Ġkilomet": 6128,
      "Ġbezahl": 6129,
      "Ġphase": 6130,
      "Ġinitial": 6131,
      "ktoren": 6132,
      "Ġforum": 6133,
      "iente": 6134,
      "Ġdauer": 6135,
      "iction": 6136,
      "Ġsinne": 6137,
      "orgung": 6138,
      "Ġlob": 6139,
      "Ġjuly": 6140,
      "wortern": 6141,
      "ringen": 6142,
      "Ġtrack": 6143,
      "Ġalp": 6144,
      "Ġhalte": 6145,
      "Ġunemploy": 6146,
      "ierende": 6147,
      "Ġvision": 6148,
      "Ġoptions": 6149,
      "Ġaktuellen": 6150,
      "Ġadministration": 6151,
      "ounts": 6152,
      "olf": 6153,
      "Ġhelpful": 6154,
      "Ġtomor": 6155,
      "Ġgod": 6156,
      "Ġforces": 6157,
      "Ġmetho": 6158,
      "Ġkannst": 6159,
      "Ġuseful": 6160,
      "Ġreference": 6161,
      "Ġgefunden": 6162,
      "Ġfeed": 6163,
      "Ġlove": 6164,
      "Ġtomorrow": 6165,
      "Ġcrimin": 6166,
      "Ġziehen": 6167,
      "Ġwahrschein": 6168,
      "Ġtier": 6169,
      "Ġminder": 6170,
      "Ġvorsitz": 6171,
      "zt": 6172,
      "Ġwahrung": 6173,
      "...\"": 6174,
      "Ġlangfrist": 6175,
      "Ġverme": 6176,
      "ritts": 6177,
      "Ġpersons": 6178,
      "Ġiraq": 6179,
      "body": 6180,
      "Ġelections": 6181,
      "Ġchallenges": 6182,
      "Ġscientific": 6183,
      "Ġconflict": 6184,
      "ivity": 6185,
      "urance": 6186,
      "Ġaufenthalt": 6187,
      "Ġuner": 6188,
      "!!": 6189,
      "Ġprocesses": 6190,
      "anted": 6191,
      "wiesen": 6192,
      "leitet": 6193,
      "zeichnung": 6194,
      "Ġerneut": 6195,
      "Ġlaufen": 6196,
      "Ġgros": 6197,
      "eks": 6198,
      "Ġregistr": 6199,
      "Ġdefen": 6200,
      "Ġplayers": 6201,
      "leistung": 6202,
      "Ġ35": 6203,
      "Ġkorper": 6204,
      "Ġprojekte": 6205,
      "Ġsieht": 6206,
      "Ġeinfluss": 6207,
      "Ġspezif": 6208,
      "hoben": 6209,
      "Ġattract": 6210,
      "Ġannual": 6211,
      "ql": 6212,
      "Ġinfrastruct": 6213,
      "ata": 6214,
      "Ġgeschaffen": 6215,
      "Ġsort": 6216,
      "craft": 6217,
      "Ġundert": 6218,
      "Ġsong": 6219,
      "Ġauffassung": 6220,
      "Ġphoto": 6221,
      "Ġtrip": 6222,
      "iber": 6223,
      "ieht": 6224,
      "Ġpraxis": 6225,
      "ns": 6226,
      "Ġlebensmittel": 6227,
      "Ġ1997": 6228,
      "Ġcompos": 6229,
      "Ġcolleagues": 6230,
      "ammlung": 6231,
      "Ġeher": 6232,
      "Ġrecon": 6233,
      "Ġnacht": 6234,
      "bro": 6235,
      "abor": 6236,
      "Ġsache": 6237,
      "Ġteile": 6238,
      "Ġorient": 6239,
      "achtung": 6240,
      "--": 6241,
      "Ġstarker": 6242,
      "Ġcos": 6243,
      "Ġchallenge": 6244,
      "erte": 6245,
      "ystem": 6246,
      "Ġmediterranean": 6247,
      "Ġoperating": 6248,
      "uhr": 6249,
      "uls": 6250,
      "bezogen": 6251,
      "Ġverabsch": 6252,
      "Ġ31": 6253,
      "Ġmission": 6254,
      "Ġsaying": 6255,
      "Ġburgern": 6256,
      "zehn": 6257,
      "Ġpaid": 6258,
      "zentrum": 6259,
      "Ġpractical": 6260,
      "Ġphilos": 6261,
      "pun": 6262,
      "Ġcohes": 6263,
      "Ġconsequences": 6264,
      "ritten": 6265,
      "Ġgall": 6266,
      "Ġexception": 6267,
      "Ġbedroom": 6268,
      "ĠstraÃŁen": 6269,
      "Ġbringt": 6270,
      "Ġsechs": 6271,
      "Ġideas": 6272,
      "Ġvalid": 6273,
      "Ġehr": 6274,
      "Ġliter": 6275,
      "Ġsecret": 6276,
      "Ġarmut": 6277,
      "Ġbald": 6278,
      "Ġhistoric": 6279,
      "ivitat": 6280,
      "Ġmaster": 6281,
      "Ġearth": 6282,
      "zi": 6283,
      "Ġlernen": 6284,
      "Ġgoes": 6285,
      "Ġinf": 6286,
      "Ġcell": 6287,
      "vertrag": 6288,
      "indest": 6289,
      "Ġpas": 6290,
      "Ġpictures": 6291,
      "Ġwalking": 6292,
      "hle": 6293,
      "Ġgunst": 6294,
      "pal": 6295,
      "Ġna": 6296,
      "richten": 6297,
      "ĠbegruÃŁe": 6298,
      "arkt": 6299,
      "Ġimages": 6300,
      "aign": 6301,
      "Ġanderung": 6302,
      "head": 6303,
      "Ġfoundation": 6304,
      "Ġempf": 6305,
      "Ġentsprechenden": 6306,
      "Ġbedarf": 6307,
      "Ġcoup": 6308,
      "ione": 6309,
      "Ġotherwise": 6310,
      "Ġwaste": 6311,
      "Ġfried": 6312,
      "mod": 6313,
      "achung": 6314,
      "ogle": 6315,
      "Ġoffered": 6316,
      "Ġverhalten": 6317,
      "Ġzufrieden": 6318,
      "Ġneighbour": 6319,
      "Ġsolidaritat": 6320,
      "Ġnachbar": 6321,
      "Ġaufgaben": 6322,
      "izin": 6323,
      "Ġbrief": 6324,
      "Ġclar": 6325,
      "Ġkredit": 6326,
      "Ġdeine": 6327,
      "Ġadvert": 6328,
      "Ġjanuar": 6329,
      "Ġlines": 6330,
      "Ġberat": 6331,
      "othe": 6332,
      "Ġsprach": 6333,
      "Ġkomplex": 6334,
      "Ġwelcom": 6335,
      "Ġrural": 6336,
      "Ġschlusselwortern": 6337,
      "Ġworldwide": 6338,
      "Ġtagen": 6339,
      "Ġcampaign": 6340,
      "Ġflor": 6341,
      "attung": 6342,
      "Ġspee": 6343,
      "Ġcapt": 6344,
      "Ġbeant": 6345,
      "Ġlesen": 6346,
      "Ġwiederhol": 6347,
      "Ġessen": 6348,
      "Ġadvantage": 6349,
      "gesetz": 6350,
      "Ġrichtige": 6351,
      "Ġlanger": 6352,
      "Ġschwar": 6353,
      "Ġbedurf": 6354,
      "Ġkapital": 6355,
      "Ġsufficient": 6356,
      "Ġlinie": 6357,
      "Ġbemuhungen": 6358,
      "Ġheav": 6359,
      "klar": 6360,
      "Ġmix": 6361,
      "karte": 6362,
      "Ġvertreter": 6363,
      "Ġmedic": 6364,
      "Ġverhindern": 6365,
      "Ġwelches": 6366,
      "mm": 6367,
      "cs": 6368,
      "Ġcomprehensive": 6369,
      "Ġcounter": 6370,
      "Ġshop": 6371,
      "Ġfrem": 6372,
      "Ġehem": 6373,
      "Ġrequires": 6374,
      "Ġerfolgt": 6375,
      "Ġready": 6376,
      "Ġbeschluss": 6377,
      "Ġpruf": 6378,
      "based": 6379,
      "Ġweak": 6380,
      "Ġmoderne": 6381,
      "Ġressourcen": 6382,
      "Ġerd": 6383,
      "raten": 6384,
      "Ġbegin": 6385,
      "Ġweeks": 6386,
      "Ġremember": 6387,
      "book": 6388,
      "fuhl": 6389,
      "Ġborder": 6390,
      "Ġtouch": 6391,
      "Ġmonaten": 6392,
      "Ġcircum": 6393,
      "Ġcollection": 6394,
      "Ġsam": 6395,
      "Ð»": 6396,
      "used": 6397,
      "Ġmorning": 6398,
      "Ġded": 6399,
      "Ġefficiency": 6400,
      "Ġinterpret": 6401,
      "Ġirak": 6402,
      "iveau": 6403,
      "Ġreduction": 6404,
      "Ġdir": 6405,
      "Ġcharakter": 6406,
      "Ġdub": 6407,
      "Ġangeboten": 6408,
      "Ġfitness": 6409,
      "Ġgenannten": 6410,
      "Ġbeweg": 6411,
      "ĠÂ»": 6412,
      "gere": 6413,
      "ls": 6414,
      "Ġrock": 6415,
      "Ġnimmt": 6416,
      "Ġjem": 6417,
      "Ġkal": 6418,
      "Ġdoubt": 6419,
      "ienz": 6420,
      "Ġvisitors": 6421,
      "Ġfolge": 6422,
      "Ġrepublik": 6423,
      "Ġauthority": 6424,
      "Ġanderem": 6425,
      "Ġbehandelt": 6426,
      "Ġoffens": 6427,
      "Ġhund": 6428,
      "estic": 6429,
      "Ġgetan": 6430,
      "Ġverbind": 6431,
      "Ġgek": 6432,
      "Ġmicrosoft": 6433,
      "Ġrelating": 6434,
      "Ġmodified": 6435,
      "Ġselection": 6436,
      "Ġunbed": 6437,
      "Ġlanguages": 6438,
      "Ġlives": 6439,
      "ris": 6440,
      "Ġkonzept": 6441,
      "Ġterrace": 6442,
      "Ġconver": 6443,
      "Ġsitzung": 6444,
      "Ġcrucial": 6445,
      "Ġpowers": 6446,
      "esch": 6447,
      "ilitat": 6448,
      "{{": 6449,
      "Ġpublished": 6450,
      "Ġbesuchen": 6451,
      "Ġanything": 6452,
      "Ġgewahl": 6453,
      "Ġswiss": 6454,
      "Ġheil": 6455,
      "zeiten": 6456,
      "98": 6457,
      "stelle": 6458,
      "board": 6459,
      "ahrungs": 6460,
      "Ġwunschen": 6461,
      "Ġkonstru": 6462,
      "Ġlies": 6463,
      "Ġoverall": 6464,
      "Ġprobably": 6465,
      "Ġhaft": 6466,
      "Ġcongratulate": 6467,
      "Ġcasino": 6468,
      "Ġpalest": 6469,
      "Ġbehandlung": 6470,
      "nes": 6471,
      "durch": 6472,
      "Ġcam": 6473,
      "Ġimplemented": 6474,
      "andert": 6475,
      "Ġburgerinnen": 6476,
      "Ġconvin": 6477,
      "Ġvoting": 6478,
      "Ġfisheries": 6479,
      "Ġaustria": 6480,
      "Ġgrowing": 6481,
      "Ġkomplett": 6482,
      "Ġchann": 6483,
      "Ġprotokoll": 6484,
      "ichert": 6485,
      "Ġgebrauch": 6486,
      "itzer": 6487,
      "Ġfarmers": 6488,
      "action": 6489,
      "Ġcohesion": 6490,
      "kret": 6491,
      "Ġjoin": 6492,
      "Ġfolgenden": 6493,
      "Ġterrorism": 6494,
      "Ġverstark": 6495,
      "olid": 6496,
      "Ġversucht": 6497,
      "ordination": 6498,
      "splan": 6499,
      "Ġmex": 6500,
      "ischem": 6501,
      "Ġbeein": 6502,
      "Ġcolor": 6503,
      "loss": 6504,
      "sicherheit": 6505,
      "zielle": 6506,
      "das": 6507,
      "Ġdanke": 6508,
      "illa": 6509,
      "Ġimmobil": 6510,
      "Ġverurs": 6511,
      "Ġvac": 6512,
      "Ġcaused": 6513,
      "Ġmultip": 6514,
      "Ġatmosphare": 6515,
      "ellschaften": 6516,
      "Ġerklart": 6517,
      "itarian": 6518,
      "Ġgebaude": 6519,
      "Ġchair": 6520,
      "Ġfestival": 6521,
      "Ġausreich": 6522,
      "Ġspieler": 6523,
      "Ġcolour": 6524,
      "Ġaufbau": 6525,
      "Ġbab": 6526,
      "Ġmeaning": 6527,
      "Ġsonder": 6528,
      "Ġzumindest": 6529,
      "cco": 6530,
      "ids": 6531,
      "Ġpanor": 6532,
      "Ġwatch": 6533,
      "Ġeinst": 6534,
      "Ġuberhaupt": 6535,
      "Ġforschungs": 6536,
      "set": 6537,
      "Ġpsych": 6538,
      "Ġvorschlagen": 6539,
      "Ġfreuen": 6540,
      "Ġgerichts": 6541,
      "version": 6542,
      "Ġbudgetary": 6543,
      "sport": 6544,
      "Ġusw": 6545,
      "Ġveroffent": 6546,
      "Ġfab": 6547,
      "Ġerfullen": 6548,
      "Ġarchite": 6549,
      "Ġcritic": 6550,
      "Ġship": 6551,
      "Ġcook": 6552,
      "gef": 6553,
      "Ġerfahrungen": 6554,
      "Ġaccordance": 6555,
      "Ġemb": 6556,
      "Ġtechnologie": 6557,
      "theless": 6558,
      "rankt": 6559,
      "Ġcandid": 6560,
      "):": 6561,
      "Ġmap": 6562,
      "Ġplans": 6563,
      "ktions": 6564,
      "itch": 6565,
      "Ġinterested": 6566,
      "Ġupdate": 6567,
      "Ġberucksichtigt": 6568,
      "wasser": 6569,
      "how": 6570,
      "Ġzerst": 6571,
      "Ġnevertheless": 6572,
      "Ġbewer": 6573,
      "scheid": 6574,
      "Ġhold": 6575,
      "Ġfinanzierung": 6576,
      "Ġeastern": 6577,
      "Ġtechnischen": 6578,
      "ĠauÃŁerhalb": 6579,
      "Ġgesamt": 6580,
      "03": 6581,
      "Ġzusatzlich": 6582,
      "Ġgewesen": 6583,
      "Ġfreiz": 6584,
      "hafte": 6585,
      "Ġauszu": 6586,
      "Ġhonour": 6587,
      "Ġprime": 6588,
      "Ġ194": 6589,
      "Ġseg": 6590,
      "Ġmethods": 6591,
      "Ġzahlreichen": 6592,
      "Ġwood": 6593,
      "Ġextent": 6594,
      "mand": 6595,
      "kontro": 6596,
      "can": 6597,
      "pra": 6598,
      "Ġzweck": 6599,
      "Ġones": 6600,
      "Ġcham": 6601,
      "Ġkitchen": 6602,
      "Ġausgezeichnet": 6603,
      "Ġerhol": 6604,
      "ius": 6605,
      "Ġanc": 6606,
      "Ġhomepage": 6607,
      "pool": 6608,
      "Ġil": 6609,
      "Ġtransparent": 6610,
      "cepted": 6611,
      "Ġbusinesses": 6612,
      "Ġchamp": 6613,
      "flache": 6614,
      "Ġkrank": 6615,
      "Ġkompet": 6616,
      "Ġschutzen": 6617,
      "Ġincor": 6618,
      "lim": 6619,
      "ĠgroÃŁte": 6620,
      "Ġcompetit": 6621,
      "Ġfirmen": 6622,
      "Ġprovider": 6623,
      "Ġgoogle": 6624,
      "Ġbegan": 6625,
      "ÂŃ": 6626,
      "Ġzuver": 6627,
      "Ġstrategic": 6628,
      "Ġjohn": 6629,
      "Ġspecif": 6630,
      "Ġconcentr": 6631,
      "Ġcurrency": 6632,
      "utive": 6633,
      "Ġrub": 6634,
      "Ġcontro": 6635,
      "Ġbetriebs": 6636,
      "Ġseason": 6637,
      "Ġgeorg": 6638,
      "Ġspanien": 6639,
      "bericht": 6640,
      "nungs": 6641,
      "Ġletzte": 6642,
      "ault": 6643,
      "Ġstets": 6644,
      "Ġaspekte": 6645,
      "Ġvergangenheit": 6646,
      "Ġvul": 6647,
      "}}": 6648,
      "Ġkunstler": 6649,
      "Ġada": 6650,
      "Ġfederal": 6651,
      "Ġapprec": 6652,
      "iling": 6653,
      "izing": 6654,
      "Ġbanks": 6655,
      "Ġhistorischen": 6656,
      "Ġdelegation": 6657,
      "Ġmur": 6658,
      "bung": 6659,
      "zul": 6660,
      "Ġire": 6661,
      "Ġklass": 6662,
      "Ġkontext": 6663,
      "rate": 6664,
      "Ġmedical": 6665,
      "Ġtraffic": 6666,
      "Ġwanted": 6667,
      "Ġterrorismus": 6668,
      "cul": 6669,
      "oder": 6670,
      "grundet": 6671,
      "Ġbars": 6672,
      "nel": 6673,
      "Ġrob": 6674,
      "izes": 6675,
      "legten": 6676,
      "Ġanstreng": 6677,
      "Ġjeweiligen": 6678,
      "Ġerinnern": 6679,
      "Ġinvestig": 6680,
      "Ġverpflichtet": 6681,
      "Ġsectors": 6682,
      "Ġdatab": 6683,
      "Ġchinese": 6684,
      "',": 6685,
      "Ġrecover": 6686,
      "elines": 6687,
      "Ġverantwortlich": 6688,
      "erungen": 6689,
      "ries": 6690,
      "setzt": 6691,
      "Ġexerc": 6692,
      "Ġbeginnen": 6693,
      "Ġgetroffen": 6694,
      "Ġmodell": 6695,
      "Ġcatal": 6696,
      "Ġgross": 6697,
      "Ġrepresentatives": 6698,
      "Ġwild": 6699,
      "Ġseines": 6700,
      "Ġvorbe": 6701,
      "Ġreflect": 6702,
      "Ġopfer": 6703,
      "Ġborders": 6704,
      "Ġfrankfur": 6705,
      "kle": 6706,
      "Ġgn": 6707,
      "ibe": 6708,
      "Ġunten": 6709,
      "Ð³": 6710,
      "Ġvollstandig": 6711,
      "Ġentgegen": 6712,
      "rant": 6713,
      "Ġaccepted": 6714,
      "zwe": 6715,
      "Ġfields": 6716,
      "Ġmanager": 6717,
      "Ġabsolutely": 6718,
      "Ġmanufactur": 6719,
      "Ġprocessing": 6720,
      "Ġmodernen": 6721,
      "Ġintervention": 6722,
      "Ġhause": 6723,
      "meer": 6724,
      "arian": 6725,
      "Ġphilosoph": 6726,
      "Ġendlich": 6727,
      "Ġseparate": 6728,
      "Ġsurpr": 6729,
      "Ġreag": 6730,
      "Ġstudio": 6731,
      "Ġ1996": 6732,
      "Ġschritte": 6733,
      "estens": 6734,
      "Ġdol": 6735,
      "Ġpersonlichen": 6736,
      "Ġsimpl": 6737,
      "Ġopening": 6738,
      "Ġfreien": 6739,
      "Ġgenug": 6740,
      "Ġdemokratischen": 6741,
      "Ġreception": 6742,
      "Ġelectronic": 6743,
      "Ġtrying": 6744,
      "Ġfolgt": 6745,
      "orsitz": 6746,
      "Ġherunter": 6747,
      "Ġsubstant": 6748,
      "Ġvorgehen": 6749,
      "verage": 6750,
      "aint": 6751,
      "Ġstudents": 6752,
      "Ġjeg": 6753,
      "Ġaktual": 6754,
      "Ġprefer": 6755,
      "Ġfinanziellen": 6756,
      "Ġplatform": 6757,
      "last": 6758,
      "vollen": 6759,
      "Ġoccup": 6760,
      "comm": 6761,
      "Ġaccession": 6762,
      "Ġethn": 6763,
      "Ġguter": 6764,
      "Ġspl": 6765,
      "Ġfla": 6766,
      "Ġfresh": 6767,
      "systeme": 6768,
      "Ġserb": 6769,
      "Ġperspect": 6770,
      "Ġargument": 6771,
      "ĠabschlieÃŁend": 6772,
      "standing": 6773,
      "Ġbessere": 6774,
      "ox": 6775,
      "Ġprozent": 6776,
      "Ġpolice": 6777,
      "Ġverste": 6778,
      "Ġregierungs": 6779,
      "barer": 6780,
      "Ġrechtsvorschriften": 6781,
      "Ġrussian": 6782,
      "mente": 6783,
      "Ġspect": 6784,
      "Ġeinzu": 6785,
      "Ġsuite": 6786,
      "Ġparteien": 6787,
      "Ġaudit": 6788,
      "lose": 6789,
      "rust": 6790,
      "âĢĿ.": 6791,
      "Ġfahren": 6792,
      "Ġinfluence": 6793,
      "Ġireland": 6794,
      "Ġbos": 6795,
      "Ġbelieb": 6796,
      "Ġleaders": 6797,
      "Ġboden": 6798,
      "ichern": 6799,
      "ming": 6800,
      "âĦ": 6801,
      "Ġproceed": 6802,
      "Ġhafen": 6803,
      "Ġkore": 6804,
      "Ġraised": 6805,
      "kan": 6806,
      "Ġtaus": 6807,
      "losigkeit": 6808,
      "Ġclaim": 6809,
      "altungen": 6810,
      "Ġchines": 6811,
      "Ġerlaubt": 6812,
      "Ġamt": 6813,
      "utze": 6814,
      "oke": 6815,
      "Ġangelegenheit": 6816,
      "Ġheutigen": 6817,
      "Ġcorporate": 6818,
      "Ġscreen": 6819,
      "Ġplanning": 6820,
      "Ġsprachen": 6821,
      "Ġquant": 6822,
      "Ġauth": 6823,
      "ected": 6824,
      "werte": 6825,
      "zeichen": 6826,
      "Ġrestrict": 6827,
      "Ġdistrict": 6828,
      "ĠâĢĶ": 6829,
      "Ġverwaltung": 6830,
      "Ġmitte": 6831,
      "akte": 6832,
      "Ġwebsites": 6833,
      "hilfen": 6834,
      "Ġurg": 6835,
      "Ġflexible": 6836,
      "ĠausschlieÃŁlich": 6837,
      "Ġkorre": 6838,
      "Ġrespekt": 6839,
      "yal": 6840,
      "Ġangelegenheiten": 6841,
      "bezieh": 6842,
      "Ġdelivery": 6843,
      "Ġeinwander": 6844,
      "Ġempfang": 6845,
      "Ġschwierigkeiten": 6846,
      "Ġhosp": 6847,
      "Ġherausforderungen": 6848,
      "mas": 6849,
      "Ġmotion": 6850,
      "Ġsorg": 6851,
      "strategie": 6852,
      "Ġbedro": 6853,
      "Ġcities": 6854,
      "Ġprovision": 6855,
      "nach": 6856,
      "ĠÂ«": 6857,
      "Ġdemands": 6858,
      "Ġgraph": 6859,
      "Ġcalls": 6860,
      "eben": 6861,
      "quem": 6862,
      "Ġbitten": 6863,
      "icherung": 6864,
      "Ġberichterstatterin": 6865,
      "Ġnato": 6866,
      "Ġdenken": 6867,
      "Ġpoker": 6868,
      "ky": 6869,
      "Ġannahme": 6870,
      "reise": 6871,
      "Ġnamely": 6872,
      "Ġphone": 6873,
      "âĦ¢": 6874,
      "Ġsubsidiar": 6875,
      "Ġproduktions": 6876,
      "Ġehemal": 6877,
      "ras": 6878,
      "sec": 6879,
      "Ġdefence": 6880,
      "Ġfrag": 6881,
      "Ġeindruck": 6882,
      "Ġexisten": 6883,
      "Ġdisp": 6884,
      "Ġentstehen": 6885,
      "Ġvorge": 6886,
      "Ġerwartet": 6887,
      "akes": 6888,
      "annen": 6889,
      "Ġstarke": 6890,
      "zusetzen": 6891,
      "leistungs": 6892,
      "gebiet": 6893,
      "97": 6894,
      "Ġbenutzen": 6895,
      "Ġsave": 6896,
      "Ġdvd": 6897,
      "prasident": 6898,
      "Ġhervorragen": 6899,
      "Ġversuch": 6900,
      "Ġnegative": 6901,
      "Ġchanged": 6902,
      "Ġevening": 6903,
      "Ġfel": 6904,
      "Ġubernehmen": 6905,
      "Ġwrong": 6906,
      "Ġinitiatives": 6907,
      "Ġprivaten": 6908,
      "Ġeffizient": 6909,
      "Ġpoll": 6910,
      "afft": 6911,
      "Ġscience": 6912,
      "Ġluxem": 6913,
      "Ġ).": 6914,
      "gult": 6915,
      "Ġadministrative": 6916,
      "Ġcentr": 6917,
      "Ġeinrichtung": 6918,
      "Ġfear": 6919,
      "Ġcrime": 6920,
      "ruption": 6921,
      "Ġcomments": 6922,
      "Ġangene": 6923,
      "Ġkompromiss": 6924,
      "Ġ195": 6925,
      "Ġslo": 6926,
      "Ġkonsequ": 6927,
      "Ġrunning": 6928,
      "Ġnationale": 6929,
      "anda": 6930,
      "Ġrenew": 6931,
      "Ġcircumst": 6932,
      "inform": 6933,
      "Ġsetzt": 6934,
      "Ġgoal": 6935,
      "Ġirgend": 6936,
      "olo": 6937,
      "Â´": 6938,
      "entwicklung": 6939,
      "Ġkaum": 6940,
      "Ġbewahr": 6941,
      "Ġelegant": 6942,
      "Ġzusatzliche": 6943,
      "bringen": 6944,
      "Ġdun": 6945,
      "Ġimproved": 6946,
      "Ġhtt": 6947,
      "aters": 6948,
      "Ġgesehen": 6949,
      "Ġfamilies": 6950,
      "Ġbegriff": 6951,
      "fuge": 6952,
      "Ġworked": 6953,
      "Ġtalking": 6954,
      "falle": 6955,
      "Ġsad": 6956,
      "Ġwesentlichen": 6957,
      "Ġdisapp": 6958,
      "Ġblue": 6959,
      "attle": 6960,
      "Ġyourself": 6961,
      "Ġfluss": 6962,
      "ighted": 6963,
      "box": 6964,
      "Ġheard": 6965,
      "Ġspeziell": 6966,
      "Ġbod": 6967,
      "uals": 6968,
      "Ġschm": 6969,
      "iarden": 6970,
      "Ġintended": 6971,
      "Ðº": 6972,
      "Ġbestimmt": 6973,
      "iser": 6974,
      "Ġliz": 6975,
      "Ġsauna": 6976,
      "ocol": 6977,
      "Ġlicht": 6978,
      "Ġoccur": 6979,
      "Ġbehinder": 6980,
      "Ġmulti": 6981,
      "22": 6982,
      "Ġelectric": 6983,
      "Ġdollar": 6984,
      "ev": 6985,
      "hre": 6986,
      "europe": 6987,
      "Ġsektor": 6988,
      "Ġdanach": 6989,
      "Ġexpressed": 6990,
      "Ġautomatically": 6991,
      "rary": 6992,
      "iell": 6993,
      "Ġautomatisch": 6994,
      "Ġentw": 6995,
      "ĠbegruÃŁen": 6996,
      "Ġarbeitsplatze": 6997,
      "Ġafghanistan": 6998,
      "iant": 6999,
      "immern": 7000,
      "Ġlaws": 7001,
      "Ġbrowser": 7002,
      "Ġverfassung": 7003,
      "handel": 7004,
      "isely": 7005,
      "ĠgroÃŁere": 7006,
      "Ġdarstellt": 7007,
      "Ġplaced": 7008,
      "Ġparliamentary": 7009,
      "Ġability": 7010,
      "Ġunbe": 7011,
      "Ġsole": 7012,
      "Ġcommitted": 7013,
      "Ġverur": 7014,
      "Ġverwir": 7015,
      "hood": 7016,
      "Ġminute": 7017,
      "Ġusually": 7018,
      "Ġkenn": 7019,
      "Ġferner": 7020,
      "scht": 7021,
      "poses": 7022,
      "bad": 7023,
      "Ġalone": 7024,
      "Â²": 7025,
      "Ġaktuelle": 7026,
      "Ġphotos": 7027,
      "Ġantrag": 7028,
      "Ġmainly": 7029,
      "Ġbesonderen": 7030,
      "omb": 7031,
      "Ġeindeutig": 7032,
      "Ġhit": 7033,
      "acc": 7034,
      "Ġaqu": 7035,
      "Ġtransform": 7036,
      "Ġinfrastructure": 7037,
      "//": 7038,
      "bald": 7039,
      "su": 7040,
      "anlagen": 7041,
      "Ġbilden": 7042,
      "Ġmedizin": 7043,
      "lieÃŁen": 7044,
      "Ġcriminal": 7045,
      "Ġspecifically": 7046,
      "Ġmeter": 7047,
      "Ġgleiche": 7048,
      "umin": 7049,
      "struktur": 7050,
      "Ġnorm": 7051,
      "Ġsolar": 7052,
      "Ġsuitable": 7053,
      "Ġconfirm": 7054,
      "Ġvorzu": 7055,
      "Ġtrust": 7056,
      "Ġausgang": 7057,
      "Ġcoordin": 7058,
      "Ġentschieden": 7059,
      "Ġbenutzt": 7060,
      "Ġdead": 7061,
      "Ġmm": 7062,
      "Ġauss": 7063,
      "Ġdringend": 7064,
      "Ġmoglicherweise": 7065,
      "Ġhear": 7066,
      "bourg": 7067,
      "polit": 7068,
      "yer": 7069,
      "schnitt": 7070,
      "flug": 7071,
      "Ġunemployment": 7072,
      "Ġoly": 7073,
      "tellten": 7074,
      "Ġcontem": 7075,
      "Ġleute": 7076,
      "ifizierung": 7077,
      "agn": 7078,
      "Ġincreasingly": 7079,
      "Ġerleben": 7080,
      "Ġbade": 7081,
      "seite": 7082,
      "Ġvolker": 7083,
      "Ġsach": 7084,
      "km": 7085,
      "Ġbequem": 7086,
      "Ġadvanced": 7087,
      "Ġries": 7088,
      "Ġapproved": 7089,
      "Ġplug": 7090,
      "Ġoben": 7091,
      "Ġextend": 7092,
      "stoffe": 7093,
      "fa": 7094,
      "Ġprogra": 7095,
      "umen": 7096,
      "Ġerkennen": 7097,
      "ichtlich": 7098,
      "Ġreforms": 7099,
      "Ġlabor": 7100,
      "Ġvert": 7101,
      "Ġcosta": 7102,
      "Ġdiscrimin": 7103,
      "Ġtatigkeit": 7104,
      "club": 7105,
      "Ġentertain": 7106,
      "Ġsold": 7107,
      "Ġwik": 7108,
      "ny": 7109,
      "Ġremind": 7110,
      "Ġgenutzt": 7111,
      "Ġdecide": 7112,
      "Ġgetting": 7113,
      "Ġ150": 7114,
      "ifying": 7115,
      "aschine": 7116,
      "Ġwhom": 7117,
      "wel": 7118,
      "Ġparticipation": 7119,
      "Ġconclusion": 7120,
      "Ġcircumstances": 7121,
      "Ġleiden": 7122,
      "Ġinside": 7123,
      "Ġinstitutional": 7124,
      "Ġunbedingt": 7125,
      "Ġstraf": 7126,
      "agraph": 7127,
      "Ġzustimmung": 7128,
      "president": 7129,
      "uly": 7130,
      "Ġcamera": 7131,
      "Ġextensive": 7132,
      "Ġappo": 7133,
      "ole": 7134,
      "Ġverpflichtungen": 7135,
      "Ġeingehen": 7136,
      "wagen": 7137,
      "Ġroma": 7138,
      "qualitat": 7139,
      "iles": 7140,
      "Ġwillkommen": 7141,
      "Ġreduced": 7142,
      "Ġholz": 7143,
      "70": 7144,
      "Ġtut": 7145,
      "rieb": 7146,
      "inal": 7147,
      "Ġengagement": 7148,
      "Ġanstrengungen": 7149,
      "Ġgenannt": 7150,
      "ils": 7151,
      "usten": 7152,
      "ahnen": 7153,
      "Ġscope": 7154,
      "Ġaffected": 7155,
      "Ġolymp": 7156,
      "Ġconfidence": 7157,
      "Ġhinweisen": 7158,
      "Ġstorage": 7159,
      "hner": 7160,
      "Ġfax": 7161,
      "acion": 7162,
      "Ġidee": 7163,
      "Ġsupports": 7164,
      "Ġlaut": 7165,
      "ĠausschuÃŁ": 7166,
      "Ġlegitim": 7167,
      "Ġmoral": 7168,
      "pliz": 7169,
      "Ġwahrscheinlich": 7170,
      "Ġfellow": 7171,
      "Ġensuring": 7172,
      "Ġschn": 7173,
      "cd": 7174,
      "Ġwirksam": 7175,
      "Ġisol": 7176,
      "ham": 7177,
      "Ġpicture": 7178,
      "Ġorganisationen": 7179,
      "Ġbeschlossen": 7180,
      "Ġschre": 7181,
      "Ġmindestens": 7182,
      "Ġlehr": 7183,
      "Ġwesentlich": 7184,
      "Ġmini": 7185,
      "ray": 7186,
      "hold": 7187,
      "Ġcompl": 7188,
      "Ġoperations": 7189,
      "Ġsym": 7190,
      "Ġanerkennung": 7191,
      "Ñĥ": 7192,
      "Ġurban": 7193,
      "Ġabschluss": 7194,
      "free": 7195,
      "Ġadjust": 7196,
      "gn": 7197,
      "Ġentspricht": 7198,
      "Ġhttp": 7199,
      "Ġpowerful": 7200,
      "Ġrise": 7201,
      "quate": 7202,
      "Ġpension": 7203,
      "Ġfinn": 7204,
      "time": 7205,
      "ania": 7206,
      "Ġleav": 7207,
      "Ġtau": 7208,
      "Ġveroffentlich": 7209,
      "Ġzeichen": 7210,
      "now": 7211,
      "Ġnetworks": 7212,
      "Ġpriorities": 7213,
      "Ġdetailed": 7214,
      "cles": 7215,
      "Ġpartnerschaft": 7216,
      "Ġforest": 7217,
      "Ġuberzeugt": 7218,
      "Ġkreat": 7219,
      "Ġwonderful": 7220,
      "Ġhochwert": 7221,
      "Ġrand": 7222,
      "Ġdritten": 7223,
      "Ġgemut": 7224,
      "Ġzone": 7225,
      "Ġmov": 7226,
      "Ġgesetzt": 7227,
      "Ġguide": 7228,
      "Ġsalz": 7229,
      "Ġtief": 7230,
      "Ġdepos": 7231,
      "pa": 7232,
      "Ġspacious": 7233,
      "inens": 7234,
      "uk": 7235,
      "Ġandererseits": 7236,
      "Ġcontribute": 7237,
      "Ġanimals": 7238,
      "Ġaw": 7239,
      "Ġsays": 7240,
      "Ġvictims": 7241,
      "**": 7242,
      "Ġsobald": 7243,
      "Ġfischerei": 7244,
      "Ġprograms": 7245,
      "Ġpartei": 7246,
      "Ġvorgelegt": 7247,
      "stande": 7248,
      "endence": 7249,
      "Ġhum": 7250,
      "enty": 7251,
      "Ġimag": 7252,
      "Ġflucht": 7253,
      "âĢľ.": 7254,
      "Ġtie": 7255,
      "Ġdor": 7256,
      "ĠentschlieÃŁungsant": 7257,
      "Ġimmigration": 7258,
      "Ġberucksichtigen": 7259,
      "Ġguidelines": 7260,
      "Ġassessment": 7261,
      "Ġgesche": 7262,
      "Ġluxur": 7263,
      "Ġcze": 7264,
      "Ġpromotion": 7265,
      "Ġsicherlich": 7266,
      "institution": 7267,
      "Ġ1990": 7268,
      "Ġdurchfuhrung": 7269,
      "Ġtelephone": 7270,
      "Ġabzu": 7271,
      "Ġzeitraum": 7272,
      "Ġfunctions": 7273,
      "Ġbuffet": 7274,
      "tert": 7275,
      "Ġbetracht": 7276,
      "Ġwand": 7277,
      "Ġvereinbarung": 7278,
      "Ġphp": 7279,
      "Ġentsprechende": 7280,
      "Ġadapt": 7281,
      "Ġanp": 7282,
      "Ġentry": 7283,
      "losung": 7284,
      "âĢĿ,": 7285,
      "Ġangegeben": 7286,
      "Ġthousands": 7287,
      "artigen": 7288,
      "Ġencourage": 7289,
      "Ġ45": 7290,
      "ull": 7291,
      "Ġunterschiedlichen": 7292,
      "Ġlandsc": 7293,
      "Ġladen": 7294,
      "gruppen": 7295,
      "urses": 7296,
      "Ġmist": 7297,
      "etten": 7298,
      "Ġexhibition": 7299,
      "Ġphotograph": 7300,
      "Ġverfugbar": 7301,
      "Ġplayed": 7302,
      "sektor": 7303,
      "Ġshops": 7304,
      "Ġalte": 7305,
      "zeigen": 7306,
      "://": 7307,
      "Ġgezeigt": 7308,
      "Ġbelar": 7309,
      "brit": 7310,
      "Ġtrotzdem": 7311,
      "laufen": 7312,
      "Ġprecisely": 7313,
      "Ġbelong": 7314,
      "iano": 7315,
      "Ġbegrenz": 7316,
      "Ġsources": 7317,
      "spunkt": 7318,
      "Ġglobalen": 7319,
      "elte": 7320,
      "hel": 7321,
      "Ġwaffen": 7322,
      "Ġstudies": 7323,
      "ores": 7324,
      "Ġzuletzt": 7325,
      "preis": 7326,
      "endet": 7327,
      "Ġ\"...": 7328,
      "Ġkriterien": 7329,
      "chtet": 7330,
      "Ġade": 7331,
      "cers": 7332,
      "Ġdispos": 7333,
      "zuglich": 7334,
      "hagen": 7335,
      "Ġgeeignet": 7336,
      "Ġlarger": 7337,
      "Ġfro": 7338,
      "Ġberichte": 7339,
      "Ġschem": 7340,
      "Ġexactly": 7341,
      "Ġparagraph": 7342,
      "Ġosten": 7343,
      "fuhrer": 7344,
      "band": 7345,
      "Ġ;": 7346,
      "management": 7347,
      "haften": 7348,
      "Ġfordert": 7349,
      "Ġausbildung": 7350,
      "Ġanalyse": 7351,
      "Ġentweder": 7352,
      "Ġpaul": 7353,
      "Ġintroduced": 7354,
      "96": 7355,
      "Ġdedic": 7356,
      "aming": 7357,
      "Ġpurposes": 7358,
      "Ġbott": 7359,
      "Ġcomput": 7360,
      "90": 7361,
      "inian": 7362,
      "Ġmetro": 7363,
      "Ġdirector": 7364,
      "Ġprotected": 7365,
      "Ġanyone": 7366,
      "Ġforget": 7367,
      "uft": 7368,
      "Ġfinanzielle": 7369,
      "not": 7370,
      "Ġmanaged": 7371,
      "Ġmehreren": 7372,
      "inar": 7373,
      "Ġtabled": 7374,
      "Ġdefend": 7375,
      "Ġerstellen": 7376,
      "Ġimpress": 7377,
      "arge": 7378,
      "Ġregret": 7379,
      "Ġquar": 7380,
      "Ġwundersch": 7381,
      "Ġeffectively": 7382,
      "rahmen": 7383,
      "Ġcompetitive": 7384,
      "enter": 7385,
      "Ġgering": 7386,
      "Ġresidence": 7387,
      "mitglied": 7388,
      "Ġconvenient": 7389,
      "ifik": 7390,
      "Ġnorthern": 7391,
      "Ġtranslation": 7392,
      "kap": 7393,
      "Ġmund": 7394,
      "Ġmitteilung": 7395,
      "Ġprufen": 7396,
      "Ġball": 7397,
      "Ġstrom": 7398,
      "ci": 7399,
      "Ġhochst": 7400,
      "Ġconstruct": 7401,
      "angs": 7402,
      "ologischen": 7403,
      "Ġgenerally": 7404,
      "Ġsehens": 7405,
      "Ġintroduction": 7406,
      "ta": 7407,
      "Ġangel": 7408,
      "Ġdiskrimin": 7409,
      "Ġverletz": 7410,
      "werke": 7411,
      "Ġserved": 7412,
      "lying": 7413,
      "lan": 7414,
      "Ġasia": 7415,
      "Ġexclusive": 7416,
      "Ġhoffen": 7417,
      "Ġtechnische": 7418,
      "Ġmechanis": 7419,
      "Ġvorteile": 7420,
      "Ġverwaltungs": 7421,
      "Ġdiscussions": 7422,
      "Ġaimed": 7423,
      "Ġaustral": 7424,
      "Ġfrankfurt": 7425,
      "Ġsitting": 7426,
      "Ġearlier": 7427,
      "Ġimper": 7428,
      "Ġkingdom": 7429,
      "Ġumge": 7430,
      "Ġjene": 7431,
      "Ġerwahnt": 7432,
      "Ġlegen": 7433,
      "Ġrisks": 7434,
      "Ġhintergrund": 7435,
      "Ġdeclar": 7436,
      "itten": 7437,
      "ingu": 7438,
      "Ġrig": 7439,
      "Ġserve": 7440,
      "Ġreferred": 7441,
      "verkehrs": 7442,
      "Ġweap": 7443,
      "Ġobser": 7444,
      "zeichnen": 7445,
      "Ġtheor": 7446,
      "Ġmanch": 7447,
      "Ġinhalte": 7448,
      "konferenz": 7449,
      "Ġakzeptieren": 7450,
      "Ġilleg": 7451,
      "erstellen": 7452,
      "Ġvotes": 7453,
      "Ġky": 7454,
      "ova": 7455,
      "Ġmetres": 7456,
      "Ġmotiv": 7457,
      "Ġanimal": 7458,
      "Ġdevelopments": 7459,
      "Ġestate": 7460,
      "ida": 7461,
      "Ġgesprochen": 7462,
      "Ġaufzu": 7463,
      "ael": 7464,
      "Ġspread": 7465,
      "Ġbag": 7466,
      "Ġkatastrop": 7467,
      "Ġcheap": 7468,
      "Ġremark": 7469,
      "ieter": 7470,
      "har": 7471,
      "Ġindia": 7472,
      "Ġkostenlos": 7473,
      "Ġangesprochen": 7474,
      "itzerland": 7475,
      "Ġsle": 7476,
      "Ġbib": 7477,
      "Ġerleich": 7478,
      "Ġcritical": 7479,
      "Ġexpand": 7480,
      "Ġfounded": 7481,
      "Ġmangel": 7482,
      "ervice": 7483,
      "Ġcuis": 7484,
      "Ġkonflikt": 7485,
      "icks": 7486,
      "Ġczech": 7487,
      "Ġib": 7488,
      "Ġministers": 7489,
      "Ġantworten": 7490,
      "icip": 7491,
      "Ġmeetings": 7492,
      "Ġbecoming": 7493,
      "cluded": 7494,
      "Ġunderstanding": 7495,
      "Ġrepres": 7496,
      "Ġbesucher": 7497,
      "Ġmio": 7498,
      "Ġzuverlass": 7499,
      "Ġcomment": 7500,
      "Ġenterprises": 7501,
      "Ġeingerichtet": 7502,
      "Ġrefuge": 7503,
      "tete": 7504,
      "rankungen": 7505,
      "Ġstated": 7506,
      "Ġselected": 7507,
      "Ġbeauty": 7508,
      "Ġpakistan": 7509,
      "Ġlobby": 7510,
      "Ġdarunter": 7511,
      "Ġexperts": 7512,
      "Ġsicherzustellen": 7513,
      "Ġrepresents": 7514,
      "Ġsnow": 7515,
      "Ġreformen": 7516,
      "called": 7517,
      "ompan": 7518,
      "Ġerf": 7519,
      "Ġwants": 7520,
      "Ġdoor": 7521,
      "Ġacqu": 7522,
      "Ġ1995": 7523,
      "iums": 7524,
      "Ġkarte": 7525,
      "Ġow": 7526,
      "schul": 7527,
      "Ġcorresp": 7528,
      "Ġbush": 7529,
      "satze": 7530,
      "Ġtrave": 7531,
      "zieht": 7532,
      "Ġgriechen": 7533,
      "las": 7534,
      "Ġ2020": 7535,
      "Ġnar": 7536,
      "Ġbestehenden": 7537,
      "aria": 7538,
      "Ġactual": 7539,
      "02": 7540,
      "Ġlosen": 7541,
      "Ġduty": 7542,
      "oto": 7543,
      "Ġexpens": 7544,
      "Ġgenehm": 7545,
      "Ġtod": 7546,
      "Ġdiscussed": 7547,
      "Ġkommunikation": 7548,
      "Ġausgaben": 7549,
      "Ġhop": 7550,
      "Ġopened": 7551,
      "Ġbeds": 7552,
      "Ġcovered": 7553,
      "Â°": 7554,
      "tritt": 7555,
      "Ġspat": 7556,
      "Ġcore": 7557,
      "Ġanderes": 7558,
      "Ġlisted": 7559,
      "Ġlikely": 7560,
      "'ll": 7561,
      "Ġcab": 7562,
      "Ġaufnahme": 7563,
      "service": 7564,
      "Ġanspruch": 7565,
      "Ġdebt": 7566,
      "Ġerzielt": 7567,
      "Ġtests": 7568,
      "Ġpalastinens": 7569,
      "Ġklim": 7570,
      "Ġlam": 7571,
      "Ġnom": 7572,
      "Ġagen": 7573,
      "Ġbuildings": 7574,
      "Ġdagegen": 7575,
      "rum": 7576,
      "ago": 7577,
      "Ġvoice": 7578,
      "rete": 7579,
      "fahrens": 7580,
      "jected": 7581,
      "Ġhardware": 7582,
      "Ġfinance": 7583,
      "Ġreserve": 7584,
      "Ġvereinten": 7585,
      "Ġscen": 7586,
      "after": 7587,
      "Ġcompar": 7588,
      "Ġmonat": 7589,
      "Ġwander": 7590,
      "iede": 7591,
      "Ġpfl": 7592,
      "Ġimproving": 7593,
      "uben": 7594,
      "Ġpurchase": 7595,
      "oon": 7596,
      "Ġgern": 7597,
      "Ġnation": 7598,
      "Ġvermeiden": 7599,
      "Ġbru": 7600,
      "schau": 7601,
      "Ġ32": 7602,
      "atischen": 7603,
      "Ġunless": 7604,
      "Ġergreifen": 7605,
      "Ġkenntnis": 7606,
      "Ġsuche": 7607,
      "Ġpleasant": 7608,
      "Ġerganz": 7609,
      "wun": 7610,
      "Ġfestgelegt": 7611,
      "Ġbraucht": 7612,
      "Ġcomponents": 7613,
      "amente": 7614,
      "laut": 7615,
      "Ġobviously": 7616,
      "Ġconnect": 7617,
      "ker": 7618,
      "Ġexpected": 7619,
      "Ġmilliarden": 7620,
      "Ġhaltung": 7621,
      "Ġparalle": 7622,
      "Ġnotwendigen": 7623,
      "Ġcastle": 7624,
      "utzung": 7625,
      "Ġvalley": 7626,
      "Ġbetrieb": 7627,
      "Ġsupporting": 7628,
      "Ġjose": 7629,
      "Ġinformieren": 7630,
      "Ġsamtliche": 7631,
      "Ġvolle": 7632,
      "alled": 7633,
      "Ġtaste": 7634,
      "union": 7635,
      "Ġlinked": 7636,
      "mine": 7637,
      "Ġumgesetzt": 7638,
      "Ġfollowed": 7639,
      "car": 7640,
      "Ġdestro": 7641,
      "Ġfebruary": 7642,
      "Ġexplo": 7643,
      "stimmung": 7644,
      "Ġgeandert": 7645,
      "Ġgeograph": 7646,
      "categories": 7647,
      "Ġislands": 7648,
      "Ġfein": 7649,
      "Ġ?": 7650,
      "Ġdienen": 7651,
      "Ġclosely": 7652,
      "Ġstable": 7653,
      "Ġhands": 7654,
      "wesen": 7655,
      "iding": 7656,
      "Ġcuisine": 7657,
      "Ġbear": 7658,
      "Ġtelevision": 7659,
      "ummer": 7660,
      "Ġnachste": 7661,
      "Ġjederzeit": 7662,
      "urt": 7663,
      "Ġerfullt": 7664,
      "Ġroute": 7665,
      "anne": 7666,
      "Ġmountains": 7667,
      "Ġitems": 7668,
      "Ġspeech": 7669,
      "Ġcoordination": 7670,
      "Ġverbreit": 7671,
      "Ġschwierig": 7672,
      "Ġfixed": 7673,
      "Ġsale": 7674,
      "Ġsauber": 7675,
      "Ġexter": 7676,
      "Ġspring": 7677,
      "Ġelimin": 7678,
      "aler": 7679,
      "Ġshower": 7680,
      "Ġeinzus": 7681,
      "Ġveget": 7682,
      "Ġarten": 7683,
      "itate": 7684,
      "Ġbeziehen": 7685,
      "Ġsouthern": 7686,
      "Ġwettbewerbsfahigkeit": 7687,
      "Ġdegree": 7688,
      "Ġromant": 7689,
      "ureau": 7690,
      "Ġzeich": 7691,
      "Ġunterkategorien": 7692,
      "reiber": 7693,
      "ĠstraÃŁe": 7694,
      "Ġdatei": 7695,
      "Ġstuck": 7696,
      "regel": 7697,
      "Ġcoffee": 7698,
      "Ġcompens": 7699,
      "Ġreject": 7700,
      "Ġorganization": 7701,
      "Ġgegenseit": 7702,
      "Ġtypical": 7703,
      "Ġzuvor": 7704,
      "Ġtechnologien": 7705,
      "Ġrichtlinien": 7706,
      "ikanischen": 7707,
      "Ġausger": 7708,
      "Ġspeaking": 7709,
      "Ġfunktionen": 7710,
      "Ġlauf": 7711,
      "Ġmemory": 7712,
      "Ġbeitritts": 7713,
      "mel": 7714,
      "Ġgovernance": 7715,
      "kra": 7716,
      "Ġplaying": 7717,
      "Ġgradu": 7718,
      "Ġprodukten": 7719,
      "auber": 7720,
      "Ġmonate": 7721,
      "Ġautor": 7722,
      "mode": 7723,
      "luck": 7724,
      "Ġrepresentative": 7725,
      "lebr": 7726,
      "Ġvideos": 7727,
      "Ġmachines": 7728,
      "Ġcards": 7729,
      "Ġgewinn": 7730,
      "britann": 7731,
      "Ġuses": 7732,
      "Ġpalace": 7733,
      "atively": 7734,
      "Ġteilweise": 7735,
      "Ġcompetitiveness": 7736,
      "Ġbug": 7737,
      "Ġgutes": 7738,
      "Ġrailway": 7739,
      "ena": 7740,
      "Ġwire": 7741,
      "Ġconsiderable": 7742,
      "richtlinie": 7743,
      "meld": 7744,
      "Ġalbum": 7745,
      "either": 7746,
      "Ġwent": 7747,
      "Ġgebieten": 7748,
      "Ġswitzerland": 7749,
      "Ġcopyr": 7750,
      "Ġverbessert": 7751,
      "Ġgegenwartig": 7752,
      "Ġresist": 7753,
      "ensions": 7754,
      "Ġtenn": 7755,
      "Ġtrading": 7756,
      "Ġfortschritt": 7757,
      "iler": 7758,
      "zz": 7759,
      "Ġdramat": 7760,
      "tausch": 7761,
      "Ġsto": 7762,
      "Ġwelcher": 7763,
      "tv": 7764,
      "Ġpermanent": 7765,
      "Ġinfrastruktur": 7766,
      "Ġbehav": 7767,
      "Ġdatabase": 7768,
      "Ġcontra": 7769,
      "Ġkindern": 7770,
      "Ġfen": 7771,
      "aktiv": 7772,
      "Ġsubstantial": 7773,
      "kop": 7774,
      "Ġpolize": 7775,
      "Ġlangen": 7776,
      "Ġobjekt": 7777,
      "jekten": 7778,
      "Ġzweifel": 7779,
      "Ġdateien": 7780,
      "inzip": 7781,
      "Ġstandig": 7782,
      "Ġaccompan": 7783,
      "ete": 7784,
      "ienen": 7785,
      "Ġsorgfalt": 7786,
      "Ġdelay": 7787,
      "Ġgreece": 7788,
      "Ġconduct": 7789,
      "Ġreprodu": 7790,
      "Ġchamber": 7791,
      "Ġincorpor": 7792,
      "spart": 7793,
      "Ġpoten": 7794,
      "trage": 7795,
      "Ġdescription": 7796,
      "Ġvorteil": 7797,
      "Ġstattfinden": 7798,
      "svorsitz": 7799,
      "Ġvertrie": 7800,
      "Ġpresence": 7801,
      "Ġiron": 7802,
      "Ġvernunft": 7803,
      "Ġeinkauf": 7804,
      "hnung": 7805,
      "schung": 7806,
      "Ġstrict": 7807,
      "Ġeingeb": 7808,
      "Ġengineering": 7809,
      "Ġintelle": 7810,
      "freiheit": 7811,
      "Ġdus": 7812,
      "Ġmenschenrechts": 7813,
      "Ġkompon": 7814,
      "Ġjeweils": 7815,
      "Ġeinrichtungen": 7816,
      "zahlt": 7817,
      "station": 7818,
      "Ġentit": 7819,
      "Ġ400": 7820,
      "Ġdritte": 7821,
      "Ġnavig": 7822,
      "karten": 7823,
      "Ġiso": 7824,
      "Ġsuffer": 7825,
      "auÃŁ": 7826,
      "ele": 7827,
      "Ġcooper": 7828,
      "Ġborn": 7829,
      "Ġmenge": 7830,
      "Ġcommand": 7831,
      "Ġunabhangig": 7832,
      "Ġubernachten": 7833,
      "rel": 7834,
      "Ġschlaf": 7835,
      "Ġbutton": 7836,
      "Ġerzielen": 7837,
      "Ġbrussels": 7838,
      "Ġwil": 7839,
      "Ġplants": 7840,
      "Ġausdrucklich": 7841,
      "wahr": 7842,
      "Ġcharter": 7843,
      "Ġbureau": 7844,
      "Ġticket": 7845,
      "35": 7846,
      "Ġgave": 7847,
      "assungs": 7848,
      "Ġhour": 7849,
      "Ġinterface": 7850,
      "Ġupgra": 7851,
      "Ġflash": 7852,
      "Ġcombat": 7853,
      "Ġging": 7854,
      "Ġerfolgen": 7855,
      "Ġcra": 7856,
      "Ġlounge": 7857,
      "ilien": 7858,
      "lav": 7859,
      "Ġproperly": 7860,
      "Ġnetzwerk": 7861,
      "Ġsi": 7862,
      "ala": 7863,
      "Ġgewunsch": 7864,
      "platze": 7865,
      "Ġuna": 7866,
      "Ġdiesel": 7867,
      "Ġterrasse": 7868,
      "Ġarrival": 7869,
      "using": 7870,
      "Ġsuc": 7871,
      "Ġboot": 7872,
      "Ġprivile": 7873,
      "Ġerhohen": 7874,
      "Ġwege": 7875,
      "Ġath": 7876,
      "ruckt": 7877,
      "Ġgelangen": 7878,
      "Ġvehicles": 7879,
      "Ġhouses": 7880,
      "Ġdeswegen": 7881,
      "systems": 7882,
      "year": 7883,
      "aup": 7884,
      "Ġentirely": 7885,
      "Ġgrenz": 7886,
      "Ġexecutive": 7887,
      "Ġedition": 7888,
      "Ġalloc": 7889,
      "Ġvien": 7890,
      "Ġverabschied": 7891,
      "Ġbetroffenen": 7892,
      "yle": 7893,
      "Ġatlant": 7894,
      "Ġangezeigt": 7895,
      "Ġvisa": 7896,
      "Ġenth": 7897,
      "Ġdealing": 7898,
      "mack": 7899,
      "atoren": 7900,
      "Ġancient": 7901,
      "krieg": 7902,
      "Ġpin": 7903,
      "Ġungar": 7904,
      "gers": 7905,
      "ibet": 7906,
      "iguration": 7907,
      "Ġmadrid": 7908,
      "Ġbarro": 7909,
      "Ġtack": 7910,
      "Ġdomestic": 7911,
      "leitung": 7912,
      "Ġimmobilien": 7913,
      "Ġpolitics": 7914,
      "Ġincome": 7915,
      "Ġ--": 7916,
      "Ġsonn": 7917,
      "Ġwilling": 7918,
      "stechn": 7919,
      "ode": 7920,
      "Ġfacing": 7921,
      "schlieÃŁen": 7922,
      "wohner": 7923,
      "Ġthinking": 7924,
      "Ġniemand": 7925,
      "Ġbeseit": 7926,
      "Ġglob": 7927,
      "Ġverlassen": 7928,
      "Ġzentrale": 7929,
      "Ġpractices": 7930,
      "Ġmusste": 7931,
      "ĠgroÃŁbritann": 7932,
      "Ġwien": 7933,
      "Ġsaint": 7934,
      "Ġbelarus": 7935,
      "Ġod": 7936,
      "Ġflexibility": 7937,
      "Ġschreiben": 7938,
      "ader": 7939,
      "Ġesc": 7940,
      "clude": 7941,
      "Ġerstellt": 7942,
      "Ġsagt": 7943,
      "Ġbenach": 7944,
      "vey": 7945,
      "Ġuniversal": 7946,
      "Ġbeachten": 7947,
      "schrift": 7948,
      "Ġsonnen": 7949,
      "Ġabsolut": 7950,
      "Ġneither": 7951,
      "Ġcelebr": 7952,
      "Ġhunder": 7953,
      "Ġalliance": 7954,
      "Ġdifficulties": 7955,
      "Ġfunktioniert": 7956,
      "instr": 7957,
      "Ġfan": 7958,
      "etze": 7959,
      "pper": 7960,
      "Ġklare": 7961,
      "Ġfailure": 7962,
      "card": 7963,
      "Ġgekommen": 7964,
      "Ġwollte": 7965,
      "Ġorganiz": 7966,
      "Ġbeitritt": 7967,
      "dule": 7968,
      "Ġabsatz": 7969,
      "Ġreferend": 7970,
      "war": 7971,
      "Ð²": 7972,
      "Ġeisen": 7973,
      "gebaut": 7974,
      "Ġadoption": 7975,
      "Ġnumbers": 7976,
      "Ġbanken": 7977,
      "Ġpeaceful": 7978,
      "zust": 7979,
      "Ġreicht": 7980,
      "Ġbaum": 7981,
      "Ġdesk": 7982,
      "Ġsysteme": 7983,
      "Ġuniversitat": 7984,
      "Ġlearning": 7985,
      "ae": 7986,
      "quality": 7987,
      "Ġglass": 7988,
      "Ġrecognis": 7989,
      "Ġtsche": 7990,
      "Ġindustries": 7991,
      "Ġklimawand": 7992,
      "Ġarchitecture": 7993,
      "45": 7994,
      "Ġaverage": 7995,
      "Ġmagaz": 7996,
      "Ġbetonen": 7997,
      "Ġreisen": 7998,
      "Ġcars": 7999,
      "Ġlift": 8000,
      "Ġmaschinen": 8001,
      "Ġkommenden": 8002,
      "Ġpoland": 8003,
      "Ġsou": 8004,
      "was": 8005,
      "Ġmutter": 8006,
      "punkte": 8007,
      "Ġtoler": 8008,
      "Ġdarstellen": 8009,
      "letter": 8010,
      "Ġfischere": 8011,
      "Ġstore": 8012,
      "luÃŁ": 8013,
      "enhagen": 8014,
      "Ġestablishment": 8015,
      "Ġrisiko": 8016,
      "Ġfill": 8017,
      "gewicht": 8018,
      "govern": 8019,
      "Ġleistungen": 8020,
      "Ġvent": 8021,
      "idents": 8022,
      "Ġstein": 8023,
      "Ġpositiv": 8024,
      "Ġdiss": 8025,
      "Ġwom": 8026,
      "Ġecu": 8027,
      "Ġgeschehen": 8028,
      "asts": 8029,
      "Ġmodels": 8030,
      "Ġsiehe": 8031,
      "Ġmanchmal": 8032,
      "Ġlif": 8033,
      "Ġrelate": 8034,
      "Ġconsideration": 8035,
      "herstell": 8036,
      "Ġinstrumente": 8037,
      "Ġbol": 8038,
      "Ġlokalen": 8039,
      "Â»": 8040,
      "Ġveranderungen": 8041,
      "osed": 8042,
      "achs": 8043,
      "Ġunit": 8044,
      "Ġcub": 8045,
      "Ġwebseite": 8046,
      "macht": 8047,
      "ypt": 8048,
      "Ġsamm": 8049,
      "Ġnachfolgend": 8050,
      "Ġstatements": 8051,
      "Ġgraf": 8052,
      "Ġprofitieren": 8053,
      "Ġlandschaft": 8054,
      "2000": 8055,
      "ria": 8056,
      "Ġformen": 8057,
      "Ġgipfel": 8058,
      "Ġabwe": 8059,
      "Ġeinver": 8060,
      "Ġentschlossen": 8061,
      "ura": 8062,
      "Ġpercent": 8063,
      "Ġdienste": 8064,
      "Ġinitiativen": 8065,
      "01": 8066,
      "Ġsession": 8067,
      "dp": 8068,
      "tran": 8069,
      "Ġangriff": 8070,
      "Ġhalb": 8071,
      "Ġpositions": 8072,
      "kel": 8073,
      "Ġpraz": 8074,
      "Ġstatist": 8075,
      "Ġinstitute": 8076,
      "Ġpersonlich": 8077,
      "Ġanteil": 8078,
      "like": 8079,
      "Ġeiniger": 8080,
      "imb": 8081,
      "Ġkritik": 8082,
      "Ġstory": 8083,
      "code": 8084,
      "Ġkonkrete": 8085,
      "Ġfebruar": 8086,
      "Ġpara": 8087,
      "Ġbern": 8088,
      "Ġkro": 8089,
      "lern": 8090,
      "Ġapplies": 8091,
      "Ġmoglichst": 8092,
      "Ġack": 8093,
      "Ġobserv": 8094,
      "chem": 8095,
      "Ġmp": 8096,
      "Ġacadem": 8097,
      "Ġapproxim": 8098,
      "Ġdaraus": 8099,
      "ishes": 8100,
      "Ġhinzufugen": 8101,
      "Ġabgeordnete": 8102,
      "anb": 8103,
      "Ġgewiss": 8104,
      "Ġmax": 8105,
      "portion": 8106,
      "Ġwunsche": 8107,
      "Ġmarg": 8108,
      "ield": 8109,
      "ashion": 8110,
      "Ġmagn": 8111,
      "Ġubergang": 8112,
      "Ġbecomes": 8113,
      "Ġkurze": 8114,
      "pol": 8115,
      "Ġgir": 8116,
      "Ġchan": 8117,
      "Ġzugleich": 8118,
      "Ġ),": 8119,
      "Ġluxury": 8120,
      "etic": 8121,
      "Ġfonds": 8122,
      "Ġbodies": 8123,
      "Ġwenigen": 8124,
      "itel": 8125,
      "Ġpromoting": 8126,
      "Ġfinancing": 8127,
      "Ġtold": 8128,
      "Ġpropose": 8129,
      "entions": 8130,
      "Ġassemb": 8131,
      "Ġtrek": 8132,
      "ound": 8133,
      "Ġexcept": 8134,
      "making": 8135,
      "inary": 8136,
      "iking": 8137,
      "zwischen": 8138,
      "imed": 8139,
      "Ġdemocrats": 8140,
      "Ġachtung": 8141,
      "Ġverloren": 8142,
      "Ġinstance": 8143,
      "achtet": 8144,
      "Ġtraum": 8145,
      "Ġforderungen": 8146,
      "Ġfreie": 8147,
      "Ġinsurance": 8148,
      "Ġdach": 8149,
      "Ġdurchaus": 8150,
      "Ġzeiten": 8151,
      "Ġhoren": 8152,
      "ee": 8153,
      "Ġherstellung": 8154,
      "Ġangaben": 8155,
      "Ġmitgliedstaat": 8156,
      "orient": 8157,
      "Ġmatch": 8158,
      "Ġmembership": 8159,
      "Ġausgewo": 8160,
      "Ġperspective": 8161,
      "rik": 8162,
      "Ġeads": 8163,
      "ishing": 8164,
      "Ġexperienced": 8165,
      "Ġnearby": 8166,
      "Ġsucceed": 8167,
      "Ġcourses": 8168,
      "Ġschonen": 8169,
      "Ġhimself": 8170,
      "Ġhumanitarian": 8171,
      "horde": 8172,
      "Ġveroffentlicht": 8173,
      "32": 8174,
      "Ġbee": 8175,
      "Ġuberprufen": 8176,
      "Ġcollabor": 8177,
      "hrase": 8178,
      "Ġerklaren": 8179,
      "Ġwindow": 8180,
      "Ġtragt": 8181,
      "erved": 8182,
      "Ġgeoff": 8183,
      "Ġsell": 8184,
      "ista": 8185,
      "Ġruman": 8186,
      "Ġmigration": 8187,
      "Ġaussicht": 8188,
      "Ġaims": 8189,
      "Ġgegrundet": 8190,
      "Ġherzlich": 8191,
      "Ġgewahrleistet": 8192,
      "Ġalex": 8193,
      "opt": 8194,
      "Ġtrib": 8195,
      "Ġsuites": 8196,
      "erto": 8197,
      "Ġbenotigt": 8198,
      "Ġbarr": 8199,
      "gelt": 8200,
      "Ġlength": 8201,
      "Ġmyself": 8202,
      "Ġeingesch": 8203,
      "mental": 8204,
      "Ġdefined": 8205,
      "Ġnames": 8206,
      "Ġbackground": 8207,
      "Ġsehenswurd": 8208,
      "Ġyester": 8209,
      "Ġparlamentar": 8210,
      "Ġpure": 8211,
      "new": 8212,
      "iques": 8213,
      "Ġcult": 8214,
      "Ġenormous": 8215,
      "Ñı": 8216,
      "itter": 8217,
      "Ġyes": 8218,
      "Ġbezeichnet": 8219,
      "Ġsanta": 8220,
      "Ġeasier": 8221,
      "Ġassociated": 8222,
      "Ġconcrete": 8223,
      "maÃŁen": 8224,
      "Ġparad": 8225,
      "Ġbrussel": 8226,
      "Ġbetrachtet": 8227,
      "itu": 8228,
      "Ġautonom": 8229,
      "Ġhighlight": 8230,
      "Ġhauses": 8231,
      "eiten": 8232,
      "Ġleb": 8233,
      "Ġaccur": 8234,
      "Ġrespond": 8235,
      "Ġunterschiedliche": 8236,
      "Ġacknow": 8237,
      "Ġsigned": 8238,
      "Ġworte": 8239,
      "Ġabgeschlossen": 8240,
      "Ġuntern": 8241,
      "Ġjustiz": 8242,
      "Ġimplementing": 8243,
      "tte": 8244,
      "law": 8245,
      "Ġhospital": 8246,
      "isierten": 8247,
      "Ġfreue": 8248,
      "Ġgrenzu": 8249,
      "Ġtschech": 8250,
      "Ġverehr": 8251,
      "Ġschone": 8252,
      "Ġverfolgen": 8253,
      "sein": 8254,
      "Ġconnected": 8255,
      "ua": 8256,
      "Ġmik": 8257,
      "accept": 8258,
      "Ġstructures": 8259,
      "known": 8260,
      ");": 8261,
      "Ġhaupts": 8262,
      "Ġtennis": 8263,
      "wissen": 8264,
      "atzung": 8265,
      "Ġstran": 8266,
      "Ġeinigung": 8267,
      "Ġimmediate": 8268,
      "Ġinformed": 8269,
      "Ġspielt": 8270,
      "Ġerscheint": 8271,
      "Ġsat": 8272,
      "netz": 8273,
      "Ġgrant": 8274,
      "Ġagencies": 8275,
      "Ġuberall": 8276,
      "Ġseriously": 8277,
      "Ġoffensichtlich": 8278,
      "Ġlizenz": 8279,
      "nam": 8280,
      "Ġkonigreich": 8281,
      "Ġdifferences": 8282,
      "Ġbind": 8283,
      "okraten": 8284,
      "ronom": 8285,
      "Ġadult": 8286,
      "Ġreducing": 8287,
      "Ġregelung": 8288,
      "Ġunto": 8289,
      "Ġherausforderung": 8290,
      "Ġamerikanischen": 8291,
      "Ġshared": 8292,
      "Ġgram": 8293,
      "hy": 8294,
      "arma": 8295,
      "Ġindire": 8296,
      "Ġadvance": 8297,
      "Ġyesterday": 8298,
      "Ġtitel": 8299,
      "Ġjac": 8300,
      "aries": 8301,
      "Ġverlei": 8302,
      "fuhrten": 8303,
      "brauch": 8304,
      "Ġpackages": 8305,
      "fest": 8306,
      "Ġdifference": 8307,
      "igem": 8308,
      "Ġproducers": 8309,
      "Ġratsvorsitz": 8310,
      "Ġkonzentrieren": 8311,
      "čĊ": 8312,
      "Ġevidence": 8313,
      "krise": 8314,
      "Ġwithdra": 8315,
      "Ġpdf": 8316,
      "Ġrechnung": 8317,
      "Ġausges": 8318,
      "erten": 8319,
      "Ġbeaches": 8320,
      "sized": 8321,
      "Ġcred": 8322,
      "Ġrecognition": 8323,
      "Ġseven": 8324,
      "Ġstellungnahme": 8325,
      "Ġbedenken": 8326,
      "Ġgewinnen": 8327,
      "Ġnennen": 8328,
      "Ġklaren": 8329,
      "Ġdorf": 8330,
      "Ġarmen": 8331,
      "Ġpour": 8332,
      "Ġcool": 8333,
      "Ġpic": 8334,
      "arta": 8335,
      "zeichnete": 8336,
      "Ġhoriz": 8337,
      "Ġchap": 8338,
      "Ġprioritaten": 8339,
      "Ġrace": 8340,
      "active": 8341,
      "Ġreservation": 8342,
      "Ġsafegu": 8343,
      "ned": 8344,
      "atik": 8345,
      "Ġcopy": 8346,
      "Ġprivacy": 8347,
      "Ġwahrungs": 8348,
      "Ġterritory": 8349,
      "Ġtickets": 8350,
      "Ð¼": 8351,
      "Ġmesse": 8352,
      "Ġubertragen": 8353,
      "sprogramm": 8354,
      "Ġimpossible": 8355,
      "pendence": 8356,
      "inem": 8357,
      "Ġsteel": 8358,
      "Ġmittelmeer": 8359,
      "]],": 8360,
      "Ġcalling": 8361,
      "Ġeinhaltung": 8362,
      "proble": 8363,
      "Ġcarefully": 8364,
      "Ġappar": 8365,
      "Ġmiteinander": 8366,
      "uv": 8367,
      "Ġmanage": 8368,
      "Ġdelic": 8369,
      "iche": 8370,
      "Ġ2011": 8371,
      "Ġstamm": 8372,
      "Ġkost": 8373,
      "Ġconserv": 8374,
      "Ġcombination": 8375,
      "technik": 8376,
      "Ġpaket": 8377,
      "Ġgenuine": 8378,
      "Ġkirche": 8379,
      "Ġprofess": 8380,
      "Ġowners": 8381,
      "rants": 8382,
      "Ġworksh": 8383,
      "down": 8384,
      "Ġtransition": 8385,
      "Ġchristian": 8386,
      "Ġnahrungs": 8387,
      "Ġappears": 8388,
      "Ġattractive": 8389,
      "Ġgoals": 8390,
      "Ġholidays": 8391,
      "64": 8392,
      "ando": 8393,
      "Ġdry": 8394,
      "Ġverwe": 8395,
      "ĠentschlieÃŁungsantrag": 8396,
      "Ġdepartment": 8397,
      "Ġtaglich": 8398,
      "Ġrang": 8399,
      "Ġchemical": 8400,
      "ascript": 8401,
      "oms": 8402,
      "Ġyouth": 8403,
      "Ġlandwir": 8404,
      "Ġfas": 8405,
      "Ġcompla": 8406,
      "Ġhappened": 8407,
      "zig": 8408,
      "Ġsav": 8409,
      "Ġcombined": 8410,
      "Ġzut": 8411,
      "Ġlen": 8412,
      "Ġdangerous": 8413,
      "Ġaspekt": 8414,
      "uit": 8415,
      "aust": 8416,
      "Ġumfasst": 8417,
      "Ġleistung": 8418,
      "Ġped": 8419,
      "Ġhamburg": 8420,
      "Ġexcess": 8421,
      "Ġendgult": 8422,
      "Ġavailability": 8423,
      "ifiziert": 8424,
      "Ġtruly": 8425,
      "Ġassembly": 8426,
      "Ġjungen": 8427,
      "Ġeuros": 8428,
      "viel": 8429,
      "with": 8430,
      "Ġcondem": 8431,
      "Ġcommunities": 8432,
      "Ġallgemeine": 8433,
      "Ġauseinander": 8434,
      "Ġattach": 8435,
      "iw": 8436,
      "Ġsah": 8437,
      "Ġsorge": 8438,
      "Ġdiskutieren": 8439,
      "Ġunterkunft": 8440,
      "Ġdamals": 8441,
      "Ġmultil": 8442,
      "Ġfruit": 8443,
      "Ġfolgende": 8444,
      "Ġreasonable": 8445,
      "Ġguarantees": 8446,
      "Ġpoly": 8447,
      "ales": 8448,
      "Ġunaccept": 8449,
      "Ġschengen": 8450,
      "auftrag": 8451,
      "Ġdevices": 8452,
      "Ġentertainment": 8453,
      "Ġjack": 8454,
      "Ġexpos": 8455,
      "ategory": 8456,
      "Ġdiscrimination": 8457,
      "Ġrelativ": 8458,
      "Ġcry": 8459,
      "ros": 8460,
      "jahrigen": 8461,
      "Ġapparte": 8462,
      "Ġgult": 8463,
      "folger": 8464,
      "Ġgeleistet": 8465,
      "Ġlesung": 8466,
      "Ġspent": 8467,
      "Ġoccasion": 8468,
      "tenance": 8469,
      "Ġreleased": 8470,
      "Ġfranzosischen": 8471,
      "Ġstol": 8472,
      "Ġideen": 8473,
      "ador": 8474,
      "coming": 8475,
      "Ġlicense": 8476,
      "issionen": 8477,
      "Ġirish": 8478,
      "Ġgolden": 8479,
      "Ġfunktionieren": 8480,
      "04": 8481,
      "Ġjahrhunderts": 8482,
      "Ġspezielle": 8483,
      "door": 8484,
      "Ġtexte": 8485,
      "Ġtasks": 8486,
      "Ġsehenswurdigkeiten": 8487,
      "%.": 8488,
      "icians": 8489,
      "Ġentspannen": 8490,
      "Ġcompared": 8491,
      "Ġpad": 8492,
      "Ġalban": 8493,
      "Ġhersteller": 8494,
      "Ġahead": 8495,
      "opol": 8496,
      "Ġdevice": 8497,
      "etzungen": 8498,
      "Ġausgewahl": 8499,
      "Ġadvertising": 8500,
      "leiten": 8501,
      "Ġfulfil": 8502,
      "iÃŁen": 8503,
      "spruch": 8504,
      "Ġdescribed": 8505,
      "Ġskills": 8506,
      "Ġannounced": 8507,
      "Ġverwirk": 8508,
      "Ġvielzahl": 8509,
      "Ġglas": 8510,
      "Ġgarantiert": 8511,
      "preise": 8512,
      "Ġjavascript": 8513,
      "ologische": 8514,
      "bruch": 8515,
      "Ġcer": 8516,
      "Ġdesire": 8517,
      "Ġbehaup": 8518,
      "Ġrelaxing": 8519,
      "haber": 8520,
      "Ġerforderlichen": 8521,
      "Ġcopyright": 8522,
      "mogen": 8523,
      "uhren": 8524,
      "Ġarbeitet": 8525,
      "Ġms": 8526,
      "cas": 8527,
      "ĠgroÃŁbritannien": 8528,
      "Ġnotice": 8529,
      "Ġruhe": 8530,
      "Ġvielmehr": 8531,
      "Ġfeststellen": 8532,
      "Ġfoto": 8533,
      "Ġentdecken": 8534,
      "Ġtitle": 8535,
      "Ġdete": 8536,
      "Ġcold": 8537,
      "Ġfalsch": 8538,
      "Ġroyal": 8539,
      "Ġcharged": 8540,
      "Ġequality": 8541,
      "Ġtatig": 8542,
      "05": 8543,
      "Ġul": 8544,
      "chtigt": 8545,
      "Ġregistered": 8546,
      "jet": 8547,
      "Ġentdeck": 8548,
      "rest": 8549,
      "Ġfarben": 8550,
      "Ġdomain": 8551,
      "Ġwechsel": 8552,
      "Ġdich": 8553,
      "Ġcontrary": 8554,
      "Ġfigures": 8555,
      "Ġmarkte": 8556,
      "Ġconstitutional": 8557,
      "Ġmichael": 8558,
      "Ġstarkung": 8559,
      "Ġasylum": 8560,
      "Ġconsumption": 8561,
      "versorgung": 8562,
      "Ġfilter": 8563,
      "Ġcontinued": 8564,
      "Ġandre": 8565,
      "Ġwishes": 8566,
      "ensus": 8567,
      "Ġpick": 8568,
      "condition": 8569,
      "european": 8570,
      "west": 8571,
      "Ġpossibilities": 8572,
      "uting": 8573,
      "www": 8574,
      "ror": 8575,
      "Ġanwendungen": 8576,
      "Ġcha": 8577,
      "herr": 8578,
      "Ġclassic": 8579,
      "Ġtheat": 8580,
      "Ġzugriff": 8581,
      "ugos": 8582,
      "Ġsurface": 8583,
      "Ġreligious": 8584,
      "tele": 8585,
      "Ġnaturally": 8586,
      "handels": 8587,
      "straÃŁe": 8588,
      "Ġkommissions": 8589,
      "Ġpred": 8590,
      "Ġgreatest": 8591,
      "Ġkulturellen": 8592,
      "ausschusses": 8593,
      "Ġexklus": 8594,
      "itious": 8595,
      "Ġartists": 8596,
      "road": 8597,
      "uts": 8598,
      "Ġwarten": 8599,
      "ela": 8600,
      "acher": 8601,
      "Ġverhaltnis": 8602,
      "33": 8603,
      "strom": 8604,
      "Ġ00": 8605,
      "Ġmoving": 8606,
      "2001": 8607,
      "Ġparticipate": 8608,
      "schreit": 8609,
      "Ġeinfache": 8610,
      "verein": 8611,
      "Ġtourismus": 8612,
      "Ġprospect": 8613,
      "Ġappeal": 8614,
      "Ġallowing": 8615,
      "Ġfashion": 8616,
      "Ġexpend": 8617,
      "schlage": 8618,
      "Ġclaims": 8619,
      "onia": 8620,
      "Ġarbeitslosigkeit": 8621,
      "Ġhingewiesen": 8622,
      "Ġausreichend": 8623,
      "lager": 8624,
      "75": 8625,
      "Ġmaria": 8626,
      "Ġ1994": 8627,
      "Ġauthent": 8628,
      "etter": 8629,
      "Ġmys": 8630,
      "Ġgestalten": 8631,
      "Ġunacceptable": 8632,
      "ĠâĢ¢": 8633,
      "Ġwiederauf": 8634,
      "Ġexplor": 8635,
      "Ġvari": 8636,
      "Ġgewohn": 8637,
      "ikations": 8638,
      "Ġsteigen": 8639,
      "Ġengland": 8640,
      "Ġlit": 8641,
      "Ġschad": 8642,
      "Ġfotos": 8643,
      "fle": 8644,
      "'re": 8645,
      "Ġpopul": 8646,
      "Ġintroduce": 8647,
      "Ġheimat": 8648,
      "2010": 8649,
      "Ġuberwachung": 8650,
      "raucher": 8651,
      "Ġsurrounded": 8652,
      "table": 8653,
      "ĠgroÃŁes": 8654,
      "Ġmittl": 8655,
      "Ġras": 8656,
      "Ġload": 8657,
      "Ġentwicklungen": 8658,
      "moglich": 8659,
      "Ġbesitzt": 8660,
      "Ġdatenbank": 8661,
      "Ġcontinues": 8662,
      "Ġpatienten": 8663,
      "Ġbudgets": 8664,
      "Ġpolen": 8665,
      "aken": 8666,
      "Ġrichtigen": 8667,
      "Ġdog": 8668,
      "Ġbetrachten": 8669,
      "Ġraise": 8670,
      "Ġattractions": 8671,
      "eto": 8672,
      "Ġinflation": 8673,
      "Ġcath": 8674,
      "Ġextended": 8675,
      "Ġfem": 8676,
      "Ġatom": 8677,
      "immungen": 8678,
      "gestimmt": 8679,
      "Ġcategory": 8680,
      "Ġcompleted": 8681,
      ".âĢĿ": 8682,
      "Ġrome": 8683,
      "vier": 8684,
      "Ġafrican": 8685,
      "Ġsurrounding": 8686,
      "Ġlibrary": 8687,
      "ifen": 8688,
      "Ġprioritat": 8689,
      "Ġanony": 8690,
      "Ġmeters": 8691,
      "Ġturkish": 8692,
      "Ġweiterer": 8693,
      "Ġholl": 8694,
      "Ġdrogen": 8695,
      "Ġenhan": 8696,
      "Ġwashing": 8697,
      "Ġqualitats": 8698,
      "Ġregionalen": 8699,
      "Ġdedicated": 8700,
      "Ġeinsetzen": 8701,
      "Ġadvent": 8702,
      "Ġinternationaler": 8703,
      "Ġmaintenance": 8704,
      "Ġcloser": 8705,
      "Ġflexibilitat": 8706,
      "Ġswe": 8707,
      "Ġstrongly": 8708,
      "Ġice": 8709,
      "Ġflight": 8710,
      "Ġnaher": 8711,
      "Ġ75": 8712,
      "Ġburden": 8713,
      "Ġindex": 8714,
      "Ġvienna": 8715,
      "Ġenables": 8716,
      "Ġafrika": 8717,
      "Ġentstanden": 8718,
      "haltet": 8719,
      "Ġgegensatz": 8720,
      "Ġindividuals": 8721,
      "Ġmartin": 8722,
      "Ġdisease": 8723,
      "ilst": 8724,
      "ula": 8725,
      "Ġtotally": 8726,
      "Ġzoll": 8727,
      "Ġentitled": 8728,
      "force": 8729,
      "Ġeconomies": 8730,
      "Ġeingefuhrt": 8731,
      "Ġautomob": 8732,
      "95": 8733,
      "det": 8734,
      "Ġcontrols": 8735,
      "Ġentwurf": 8736,
      "Ġbedurfnisse": 8737,
      "Ġvollkommen": 8738,
      "Ġvorrang": 8739,
      "Ġsatellite": 8740,
      "Ġstone": 8741,
      "Ġtechnik": 8742,
      "Ġfernse": 8743,
      "Ġcontemporary": 8744,
      "mes": 8745,
      "Ġgang": 8746,
      "Ġarz": 8747,
      "Ġeuropeans": 8748,
      "Ġcount": 8749,
      "zeption": 8750,
      "Ġprotest": 8751,
      "Ġ36": 8752,
      "Ġirland": 8753,
      "Ġbound": 8754,
      "anim": 8755,
      "partner": 8756,
      "Ġproblemen": 8757,
      "Ġnether": 8758,
      "komp": 8759,
      "Ġbeginnt": 8760,
      "Ġmi": 8761,
      "Ġideale": 8762,
      "Ġvisual": 8763,
      "Ġhochste": 8764,
      "Ġanlagen": 8765,
      "Ġliqu": 8766,
      "Ġexercise": 8767,
      "Ġverteidigung": 8768,
      "Ġbeschreibung": 8769,
      "Ġrechnungs": 8770,
      "Ġusb": 8771,
      "Ġestablishing": 8772,
      "Ġurs": 8773,
      "Ġreligion": 8774,
      "Ġprison": 8775,
      "Ġteilnehmer": 8776,
      "pak": 8777,
      "Ġroll": 8778,
      "ysteme": 8779,
      "orgt": 8780,
      "etragen": 8781,
      "gewohn": 8782,
      "Ġconcert": 8783,
      "Ġwirks": 8784,
      "Ġindependence": 8785,
      "Ġexpression": 8786,
      "Ġdeposit": 8787,
      "orten": 8788,
      "Ġparallel": 8789,
      "Ġrevision": 8790,
      "Ġsoweit": 8791,
      "Ġreliable": 8792,
      "Ġinspir": 8793,
      "Ġkeinerlei": 8794,
      "Ġbestatigt": 8795,
      "ido": 8796,
      "Ġsaw": 8797,
      "Ġpremier": 8798,
      "Ġmussten": 8799,
      "Ġsky": 8800,
      "Ġgeschaftsordnung": 8801,
      "ni": 8802,
      "Ġkandid": 8803,
      "going": 8804,
      "Ġenglisch": 8805,
      "Ġbewertung": 8806,
      "Ġhaut": 8807,
      "zentr": 8808,
      "Ġvorliegenden": 8809,
      "windigkeit": 8810,
      "Ġflag": 8811,
      "Ġsched": 8812,
      "Ġerfre": 8813,
      "Ġtel": 8814,
      "grunde": 8815,
      "Ġfuhrung": 8816,
      "Ġrechten": 8817,
      "Ġscript": 8818,
      "Ġpill": 8819,
      "Ġdestroy": 8820,
      "Ġdynamic": 8821,
      "mill": 8822,
      "Ġunterstutze": 8823,
      "wachst": 8824,
      "Ġforced": 8825,
      "Ġunf": 8826,
      "Ġhonourable": 8827,
      "Ġwhilst": 8828,
      "steuer": 8829,
      "Ġerh": 8830,
      "Ġerkennt": 8831,
      "Ġmittels": 8832,
      "Ġelemente": 8833,
      "eller": 8834,
      "Ġstimul": 8835,
      "Ġrecovery": 8836,
      "Ġnotes": 8837,
      "Ġverpflichtung": 8838,
      "pub": 8839,
      "Ġconfir": 8840,
      "log": 8841,
      "tex": 8842,
      "Ġkas": 8843,
      "Ġtrial": 8844,
      "Ġaircraft": 8845,
      "Ġnos": 8846,
      "Ġverfolgt": 8847,
      "Ġfluchtl": 8848,
      "Ġaltstadt": 8849,
      "Ġniederl": 8850,
      "Ġweapons": 8851,
      "liegt": 8852,
      "Ġglobalisierung": 8853,
      "Ġgeschutzt": 8854,
      "Ġthor": 8855,
      "lichem": 8856,
      "Ġspending": 8857,
      "Ġï¿½": 8858,
      "Ġsamp": 8859,
      "rupt": 8860,
      "Ġcash": 8861,
      "Ġforth": 8862,
      "Ġgranted": 8863,
      "Ġsides": 8864,
      "atever": 8865,
      "Ġbeteiligt": 8866,
      "Ġurgent": 8867,
      "Ġpharma": 8868,
      "Ġteams": 8869,
      "gs": 8870,
      "Ġconclusions": 8871,
      "Ġgriechenland": 8872,
      "reiten": 8873,
      "Ġpolitischer": 8874,
      "Ġgeheim": 8875,
      "Ġinstalled": 8876,
      "Ġram": 8877,
      "Ġdecla": 8878,
      "Ġzahlungs": 8879,
      "Ġlatin": 8880,
      "Ġstands": 8881,
      "Ġscale": 8882,
      "Ġentste": 8883,
      "Ġeuropaer": 8884,
      "Ġnewsletter": 8885,
      "sterne": 8886,
      "Ġwichtigste": 8887,
      "Ġprevention": 8888,
      "Ġkaufen": 8889,
      "Ġlord": 8890,
      "Ġumfassende": 8891,
      "Ġgerichtshof": 8892,
      "Ġtheater": 8893,
      "zin": 8894,
      "Ġreden": 8895,
      "Ġergeben": 8896,
      "uerung": 8897,
      "Ġmeant": 8898,
      "Ġamaz": 8899,
      "Ġempfehlen": 8900,
      "bett": 8901,
      "piel": 8902,
      "Ġnik": 8903,
      "Ġausst": 8904,
      "istisch": 8905,
      "wortet": 8906,
      "abl": 8907,
      "Ġfailed": 8908,
      "Ġhill": 8909,
      "Ġkept": 8910,
      "Ġsage": 8911,
      "Ġschuld": 8912,
      "Ġregistration": 8913,
      "Ġsolcher": 8914,
      "spap": 8915,
      "ĠgroÃŁeren": 8916,
      "hrt": 8917,
      "Ġstadte": 8918,
      "Ġbonus": 8919,
      "Ġuni": 8920,
      "Ġnutzer": 8921,
      "Ġperfectly": 8922,
      "Ġfavor": 8923,
      "amin": 8924,
      "27": 8925,
      "agne": 8926,
      "Ġsofern": 8927,
      "Ġerwer": 8928,
      "mittag": 8929,
      "Ġadvice": 8930,
      "Ġultim": 8931,
      "Ġfiscal": 8932,
      "Ġconvinced": 8933,
      "vorschlag": 8934,
      "Ġprotocol": 8935,
      "Ġwald": 8936,
      "Ġworten": 8937,
      "Ġmeeres": 8938,
      "Ġzuerst": 8939,
      "Ġmassive": 8940,
      "pap": 8941,
      "Ġrealitat": 8942,
      "Ġcamping": 8943,
      "Ġbiggest": 8944,
      "Ġindien": 8945,
      "stark": 8946,
      "anen": 8947,
      "Ġbalcon": 8948,
      "Ġengag": 8949,
      "Ġokon": 8950,
      "itage": 8951,
      "Ġmarken": 8952,
      "Ġsubsequ": 8953,
      "Ġeigentum": 8954,
      "erungs": 8955,
      "Ġplanet": 8956,
      "Ġtisch": 8957,
      "Ġwhatever": 8958,
      "Ġgarantieren": 8959,
      "Ġunable": 8960,
      "Ġniveau": 8961,
      "Ġsomeone": 8962,
      "Ġarticles": 8963,
      "look": 8964,
      "tzentrum": 8965,
      "Ġbeschaftigungs": 8966,
      "Ġbeinhaltet": 8967,
      "onal": 8968,
      "plant": 8969,
      "Ġpact": 8970,
      "Ġbeur": 8971,
      "hlt": 8972,
      "Ġkomment": 8973,
      "reisen": 8974,
      "Ġcompat": 8975,
      "Ġfactors": 8976,
      "Ġcm": 8977,
      "Ġteilnehmen": 8978,
      "Ġgegenwartigen": 8979,
      "Ġregelungen": 8980,
      "rates": 8981,
      "26": 8982,
      "Ġhof": 8983,
      "Ġzo": 8984,
      "center": 8985,
      "Ġpayments": 8986,
      "Ġvehicle": 8987,
      "spar": 8988,
      "Ġni": 8989,
      "utung": 8990,
      "Ġselten": 8991,
      "Ġmetal": 8992,
      "Ġaustrian": 8993,
      "Ġverbundenen": 8994,
      "Ġweight": 8995,
      "attform": 8996,
      "Ġabsicht": 8997,
      "Ġvereinfach": 8998,
      "Ġpassed": 8999,
      "ktive": 9000,
      "Ġpassword": 9001,
      "pan": 9002,
      "Ġoutstanding": 9003,
      "Ġmindest": 9004,
      "ktiv": 9005,
      "Ġcroat": 9006,
      "Ġextreme": 9007,
      "Ġdiesbe": 9008,
      "Ġbooks": 9009,
      "wers": 9010,
      "ktors": 9011,
      "Ġelection": 9012,
      "Ġdefinit": 9013,
      "ĠmaÃŁe": 9014,
      "Ġexem": 9015,
      "Ġgreek": 9016,
      "Ġsieben": 9017,
[...]
