{
  "version": "1.0",
  "truncation": null,
  "padding": null,
  "added_tokens": [
    {
      "id": 0,
      "content": "<s>",
      "single_word": false,
      "lstrip": false,
      "rstrip": false,
      "normalized": false,
      "special": true
    },
    {
      "id": 1,
      "content": "<pad>",
      "single_word": false,
      "lstrip": false,
      "rstrip": false,
      "normalized": false,
      "special": true
    },
    {
      "id": 2,
      "content": "</s>",
      "single_word": false,
      "lstrip": false,
      "rstrip": false,
      "normalized": false,
      "special": true
    },
    {
      "id": 3,
      "content": "<unk>",
      "single_word": false,
      "lstrip": false,
      "rstrip": false,
      "normalized": false,
      "special": true
    },
    {
      "id": 4,
      "content": "<mask>",
      "single_word": false,
      "lstrip": false,
      "rstrip": false,
      "normalized": false,
      "special": true
    }
  ],
  "normalizer": {
    "type": "Sequence",
    "normalizers": [
      {
        "type": "NFD"
      },
      {
        "type": "StripAccents"
      },
      {
        "type": "Lowercase"
      }
    ]
  },
  "pre_tokenizer": {
    "type": "ByteLevel",
    "add_prefix_space": true,
    "trim_offsets": true,
    "use_regex": true
  },
  "post_processor": {
    "type": "TemplateProcessing",
    "single": [
      {
        "SpecialToken": {
          "id": "<s>",
          "type_id": 0
        }
      },
      {
        "Sequence": {
          "id": "A",
          "type_id": 0
        }
      },
      {
        "SpecialToken": {
          "id": "</s>",
          "type_id": 0
        }
      }
    ],
    "pair": [
      {
        "SpecialToken": {
          "id": "<s>",
          "type_id": 0
        }
      },
      {
        "Sequence": {
          "id": "A",
          "type_id": 0
        }
      },
      {
        "SpecialToken": {
          "id": "</s>",
          "type_id": 0
        }
      },
      {
        "Sequence": {
          "id": "B",
          "type_id": 1
        }
      },
      {
        "SpecialToken": {
          "id": "</s>",
          "type_id": 1
        }
      }
    ],
    "special_tokens": {
      "</s>": {
        "id": "</s>",
        "ids": [
          2
        ],
        "tokens": [
          "</s>"
        ]
      },
      "<s>": {
        "id": "<s>",
        "ids": [
          0
        ],
        "tokens": [
          "<s>"
        ]
      }
    }
  },
  "decoder": {
    "type": "ByteLevel",
    "add_prefix_space": true,
    "trim_offsets": true,
    "use_regex": true
  },
  "model": {
    "type": "BPE",
    "dropout": null,
    "unk_token": "<unk>",
    "continuing_subword_prefix": null,
    "end_of_word_suffix": null,
    "fuse_unk": false,
    "byte_fallback": false,
    "ignore_merges": false,
    "vocab": {
      "<s>": 0,
      "<pad>": 1,
      "</s>": 2,
      "<unk>": 3,
      "<mask>": 4,
      "!": 5,
      "\"": 6,
      "#": 7,
      "$": 8,
      "%": 9,
      "&": 10,
      "'": 11,
      "(": 12,
      ")": 13,
      "*": 14,
      "+": 15,
      ",": 16,
      "-": 17,
      ".": 18,
      "/": 19,
      "0": 20,
      "1": 21,
      "2": 22,
      "3": 23,
      "4": 24,
      "5": 25,
      "6": 26,
      "7": 27,
      "8": 28,
      "9": 29,
      ":": 30,
      ";": 31,
      "<": 32,
      "=": 33,
      ">": 34,
      "?": 35,
      "@": 36,
      "A": 37,
      "B": 38,
      "C": 39,
      "D": 40,
      "E": 41,
      "F": 42,
      "G": 43,
      "H": 44,
      "I": 45,
      "J": 46,
      "K": 47,
      "L": 48,
      "M": 49,
      "N": 50,
      "O": 51,
      "P": 52,
      "Q": 53,
      "R": 54,
      "S": 55,
      "T": 56,
      "U": 57,
      "V": 58,
      "W": 59,
      "X": 60,
      "Y": 61,
      "Z": 62,
      "[": 63,
      "\\": 64,
      "]": 65,
      "^": 66,
      "_": 67,
      "`": 68,
      "a": 69,
      "b": 70,
      "c": 71,
      "d": 72,
      "e": 73,
      "f": 74,
      "g": 75,
      "h": 76,
      "i": 77,
      "j": 78,
      "k": 79,
      "l": 80,
      "m": 81,
      "n": 82,
      "o": 83,
      "p": 84,
      "q": 85,
      "r": 86,
      "s": 87,
      "t": 88,
      "u": 89,
      "v": 90,
      "w": 91,
      "x": 92,
      "y": 93,
      "z": 94,
      "{": 95,
      "|": 96,
      "}": 97,
      "~": 98,
      "¡": 99,
      "¢": 100,
      "£": 101,
      "¤": 102,
      "¥": 103,
      "¦": 104,
      "§": 105,
      "¨": 106,
      "©": 107,
      "ª": 108,
      "«": 109,
      "¬": 110,
      "®": 111,
      "¯": 112,
      "°": 113,
      "±": 114,
      "²": 115,
      "³": 116,
      "´": 117,
      "µ": 118,
      "¶": 119,
      "·": 120,
      "¸": 121,
      "¹": 122,
      "º": 123,
      "»": 124,
      "¼": 125,
      "½": 126,
      "¾": 127,
      "¿": 128,
      "À": 129,
      "Á": 130,
      "Â": 131,
      "Ã": 132,
      "Ä": 133,
      "Å": 134,
      "Æ": 135,
      "Ç": 136,
      "È": 137,
      "É": 138,
      "Ê": 139,
      "Ë": 140,
      "Ì": 141,
      "Í": 142,
      "Î": 143,
      "Ï": 144,
      "Ð": 145,
      "Ñ": 146,
      "Ò": 147,
      "Ó": 148,
      "Ô": 149,
      "Õ": 150,
      "Ö": 151,
      "×": 152,
      "Ø": 153,
      "Ù": 154,
      "Ú": 155,
      "Û": 156,
      "Ü": 157,
      "Ý": 158,
      "Þ": 159,
      "ß": 160,
      "à": 161,
      "á": 162,
      "â": 163,
      "ã": 164,
      "ä": 165,
      "å": 166,
      "æ": 167,
      "ç": 168,
      "è": 169,
      "é": 170,
      "ê": 171,
      "ë": 172,
      "ì": 173,
      "í": 174,
      "î": 175,
      "ï": 176,
      "ð": 177,
      "ñ": 178,
      "ò": 179,
      "ó": 180,
      "ô": 181,
      "õ": 182,
      "ö": 183,
      "÷": 184,
      "ø": 185,
      "ù": 186,
      "ú": 187,
      "û": 188,
      "ü": 189,
      "ý": 190,
      "þ": 191,
      "ÿ": 192,
      "Ā": 193,
      "ā": 194,
      "Ă": 195,
      "ă": 196,
      "Ą": 197,
      "ą": 198,
      "Ć": 199,
      "ć": 200,
      "Ĉ": 201,
      "ĉ": 202,
      "Ċ": 203,
      "ċ": 204,
      "Č": 205,
      "č": 206,
      "Ď": 207,
      "ď": 208,
      "Đ": 209,
      "đ": 210,
      "Ē": 211,
      "ē": 212,
      "Ĕ": 213,
      "ĕ": 214,
      "Ė": 215,
      "ė": 216,
      "Ę": 217,
      "ę": 218,
      "Ě": 219,
      "ě": 220,
      "Ĝ": 221,
      "ĝ": 222,
      "Ğ": 223,
      "ğ": 224,
      "Ġ": 225,
      "ġ": 226,
      "Ģ": 227,
      "ģ": 228,
      "Ĥ": 229,
      "ĥ": 230,
      "Ħ": 231,
      "ħ": 232,
      "Ĩ": 233,
      "ĩ": 234,
      "Ī": 235,
      "ī": 236,
      "Ĭ": 237,
      "ĭ": 238,
      "Į": 239,
      "į": 240,
      "İ": 241,
      "ı": 242,
      "Ĳ": 243,
      "ĳ": 244,
      "Ĵ": 245,
      "ĵ": 246,
      "Ķ": 247,
      "ķ": 248,
      "ĸ": 249,
      "Ĺ": 250,
      "ĺ": 251,
      "Ļ": 252,
      "ļ": 253,
      "Ľ": 254,
      "ľ": 255,
      "Ŀ": 256,
      "ŀ": 257,
      "Ł": 258,
      "ł": 259,
      "Ń": 260,
      "Ġt": 261,
      "Ġa": 262,
      "Ġth": 263,
      "in": 264,
      "Ġthe": 265,
      "re": 266,
      "on": 267,
      "er": 268,
      "Ġs": 269,
      "Ġo": 270,
      "Ġc": 271,
      "Ġw": 272,
      "at": 273,
      "en": 274,
      "is": 275,
      "Ġp": 276,
      "it": 277,
      "es": 278,
      "Ġf": 279,
      "Ġb": 280,
      "or": 281,
      "an": 282,
      "Ġan": 283,
      "Ġin": 284,
      "Ġm": 285,
      "Ġof": 286,
      "ion": 287,
      "al": 288,
      "ou": 289,
      "Ġto": 290,
      "ed": 291,
      "Ġand": 292,
      "ar": 293,
      "ing": 294,
      "Ġd": 295,
      "Ġh": 296,
      "ro": 297,
      "ic": 298,
      "Ġe": 299,
      "le": 300,
      "ent": 301,
      "Ġre": 302,
      "Ġn": 303,
      "as": 304,
      "om": 305,
      "il": 306,
      "st": 307,
      "el": 308,
      "Ġl": 309,
      "ct": 310,
      "Ġis": 311,
      "Ġbe": 312,
      "Ġg": 313,
      "Ġi": 314,
      "ve": 315,
      "ation": 316,
      "Ġfor": 317,
      "ot": 318,
      "Ġu": 319,
      "Ġon": 320,
      "ur": 321,
      "ly": 322,
      "Ġthat": 323,
      "Ġwh": 324,
      "et": 325,
      "ut": 326,
      "Ġy": 327,
      "ment": 328,
      "Ġpro": 329,
      "Ġst": 330,
      "ol": 331,
      "id": 332,
      "Ġit": 333,
      "ch": 334,
      "ce": 335,
      "ra": 336,
      "Ġwe": 337,
      "Ġcon": 338,
      "Ġcom": 339,
      "se": 340,
      "Ġal": 341,
      "ith": 342,
      "ver": 343,
      "pe": 344,
      "Ġwith": 345,
      "ri": 346,
      "Ġas": 347,
      "ow": 348,
      "ul": 349,
      "Ġyou": 350,
      "Ġare": 351,
      "Ġthis": 352,
      "ort": 353,
      "ay": 354,
      "Ġde": 355,
      "ir": 356,
      "res": 357,
      "ad": 358,
      "gh": 359,
      "ill": 360,
      "ers": 361,
      "Ġv": 362,
      "Ġsu": 363,
      "th": 364,
      "im": 365,
      "ld": 366,
      "am": 367,
      "ter": 368,
      "Ġha": 369,
      "Ġex": 370,
      "oun": 371,
      "Ġun": 372,
      "ble": 373,
      "ity": 374,
      "Ġne": 375,
      "qu": 376,
      "ess": 377,
      "ate": 378,
      "ge": 379,
      "os": 380,
      "pp": 381,
      "Ġnot": 382,
      "est": 383,
      "Ġeu": 384,
      "em": 385,
      "Ġor": 386,
      "Ġat": 387,
      "op": 388,
      "Ġby": 389,
      "ke": 390,
      "Ġse": 391,
      "un": 392,
      "Ġmo": 393,
      "ant": 394,
      "Ġsh": 395,
      "Ġhave": 396,
      "ies": 397,
      "ich": 398,
      "Ġpar": 399,
      "ist": 400,
      "rom": 401,
      "ere": 402,
      "ain": 403,
      "us": 404,
      "Ġcomm": 405,
      "ci": 406,
      "Ġch": 407,
      "ive": 408,
      "ust": 409,
      "Ġen": 410,
      "ould": 411,
      "Ġeuro": 412,
      "Ġwill": 413,
      "âĢ": 414,
      "and": 415,
      "Ġwhich": 416,
      "Ġfrom": 417,
      "Ġeurope": 418,
      "Ġall": 419,
      "iv": 420,
      "mp": 421,
      "ff": 422,
      "Ġcan": 423,
      "ia": 424,
      "Ġle": 425,
      "Ġ1": 426,
      "Ġ(": 427,
      "Ġr": 428,
      "ect": 429,
      "ght": 430,
      "ure": 431,
      "ac": 432,
      "ions": 433,
      "um": 434,
      "Ġj": 435,
      "Ġhas": 436,
      "ig": 437,
      "ard": 438,
      "Ġour": 439,
      "our": 440,
      "od": 441,
      "Ġwor": 442,
      "Ġk": 443,
      "Ġso": 444,
      "Ġ2": 445,
      "Ġcomp": 446,
      "oc": 447,
      "end": 448,
      "00": 449,
      "sion": 450,
      "so": 451,
      "Ġres": 452,
      "Ġad": 453,
      "Ġwas": 454,
      "Ġus": 455,
      "all": 456,
      "Ġcont": 457,
      "ie": 458,
      "ber": 459,
      "Ġag": 460,
      "Ġeuropean": 461,
      "Ġint": 462,
      "der": 463,
      "Ġthere": 464,
      "ally": 465,
      "ud": 466,
      "Ġma": 467,
      "Ġimp": 468,
      "Ġac": 469,
      "Ġcoun": 470,
      "Ġpres": 471,
      "ast": 472,
      "Ġpl": 473,
      "if": 474,
      "Ġdi": 475,
      "ell": 476,
      "Ġpart": 477,
      "ated": 478,
      "Ġme": 479,
      "Ġalso": 480,
      "ous": 481,
      "very": 482,
      "ore": 483,
      "Ġbut": 484,
      "able": 485,
      "du": 486,
      "ab": 487,
      "Ġdo": 488,
      "ish": 489,
      "Ġ-": 490,
      "out": 491,
      "pt": 492,
      "Ġhe": 493,
      "ans": 494,
      "Ġam": 495,
      "age": 496,
      "ations": 497,
      "Ġyour": 498,
      "Ġits": 499,
      "Ġgo": 500,
      "king": 501,
      "Ġab": 502,
      "Ġqu": 503,
      "cess": 504,
      "ult": 505,
      "ome": 506,
      "ission": 507,
      "are": 508,
      "ice": 509,
      "'s": 510,
      "port": 511,
      "lo": 512,
      "vel": 513,
      "ther": 514,
      "Ġli": 515,
      "Ġreg": 516,
      "per": 517,
      "Ġro": 518,
      "ag": 519,
      "Ġar": 520,
      "Ġco": 521,
      "act": 522,
      "Ġman": 523,
      "ical": 524,
      "ree": 525,
      "Ġta": 526,
      "orm": 527,
      "Ġpol": 528,
      "ance": 529,
      "Ġmore": 530,
      "ine": 531,
      "Ġcommission": 532,
      "ments": 533,
      "Ġmr": 534,
      "ru": 535,
      "ary": 536,
      "Ġinc": 537,
      "Ġwould": 538,
      "Ġser": 539,
      "con": 540,
      "ction": 541,
      "Ġtheir": 542,
      "Ġone": 543,
      "Ġinter": 544,
      "og": 545,
      "ates": 546,
      "ition": 547,
      "Ġif": 548,
      "rou": 549,
      "iz": 550,
      "Ġdis": 551,
      "Ġfin": 552,
      "ong": 553,
      "Ġnew": 554,
      "ry": 555,
      "de": 556,
      "cial": 557,
      "Ġbeen": 558,
      "Ġtra": 559,
      "lic": 560,
      "Ġapp": 561,
      "ely": 562,
      "ue": 563,
      "form": 564,
      "reat": 565,
      "ach": 566,
      "Ġthey": 567,
      "ks": 568,
      "her": 569,
      "..": 570,
      "ide": 571,
      "ĠâĢ": 572,
      "Ġshould": 573,
      "ident": 574,
      "Ġmem": 575,
      "Ġri": 576,
      "Ġtim": 577,
      "pport": 578,
      "Ġoff": 579,
      "Ġmar": 580,
      "si": 581,
      "ear": 582,
      "âĢĻ": 583,
      "Ġsp": 584,
      "Ġno": 585,
      "Ġcount": 586,
      "Ġte": 587,
      "Ġwho": 588,
      "Ġup": 589,
      "Ġpo": 590,
      "ound": 591,
      "ign": 592,
      "ren": 593,
      "Ġcl": 594,
      "Ġspe": 595,
      "ip": 596,
      "ase": 597,
      "Ġpre": 598,
      "art": 599,
      "ens": 600,
      "Ġper": 601,
      "ap": 602,
      "Ġout": 603,
      "ail": 604,
      "ace": 605,
      "Ġpe": 606,
      "Ġother": 607,
      "ence": 608,
      "ite": 609,
      "ub": 610,
      "Ġev": 611,
      "Ġmust": 612,
      "Ġthese": 613,
      "au": 614,
      "one": 615,
      "Ġhot": 616,
      "Ġvery": 617,
      "ational": 618,
      "Ġpos": 619,
      "Ġtr": 620,
      "Ġcons": 621,
      "ities": 622,
      "Ġneed": 623,
      "int": 624,
      "Ġonly": 625,
      "Ġbec": 626,
      "Ġthan": 627,
      "Ġprodu": 628,
      "itt": 629,
      "Ġyear": 630,
      "Ġhow": 631,
      "Ġlike": 632,
      "ms": 633,
      "Ġpresident": 634,
      "Ġhotel": 635,
      "ight": 636,
      "Ġany": 637,
      "Ġright": 638,
      "Ġra": 639,
      "Ġtime": 640,
      "ject": 641,
      "ire": 642,
      "Ġabout": 643,
      "lia": 644,
      "Ġsy": 645,
      "ose": 646,
      "ial": 647,
      "Ġprov": 648,
      "Ġwhat": 649,
      "ame": 650,
      "pl": 651,
      "Ġsa": 652,
      "ack": 653,
      "ord": 654,
      "Ġbet": 655,
      "ces": 656,
      "Ġind": 657,
      "Ġ\"": 658,
      "velop": 659,
      "Ġserv": 660,
      "Ġfir": 661,
      "mm": 662,
      "Ġacc": 663,
      "Ġwhen": 664,
      "Ġdevelop": 665,
      "ress": 666,
      "igh": 667,
      "Ġinst": 668,
      "Ġ200": 669,
      "Ġdes": 670,
      "Ġparlia": 671,
      "Ġrec": 672,
      "fore": 673,
      "Ġfe": 674,
      "Ġintern": 675,
      "Ġreport": 676,
      "Ġmy": 677,
      "Ġtrans": 678,
      "Ġimport": 679,
      "Ġwork": 680,
      "Ġunion": 681,
      "pos": 682,
      "ise": 683,
      "Ġact": 684,
      "ass": 685,
      "ution": 686,
      "eren": 687,
      "Ġparliament": 688,
      "Ġpeop": 689,
      "ility": 690,
      "ious": 691,
      "wn": 692,
      "ors": 693,
      "Ġstates": 694,
      "ced": 695,
      "Ġunder": 696,
      "Ġcent": 697,
      "Ġla": 698,
      "Ġover": 699,
      "tain": 700,
      "ries": 701,
      "Ġsome": 702,
      "Ġdec": 703,
      "Ġrel": 704,
      "ian": 705,
      "ric": 706,
      "we": 707,
      "ind": 708,
      "Ġpeople": 709,
      "ket": 710,
      "now": 711,
      "Ġfirst": 712,
      "Ġaf": 713,
      "Ġsub": 714,
      "Ġconc": 715,
      "ures": 716,
      "cy": 717,
      "Ġmember": 718,
      "av": 719,
      "stem": 720,
      "Ġgu": 721,
      "ause": 722,
      "get": 723,
      "Ġwell": 724,
      "ang": 725,
      "lud": 726,
      "ak": 727,
      "ular": 728,
      "Ġmad": 729,
      "oo": 730,
      "Ġfun": 731,
      "Ġeff": 732,
      "Ġob": 733,
      "Ġinto": 734,
      "ile": 735,
      "rect": 736,
      "Ġsystem": 737,
      "Ġhigh": 738,
      "Ġsuch": 739,
      "ays": 740,
      "Ġuse": 741,
      "ings": 742,
      "Ġsupport": 743,
      "pect": 744,
      "iew": 745,
      "Ġadd": 746,
      "erm": 747,
      "Ġnow": 748,
      "ft": 749,
      "Ġwere": 750,
      "Ġjust": 751,
      "Ġloc": 752,
      "Ġworld": 753,
      "Ġ3": 754,
      "Ġinform": 755,
      "Ġmost": 756,
      "ful": 757,
      "Ġhis": 758,
      "conom": 759,
      "ual": 760,
      "Ġ19": 761,
      "Ġpolic": 762,
      "Ġinv": 763,
      "Ġdiff": 764,
      "cil": 765,
      "lect": 766,
      "xt": 767,
      "Ġcountries": 768,
      "ater": 769,
      "Ġ.": 770,
      "Ġmany": 771,
      "Ġprog": 772,
      "Ġeconom": 773,
      "Ġent": 774,
      "Ġtw": 775,
      "Ġthem": 776,
      "Ġdem": 777,
      "Ġpartic": 778,
      "Ġcol": 779,
      "Ġbel": 780,
      "Ġmin": 781,
      "Ġpri": 782,
      "Ġ,": 783,
      "Ġcouncil": 784,
      "ating": 785,
      "ild": 786,
      "Ġagain": 787,
      "Ġpr": 788,
      "Ġroom": 789,
      "Ġmake": 790,
      "ory": 791,
      "Ġimportant": 792,
      "sible": 793,
      "Ġbecause": 794,
      "Ġknow": 795,
      "ee": 796,
      "Ġmarket": 797,
      "ween": 798,
      "ange": 799,
      "ple": 800,
      "Ġdirect": 801,
      "Ġinclud": 802,
      "ph": 803,
      "ĠâĢĵ": 804,
      "Ġbetween": 805,
      "Ġbas": 806,
      "Ġatt": 807,
      "Ġtake": 808,
      "red": 809,
      "day": 810,
      "Ġpropos": 811,
      "Ġrequ": 812,
      "Ġmay": 813,
      "roup": 814,
      "Ġmon": 815,
      "cept": 816,
      "te": 817,
      "ative": 818,
      "Ġgen": 819,
      "Ġevery": 820,
      "Ġafter": 821,
      "Ġpub": 822,
      "Âł": 823,
      "ved": 824,
      "Ġbu": 825,
      "Ġbr": 826,
      "ning": 827,
      "Ġop": 828,
      "Ġwhere": 829,
      "Ġsol": 830,
      "Ġeven": 831,
      "Ġleg": 832,
      "Ġgroup": 833,
      "Ġav": 834,
      "ents": 835,
      "Ġhel": 836,
      "Ġgreat": 837,
      "ices": 838,
      "Ġrem": 839,
      "Ġinformation": 840,
      "Ġcle": 841,
      "Ġconf": 842,
      "Ġtwo": 843,
      "ality": 844,
      "Ġext": 845,
      "ural": 846,
      "rough": 847,
      "Ġcommun": 848,
      "ds": 849,
      "oth": 850,
      "Ġaut": 851,
      "Ġsit": 852,
      "ied": 853,
      "ever": 854,
      "Ġgood": 855,
      "ention": 856,
      "pon": 857,
      "Ġagree": 858,
      "Ġref": 859,
      "Ġthose": 860,
      "ards": 861,
      "Ġthrough": 862,
      "Ġpolicy": 863,
      "Ġph": 864,
      "Ġrep": 865,
      "Ġpers": 866,
      "Ġpoint": 867,
      "low": 868,
      "Ġter": 869,
      "Ġproduct": 870,
      "Ġmade": 871,
      "Ġcour": 872,
      "Ġsee": 873,
      "Ġset": 874,
      "Ġcar": 875,
      "Ġyears": 876,
      "Ġdisc": 877,
      "ink": 878,
      "uring": 879,
      "Ġstr": 880,
      "chn": 881,
      "ep": 882,
      "als": 883,
      "Ġsc": 884,
      "Ġap": 885,
      "...": 886,
      "Ġexp": 887,
      "Ġprot": 888,
      "Ġhere": 889,
      "Ġiss": 890,
      "Ġway": 891,
      "Ġpolit": 892,
      "ract": 893,
      "Ġhad": 894,
      "Ġmu": 895,
      "rib": 896,
      "own": 897,
      "ives": 898,
      "Ġwant": 899,
      "ount": 900,
      "olog": 901,
      "Ġbus": 902,
      "gy": 903,
      "ues": 904,
      "Ġhowever": 905,
      "ost": 906,
      "Ġform": 907,
      "Ġsm": 908,
      "ific": 909,
      "Ġke": 910,
      "Ġproble": 911,
      "row": 912,
      ").": 913,
      "abl": 914,
      "any": 915,
      "ited": 916,
      "Ġprogra": 917,
      "Ġjo": 918,
      "ages": 919,
      "Ġbeing": 920,
      "Ġown": 921,
      "ieve": 922,
      "Ġview": 923,
      "vern": 924,
      "vers": 925,
      "Ġass": 926,
      "Ġnum": 927,
      "Ġfact": 928,
      "ath": 929,
      "Ġappro": 930,
      "Ġlong": 931,
      "Ġparticular": 932,
      "ving": 933,
      "Ġcur": 934,
      "Ġrest": 935,
      "Ġsec": 936,
      "gan": 937,
      "Ġtechn": 938,
      "arm": 939,
      "Ġprocess": 940,
      "ough": 941,
      "Ġquest": 942,
      "Ġval": 943,
      "Ġ5": 944,
      "Ġpublic": 945,
      "Ġcr": 946,
      "Ġconcer": 947,
      "ib": 948,
      "Ġcre": 949,
      "elf": 950,
      "Ġdeb": 951,
      "Ġeconomic": 952,
      "air": 953,
      "Ġinternational": 954,
      "arge": 955,
      "land": 956,
      "Ġtherefore": 957,
      "Ġ4": 958,
      "Ġstate": 959,
      "Ġmain": 960,
      "Ġrights": 961,
      "Ġfur": 962,
      "Ġvot": 963,
      "Ġdevelopment": 964,
      "Ġorder": 965,
      "Ġrespon": 966,
      "gin": 967,
      "Ġdef": 968,
      "Ġsim": 969,
      "Ġarea": 970,
      "read": 971,
      "Ġdifferen": 972,
      "Ġhum": 973,
      "Ġemp": 974,
      "Ġmed": 975,
      "Ġsitu": 976,
      "ism": 977,
      "Ġart": 978,
      "ision": 979,
      "Ġful": 980,
      "Ġcommitt": 981,
      "Ġthen": 982,
      "Ġperson": 983,
      "atic": 984,
      "ck": 985,
      "ince": 986,
      "Ġ'": 987,
      "Ġfind": 988,
      "Ġgener": 989,
      "Ġgovern": 990,
      "Ġsocial": 991,
      "Ġcomple": 992,
      "Ġplace": 993,
      "wor": 994,
      "ov": 995,
      "gr": 996,
      "Ġprotect": 997,
      "Ġair": 998,
      "Ġdel": 999,
      "Ġexper": 1000,
      "com": 1001,
      "ines": 1002,
      "Ġprovid": 1003,
      "Ġexc": 1004,
      "Ġhelp": 1005,
      "me": 1006,
      "Ġaw": 1007,
      "ruct": 1008,
      "Ġpossible": 1009,
      "Ġclear": 1010,
      "uss": 1011,
      "Ġaccess": 1012,
      "ered": 1013,
      "Ġdoes": 1014,
      "Ġboth": 1015,
      "Ġwithin": 1016,
      "ts": 1017,
      "ouse": 1018,
      "Ġsame": 1019,
      "ower": 1020,
      "erest": 1021,
      "ood": 1022,
      "ency": 1023,
      "Ġcurren": 1024,
      "Ġgr": 1025,
      "Ġfol": 1026,
      "Ġcontin": 1027,
      "Ġz": 1028,
      "Ġtoo": 1029,
      "iness": 1030,
      "Ġpolitical": 1031,
      "Ġcer": 1032,
      "Ġplay": 1033,
      "Ġmet": 1034,
      "Ġcould": 1035,
      "Ġem": 1036,
      "ne": 1037,
      "Ġhuman": 1038,
      "bers": 1039,
      "ety": 1040,
      "Ġincre": 1041,
      "Ġest": 1042,
      "Ġple": 1043,
      "Ġsay": 1044,
      "Ġstand": 1045,
      "rol": 1046,
      "Ġeffect": 1047,
      "Ġconst": 1048,
      "Ġend": 1049,
      "Ġfr": 1050,
      "Ġdat": 1051,
      "Ġinterest": 1052,
      "Ġget": 1053,
      "Ġvis": 1054,
      "ted": 1055,
      "Ġcountry": 1056,
      "ily": 1057,
      "Ġcall": 1058,
      "Ġlast": 1059,
      "lement": 1060,
      "Ġequ": 1061,
      "arch": 1062,
      "Ġresult": 1063,
      "Ġagainst": 1064,
      "Ġenv": 1065,
      "ves": 1066,
      "ised": 1067,
      "Ġexam": 1068,
      "tern": 1069,
      "Ġdist": 1070,
      "Ġfinan": 1071,
      "min": 1072,
      "Ġavail": 1073,
      "Ġservices": 1074,
      "Ġbo": 1075,
      "Ġnational": 1076,
      "Ġtoday": 1077,
      "),": 1078,
      "Ġmuch": 1079,
      "ook": 1080,
      "Ġcor": 1081,
      "Ġsince": 1082,
      "Ġfree": 1083,
      "ty": 1084,
      "Ġsur": 1085,
      "Ġdet": 1086,
      "Ġwithout": 1087,
      "Ġused": 1088,
      "Ġlevel": 1089,
      "Ġorgan": 1090,
      "Ġfam": 1091,
      "Ġbl": 1092,
      "ason": 1093,
      "ĠâĢľ": 1094,
      "ting": 1095,
      "ient": 1096,
      "eration": 1097,
      "Ġtur": 1098,
      "loy": 1099,
      "iron": 1100,
      "Ġsch": 1101,
      "Ġmat": 1102,
      "Ġsign": 1103,
      "itions": 1104,
      "Ġreal": 1105,
      "Ġvar": 1106,
      "les": 1107,
      "âĢĿ": 1108,
      "ict": 1109,
      "utions": 1110,
      "Ġ20": 1111,
      "Ġlead": 1112,
      "led": 1113,
      "Ġopen": 1114,
      "Ġservice": 1115,
      "ustom": 1116,
      "hip": 1117,
      "Ġdifferent": 1118,
      "Ġbusiness": 1119,
      "Ġenviron": 1120,
      "Ġbar": 1121,
      "Ġpresent": 1122,
      "Ġmeas": 1123,
      "its": 1124,
      "Ġallow": 1125,
      "Ġcustom": 1126,
      "Ġed": 1127,
      "Ġadv": 1128,
      "Ġconsid": 1129,
      "Ġgerm": 1130,
      "Ġfollow": 1131,
      "Ġnumber": 1132,
      "Ġtreat": 1133,
      "cond": 1134,
      "Ġamend": 1135,
      "bs": 1136,
      "Ġcommittee": 1137,
      "Ġbefore": 1138,
      "Ġoper": 1139,
      "ner": 1140,
      "Ġtak": 1141,
      "Ġnat": 1142,
      "Ġduring": 1143,
      "Ġdown": 1144,
      "Ġens": 1145,
      "Ġenvironment": 1146,
      "Ġstill": 1147,
      "iven": 1148,
      "Ġspecial": 1149,
      "Ġcond": 1150,
      "Ġfut": 1151,
      "Ġcap": 1152,
      "Ġeas": 1153,
      "io": 1154,
      "not": 1155,
      "Ġavailable": 1156,
      "Ġsw": 1157,
      "Ġindust": 1158,
      "Ġproject": 1159,
      "Ġcompet": 1160,
      "Ġcurrent": 1161,
      "Ġrequire": 1162,
      "ists": 1163,
      "hing": 1164,
      "ned": 1165,
      "Ġstart": 1166,
      "Ġhand": 1167,
      "old": 1168,
      "sib": 1169,
      "Ġmembers": 1170,
      "Ġdesign": 1171,
      "uc": 1172,
      "Ġfl": 1173,
      "ready": 1174,
      "Ġoffer": 1175,
      "Ġsmall": 1176,
      "Ġcity": 1177,
      "Ġfund": 1178,
      "Ġher": 1179,
      "Ġfuture": 1180,
      "Ġprogramm": 1181,
      "Ġfurther": 1182,
      "els": 1183,
      "Ġalready": 1184,
      "ene": 1185,
      "cif": 1186,
      "Ġdata": 1187,
      "Ġback": 1188,
      "work": 1189,
      "ulation": 1190,
      "Ġprev": 1191,
      "ics": 1192,
      "Ġbud": 1193,
      "Ġbelieve": 1194,
      "ional": 1195,
      "Ġhouse": 1196,
      "Ġdra": 1197,
      "Ġrev": 1198,
      "ants": 1199,
      "Ġide": 1200,
      "Ġproducts": 1201,
      "oy": 1202,
      "Ġes": 1203,
      "Ġdemoc": 1204,
      "Ġaff": 1205,
      "alth": 1206,
      "Ġcourse": 1207,
      "ness": 1208,
      "Ġquestion": 1209,
      "Ġfi": 1210,
      "Ġlaw": 1211,
      "Ġauth": 1212,
      "Ġfac": 1213,
      "Ġcit": 1214,
      "Ġlif": 1215,
      "Ġbest": 1216,
      "Ġcertain": 1217,
      "Ġexperi": 1218,
      "ital": 1219,
      "Ġput": 1220,
      "Ġeach": 1221,
      "Ġinf": 1222,
      "Ġsaf": 1223,
      "Ġban": 1224,
      "ten": 1225,
      "Ġins": 1226,
      "Ġpur": 1227,
      "Ġable": 1228,
      "ute": 1229,
      "omet": 1230,
      "Ġregard": 1231,
      "Ġcost": 1232,
      "Ġfinancial": 1233,
      "Ġthink": 1234,
      "Ġmeet": 1235,
      "ope": 1236,
      "Ġsuc": 1237,
      "Ġdep": 1238,
      "Ġsecond": 1239,
      "Ġday": 1240,
      "Ġprof": 1241,
      "Ġmod": 1242,
      "Ġcontrol": 1243,
      "Ġcannot": 1244,
      "ove": 1245,
      "to": 1246,
      "Ġcase": 1247,
      "ier": 1248,
      "ral": 1249,
      "Ġmaj": 1250,
      "Ġbeh": 1251,
      "Ġcitiz": 1252,
      "Ġbre": 1253,
      "urity": 1254,
      "Ġimpro": 1255,
      "Ġinstit": 1256,
      "Ġener": 1257,
      "Ġfore": 1258,
      "Ġinde": 1259,
      "ately": 1260,
      "Ġrooms": 1261,
      "Ġagreement": 1262,
      "ished": 1263,
      "Ġcommissioner": 1264,
      "ick": 1265,
      "Ġcommunity": 1266,
      "Ġoffers": 1267,
      "ss": 1268,
      "Ġwr": 1269,
      "Ġ6": 1270,
      "Ġchar": 1271,
      "ased": 1272,
      "Ġspecif": 1273,
      "Ġche": 1274,
      "Ġfound": 1275,
      "Ġach": 1276,
      "fort": 1277,
      "Ġfre": 1278,
      "Ġcommon": 1279,
      "Ġcoop": 1280,
      "Ġactiv": 1281,
      "Ġquality": 1282,
      "Ġbudget": 1283,
      "Ġel": 1284,
      "ually": 1285,
      "Ġelect": 1286,
      "Ġreason": 1287,
      "Ġapplic": 1288,
      "other": 1289,
      "Ġchild": 1290,
      "Ġmajor": 1291,
      "Ġfra": 1292,
      "Ġwhile": 1293,
      "ys": 1294,
      "Ġca": 1295,
      "Ġshow": 1296,
      "Ġeng": 1297,
      "Ġlist": 1298,
      "Ġsaid": 1299,
      "Ġrepres": 1300,
      "Ġsecurity": 1301,
      "Ġrespect": 1302,
      "Ġcult": 1303,
      "Ġproposal": 1304,
      "Ġnet": 1305,
      "Ġmeans": 1306,
      "Ġver": 1307,
      "Ġim": 1308,
      "Ġissue": 1309,
      "Ġprom": 1310,
      "Ġexample": 1311,
      "ina": 1312,
      "Ġhist": 1313,
      "Ġfar": 1314,
      "Ġenergy": 1315,
      "Ġty": 1316,
      "Ġimplement": 1317,
      "Ġinvest": 1318,
      "ug": 1319,
      "Ġpower": 1320,
      "bal": 1321,
      "Ġauthor": 1322,
      "Ġread": 1323,
      "Ġconv": 1324,
      "Ġtour": 1325,
      "Ġgovernment": 1326,
      "Ġobject": 1327,
      "Ġwhy": 1328,
      "Ġcitizens": 1329,
      "Ġsituation": 1330,
      "Ġdebate": 1331,
      "Ġresol": 1332,
      "Ġwar": 1333,
      "omm": 1334,
      "Ġnecess": 1335,
      "iss": 1336,
      "Ġsect": 1337,
      "Ġuni": 1338,
      "ather": 1339,
      "Ġthree": 1340,
      "Ġtechnolog": 1341,
      "isation": 1342,
      "Ġnext": 1343,
      "ivid": 1344,
      "Ġear": 1345,
      "Ġ[": 1346,
      "Ġhealth": 1347,
      "Ġfew": 1348,
      "ron": 1349,
      "Ġadop": 1350,
      "Ġpriv": 1351,
      "Ġemploy": 1352,
      "ized": 1353,
      "ining": 1354,
      "Ġsk": 1355,
      "que": 1356,
      "ability": 1357,
      "Ġstud": 1358,
      "Ġaddition": 1359,
      "ined": 1360,
      "Ġwel": 1361,
      "ways": 1362,
      "Ġcompany": 1363,
      "Ġincluding": 1364,
      "Ġgrow": 1365,
      "Ġopt": 1366,
      "Ġtrad": 1367,
      "Ġguest": 1368,
      "Ġ199": 1369,
      "ird": 1370,
      "ware": 1371,
      "Ġcam": 1372,
      "eng": 1373,
      "Ġaccount": 1374,
      "Ġprin": 1375,
      "line": 1376,
      "Ġmeasures": 1377,
      "Ġplan": 1378,
      "ilities": 1379,
      "iting": 1380,
      "up": 1381,
      "illion": 1382,
      "alf": 1383,
      "Ġlet": 1384,
      "Ġareas": 1385,
      "Ġglo": 1386,
      "Ġsuccess": 1387,
      "Ġgive": 1388,
      "Ġneg": 1389,
      "Ġpay": 1390,
      "Ġredu": 1391,
      "Ġlarge": 1392,
      "Ġbuild": 1393,
      "Ġproblem": 1394,
      "Ġgiven": 1395,
      "come": 1396,
      "cing": 1397,
      "ically": 1398,
      "Ġimm": 1399,
      "Ġport": 1400,
      "Ġpass": 1401,
      "cc": 1402,
      "Ġensure": 1403,
      "Ġsou": 1404,
      "Ġrece": 1405,
      "Ġsupp": 1406,
      "Ġfil": 1407,
      "Ġ7": 1408,
      "lus": 1409,
      "Ġprovide": 1410,
      "Ġstay": 1411,
      "ration": 1412,
      "omen": 1413,
      "Ġstrate": 1414,
      "Ġtaken": 1415,
      "ared": 1416,
      "Ġlocated": 1417,
      "Ġprotection": 1418,
      "Ġsomet": 1419,
      "Ġrese": 1420,
      "Ġask": 1421,
      "Ġestabl": 1422,
      "ently": 1423,
      "Ġ10": 1424,
      "Ġgra": 1425,
      "Ġcooperation": 1426,
      "Ġcome": 1427,
      "Ġkey": 1428,
      "the": 1429,
      "ium": 1430,
      "ified": 1431,
      "gest": 1432,
      "stand": 1433,
      "ether": 1434,
      "iti": 1435,
      "Ġret": 1436,
      "Ġchange": 1437,
      "Ġcentre": 1438,
      "Ġ8": 1439,
      "Ġlife": 1440,
      "pportun": 1441,
      "Ġaccord": 1442,
      "Ġmanage": 1443,
      "pr": 1444,
      "Ġopportun": 1445,
      "iter": 1446,
      "eur": 1447,
      "ising": 1448,
      "Ġold": 1449,
      "Ġbal": 1450,
      "Ġresearch": 1451,
      "Ġaccept": 1452,
      "Ġproblems": 1453,
      "joy": 1454,
      "Ġprinci": 1455,
      "Ġposition": 1456,
      "Ġaction": 1457,
      "Ġshall": 1458,
      "Ġpract": 1459,
      "aut": 1460,
      "isl": 1461,
      "000": 1462,
      "Ġanother": 1463,
      "Ġenjoy": 1464,
      "par": 1465,
      "Ġhope": 1466,
      "Ġnecessary": 1467,
      "ward": 1468,
      "Ġtrade": 1469,
      "ross": 1470,
      "ases": 1471,
      "ible": 1472,
      "men": 1473,
      "iving": 1474,
      "Ġnon": 1475,
      "ential": 1476,
      "az": 1477,
      "nect": 1478,
      "eld": 1479,
      "man": 1480,
      "ules": 1481,
      "cially": 1482,
      "ock": 1483,
      "rodu": 1484,
      "Ġunited": 1485,
      "Ġdid": 1486,
      "itive": 1487,
      "Ġmoder": 1488,
      "Ġpop": 1489,
      "utes": 1490,
      "ik": 1491,
      "Ġtransport": 1492,
      "eric": 1493,
      "Ġwhether": 1494,
      "Ġglobal": 1495,
      "Ġcho": 1496,
      "Ġsing": 1497,
      "Ġcomb": 1498,
      "10": 1499,
      "Ġinvol": 1500,
      "Ġusing": 1501,
      "ively": 1502,
      "Ġfull": 1503,
      "erence": 1504,
      "Ġlegal": 1505,
      "Ġsal": 1506,
      "mb": 1507,
      "Ġori": 1508,
      "Ġsoft": 1509,
      "Ġvi": 1510,
      "Ġdirective": 1511,
      "Ġplease": 1512,
      "leg": 1513,
      "Ġrepresent": 1514,
      "Ġalways": 1515,
      "egr": 1516,
      "Ġbased": 1517,
      "co": 1518,
      "Ġenter": 1519,
      "Ġlo": 1520,
      "Ġindivid": 1521,
      "Ġshort": 1522,
      "riend": 1523,
      "ax": 1524,
      "sibility": 1525,
      "Ġhol": 1526,
      "Ġlegisl": 1527,
      "Ġterms": 1528,
      "Ġneeds": 1529,
      "ize": 1530,
      "Ġgeneral": 1531,
      "Ġmus": 1532,
      "ling": 1533,
      "ix": 1534,
      "Ġhapp": 1535,
      "Ġdeal": 1536,
      "ination": 1537,
      "Ġthird": 1538,
      "Ġvote": 1539,
      "Ġremain": 1540,
      "Ġsubject": 1541,
      "ners": 1542,
      "Ġbro": 1543,
      "Ġbetter": 1544,
      "Ġwish": 1545,
      "Ġlim": 1546,
      "aur": 1547,
      "ps": 1548,
      "Ġworking": 1549,
      "gether": 1550,
      "Ġtogether": 1551,
      "Ġconsider": 1552,
      "Ġreach": 1553,
      "ands": 1554,
      "Ġpa": 1555,
      "Ġless": 1556,
      "Ġfish": 1557,
      "Ġconnect": 1558,
      "Ġ9": 1559,
      "Ġintegr": 1560,
      "Ġthank": 1561,
      "Ġpat": 1562,
      "Ġchildren": 1563,
      "Ġfav": 1564,
      "Ġproduction": 1565,
      "Ġaround": 1566,
      "Ġwomen": 1567,
      "Ġchang": 1568,
      "ret": 1569,
      "Ġtri": 1570,
      "Ġtow": 1571,
      "Ġshe": 1572,
      "Ġsystems": 1573,
      "ury": 1574,
      "Ġmodern": 1575,
      "Ġproced": 1576,
      "icult": 1577,
      "Ġwater": 1578,
      "ung": 1579,
      "Ġmil": 1580,
      "Ġmrs": 1581,
      "Ġconditions": 1582,
      "less": 1583,
      "Ġparticularly": 1584,
      "he": 1585,
      "til": 1586,
      "Ġameric": 1587,
      "Ġinternet": 1588,
      "Ġcare": 1589,
      "Ġsta": 1590,
      "Ġbecome": 1591,
      "ek": 1592,
      "por": 1593,
      "ources": 1594,
      "Ġindustry": 1595,
      "Ġproper": 1596,
      "ns": 1597,
      "Ġindividual": 1598,
      "ises": 1599,
      "Ġlook": 1600,
      "na": 1601,
      "pporteur": 1602,
      "Ġhim": 1603,
      "Ġrestaur": 1604,
      "Ġtal": 1605,
      "ond": 1606,
      "arant": 1607,
      "Ġvisit": 1608,
      "Ġonce": 1609,
      "Ġer": 1610,
      "Ġclos": 1611,
      "Ġcompan": 1612,
      "mental": 1613,
      "Ġdifficult": 1614,
      "Ġpromot": 1615,
      "Ġ...": 1616,
      "Ġlab": 1617,
      "Ġlocal": 1618,
      "ense": 1619,
      "Ġrapporteur": 1620,
      "iod": 1621,
      "Ġtext": 1622,
      "Ġapart": 1623,
      "oura": 1624,
      "Ġbene": 1625,
      "Ġexperience": 1626,
      "Ġgent": 1627,
      "Ġcontain": 1628,
      "Ġsumm": 1629,
      "Ġmanagement": 1630,
      "Ġprogramme": 1631,
      "Ġdri": 1632,
      "Ġcontrib": 1633,
      "Ġrules": 1634,
      "Ġrun": 1635,
      "Ġissues": 1636,
      "Ġtax": 1637,
      "li": 1638,
      "Ġwhole": 1639,
      "Ġstruct": 1640,
      "orth": 1641,
      "Ġvarious": 1642,
      "Ġcentral": 1643,
      "Ġspecific": 1644,
      "Ġamong": 1645,
      "ars": 1646,
      "Ġguarant": 1647,
      "Ġaddress": 1648,
      "Ġrele": 1649,
      "Ġnear": 1650,
      "kes": 1651,
      "tal": 1652,
      "aren": 1653,
      "Ġdoc": 1654,
      "erv": 1655,
      "pecially": 1656,
      "Ġstep": 1657,
      "Ġlad": 1658,
      "Ġcompanies": 1659,
      "Ġpack": 1660,
      "Ġfood": 1661,
      "ooking": 1662,
      "Ġiniti": 1663,
      "Ġrole": 1664,
      "Ġwal": 1665,
      "Ġfriend": 1666,
      "by": 1667,
      "ons": 1668,
      "Ġsite": 1669,
      "Ġconsum": 1670,
      "Ġann": 1671,
      "ran": 1672,
      "elves": 1673,
      "Ġsever": 1674,
      "Ġbreak": 1675,
      "raph": 1676,
      "Ġhome": 1677,
      "ged": 1678,
      "be": 1679,
      "ÂłÂł": 1680,
      "Ġlang": 1681,
      "lose": 1682,
      "wh": 1683,
      "Ġexist": 1684,
      "Ġbenef": 1685,
      "Ġorigin": 1686,
      "Ġocc": 1687,
      "Ġespecially": 1688,
      "Ġsoci": 1689,
      "Ġaim": 1690,
      "Ġsector": 1691,
      "Ġmot": 1692,
      "Ġframe": 1693,
      "Ġfollowing": 1694,
      "Ġrom": 1695,
      "Ġsoftware": 1696,
      "Ġappe": 1697,
      "Ġregion": 1698,
      "reen": 1699,
      "Ġmove": 1700,
      "Ġbeaut": 1701,
      "Ġbasis": 1702,
      "Ġpress": 1703,
      "la": 1704,
      "Ġris": 1705,
      "Ġmult": 1706,
      "ger": 1707,
      "Ġpage": 1708,
      "Ġdemocr": 1709,
      "Ġbed": 1710,
      "ux": 1711,
      "Ġtown": 1712,
      "Ġ15": 1713,
      "itor": 1714,
      "Ġwelcome": 1715,
      "Ġterr": 1716,
      "Ġdocu": 1717,
      "Ġseveral": 1718,
      "over": 1719,
      "oti": 1720,
      "Ġmatter": 1721,
      "fact": 1722,
      "nov": 1723,
      "ify": 1724,
      "Ġeffort": 1725,
      "Ġsingle": 1726,
      "ĠÂłÂł": 1727,
      "Ġmater": 1728,
      "Ġve": 1729,
      "Ġtreaty": 1730,
      "ffic": 1731,
      "Ġpersonal": 1732,
      "ances": 1733,
      "Ġcreate": 1734,
      "Ġprior": 1735,
      "Ġsea": 1736,
      "Ġmonth": 1737,
      "ark": 1738,
      "Ġwebs": 1739,
      "Ġtop": 1740,
      "Ġperform": 1741,
      "Ġdone": 1742,
      "imate": 1743,
      "ash": 1744,
      "Ġdou": 1745,
      "Ġdecision": 1746,
      "Ġfeat": 1747,
      "Ġperiod": 1748,
      "Ġdiscuss": 1749,
      "ensive": 1750,
      "Ġexpl": 1751,
      "Ġclose": 1752,
      "Ġnegoti": 1753,
      "Ġid": 1754,
      "Ġpal": 1755,
      "Ġreally": 1756,
      "pri": 1757,
      "Ġexpress": 1758,
      "Ġexcell": 1759,
      "Ġyet": 1760,
      "isions": 1761,
      "Ġimprove": 1762,
      "Ġlangu": 1763,
      "Ġur": 1764,
      "Ġsat": 1765,
      "Ġtest": 1766,
      "room": 1767,
      "thing": 1768,
      "Ġcomfort": 1769,
      "Ġstrong": 1770,
      "Ġcontact": 1771,
      "Ġgentle": 1772,
      "Ġrequest": 1773,
      "Ġfamily": 1774,
      "Ġpeace": 1775,
      "ences": 1776,
      "Ġnever": 1777,
      "ization": 1778,
      "und": 1779,
      "Ġapproach": 1780,
      "Ġprivate": 1781,
      "fer": 1782,
      "Ġgerman": 1783,
      "Ġet": 1784,
      "Ġtru": 1785,
      "ator": 1786,
      "Ġpost": 1787,
      "Ġcolle": 1788,
      "Ġwind": 1789,
      "oney": 1790,
      "Ġresolution": 1791,
      "Ġbegin": 1792,
      "Ġsomething": 1793,
      "Ġ12": 1794,
      "ended": 1795,
      "Ġreform": 1796,
      "ins": 1797,
      "Ġrelations": 1798,
      "ats": 1799,
      "Ġmaterial": 1800,
      "Ġprofess": 1801,
      "ending": 1802,
      "Ġcommunic": 1803,
      "Ġcontinue": 1804,
      "Ġitself": 1805,
      "ime": 1806,
      "ave": 1807,
      "Ġess": 1808,
      "go": 1809,
      "Ġmaking": 1810,
      "Ġaid": 1811,
      "asing": 1812,
      "ody": 1813,
      "Ġladies": 1814,
      "ec": 1815,
      "Ġoften": 1816,
      "Ġ18": 1817,
      "Ġenc": 1818,
      "Ġintrodu": 1819,
      "Ġdetail": 1820,
      "Ġhard": 1821,
      "Ġdue": 1822,
      "rem": 1823,
      "Ġcris": 1824,
      "Ġprogress": 1825,
      "Ġsafety": 1826,
      "ours": 1827,
      "Ġuntil": 1828,
      "Ġmillion": 1829,
      "Ġgentlemen": 1830,
      "Ġparticip": 1831,
      "lish": 1832,
      "Ġaccording": 1833,
      "ici": 1834,
      "Ġpartners": 1835,
      "Ġamendments": 1836,
      "ool": 1837,
      "Ġserious": 1838,
      "way": 1839,
      "Ġfour": 1840,
      "Ġopin": 1841,
      "Ġname": 1842,
      "ably": 1843,
      "ither": 1844,
      "ont": 1845,
      "Ġgoing": 1846,
      "Ġlocation": 1847,
      "Ġunderstand": 1848,
      "Ġgrowth": 1849,
      "ven": 1850,
      "Ġstaff": 1851,
      "Ġbeach": 1852,
      "Ġleast": 1853,
      "Ġcrisis": 1854,
      "Ġphot": 1855,
      "for": 1856,
      "Ġtechnology": 1857,
      "ogn": 1858,
      "Ġgermany": 1859,
      "Ġlat": 1860,
      "Ġweb": 1861,
      "Ġlight": 1862,
      "Ġkind": 1863,
      "Ġhaving": 1864,
      "ricult": 1865,
      "Ġexcellent": 1866,
      "Ġframework": 1867,
      "Ġhead": 1868,
      "Ġant": 1869,
      "Ġforward": 1870,
      "Ġline": 1871,
      "Ġminutes": 1872,
      "Ġconstit": 1873,
      "ittle": 1874,
      "Ġvill": 1875,
      "aking": 1876,
      "Ġfeel": 1877,
      "ification": 1878,
      "Ġinstall": 1879,
      "Ġreview": 1880,
      "ok": 1881,
      "Ġagricult": 1882,
      "Ġtowards": 1883,
      "Ġeduc": 1884,
      "of": 1885,
      "Ġhost": 1886,
      "Ġartic": 1887,
      "ale": 1888,
      "Ġaway": 1889,
      "Ġinstitutions": 1890,
      "Ġprice": 1891,
      "side": 1892,
      "Ġthings": 1893,
      "Ġstat": 1894,
      "Ġmoney": 1895,
      "ze": 1896,
      "Ġrather": 1897,
      "Ġrecogn": 1898,
      "Ġclass": 1899,
      "Ġcustomers": 1900,
      "Ġpresid": 1901,
      "Ġrange": 1902,
      "Ġdays": 1903,
      "Ġlittle": 1904,
      "Ġge": 1905,
      "Ġbor": 1906,
      "Ġmean": 1907,
      "ca": 1908,
      "pped": 1909,
      "Ġmention": 1910,
      "Ġkeep": 1911,
      "though": 1912,
      "]]": 1913,
      "ister": 1914,
      "alog": 1915,
      "rict": 1916,
      "Ġexpect": 1917,
      "Ġsl": 1918,
      "Ġx": 1919,
      "Ġmadam": 1920,
      "Ġtry": 1921,
      "gu": 1922,
      "Ġstrategy": 1923,
      "Ġlar": 1924,
      "Ġmen": 1925,
      "airs": 1926,
      "Ġ&": 1927,
      "Ġital": 1928,
      "Ġbring": 1929,
      "Ġfunction": 1930,
      "Ġleft": 1931,
      "mitt": 1932,
      "Ġalthough": 1933,
      "Ġbig": 1934,
      "'t": 1935,
      "Ġincrease": 1936,
      "lin": 1937,
      "Ġdev": 1938,
      "Ġsci": 1939,
      "Ġsuper": 1940,
      "sequ": 1941,
      "istic": 1942,
      "thers": 1943,
      "Ġmor": 1944,
      "Ġquite": 1945,
      "sp": 1946,
      "Ġactivities": 1947,
      "most": 1948,
      "Ġfavour": 1949,
      "Ġestablish": 1950,
      "atives": 1951,
      "Ġopportunity": 1952,
      "Ġopp": 1953,
      "Ġachieve": 1954,
      "Ġalong": 1955,
      "Ġresources": 1956,
      "Ġinstru": 1957,
      "Ġtradition": 1958,
      "Ġtar": 1959,
      "load": 1960,
      "Ġfreed": 1961,
      "Ġabove": 1962,
      "Ġber": 1963,
      "Ġpast": 1964,
      "ng": 1965,
      "Ġarch": 1966,
      "Ġpresidency": 1967,
      "Ġgl": 1968,
      "fast": 1969,
      "Ġfoc": 1970,
      "Ġfully": 1971,
      "Ġforeign": 1972,
      "Ġcal": 1973,
      "fect": 1974,
      "Ġcri": 1975,
      "ees": 1976,
      "Ġprovided": 1977,
      "Ġele": 1978,
      "Ġste": 1979,
      "ived": 1980,
      "Ġevent": 1981,
      "Ġtool": 1982,
      "Ġmight": 1983,
      "Ġteam": 1984,
      "Ġcreat": 1985,
      "Ġfinally": 1986,
      "Ġbehalf": 1987,
      "Ġparty": 1988,
      "Ġtimes": 1989,
      "Ġmid": 1990,
      "Ġseem": 1991,
      "ply": 1992,
      "Ġregul": 1993,
      "ides": 1994,
      "Ġregulation": 1995,
      "iful": 1996,
      "ets": 1997,
      "Ġabs": 1998,
      "Ġsignific": 1999,
      "Ġfreedom": 2000,
      "ah": 2001,
      "Ġcontent": 2002,
      "racy": 2003,
      "sw": 2004,
      "Ġsug": 2005,
      "Ġhistor": 2006,
      "cies": 2007,
      "Ġ0": 2008,
      "Ġfield": 2009,
      "Ġwebsite": 2010,
      "Ġautom": 2011,
      "soci": 2012,
      "Ġtem": 2013,
      "br": 2014,
      "Ġfle": 2015,
      "Ġterm": 2016,
      "Ġinclude": 2017,
      "Ġtaking": 2018,
      "Ġ[[": 2019,
      "mber": 2020,
      "Ġeconomy": 2021,
      "Ġfunda": 2022,
      "Ġsolution": 2023,
      "Ġproposals": 2024,
      "Ġplac": 2025,
      "Ġwin": 2026,
      "ext": 2027,
      "Ġstre": 2028,
      "Ġdon": 2029,
      "ade": 2030,
      "gn": 2031,
      "Ġothers": 2032,
      "Ġholid": 2033,
      "Ġeasy": 2034,
      "Ġadmin": 2035,
      "Ġnight": 2036,
      "Ġdesc": 2037,
      "Ġstren": 2038,
      "ples": 2039,
      "Ġsociety": 2040,
      "Ġviol": 2041,
      "Ġvalue": 2042,
      "Ġweek": 2043,
      "ites": 2044,
      "Ġrecomm": 2045,
      "ript": 2046,
      "Ġheart": 2047,
      "Ġbeautiful": 2048,
      "gth": 2049,
      "Ġfail": 2050,
      "Ġretur": 2051,
      "Ġvia": 2052,
      "Ġchall": 2053,
      "Ġcosts": 2054,
      "Ġciv": 2055,
      "20": 2056,
      "Ġuser": 2057,
      "Ġsimply": 2058,
      "Ġstrength": 2059,
      "Ġapplication": 2060,
      "idence": 2061,
      "Ġsure": 2062,
      "fully": 2063,
      "Ġinnov": 2064,
      "Ġ2009": 2065,
      "Ġadopted": 2066,
      "Ġflo": 2067,
      "Ġdest": 2068,
      "200": 2069,
      "self": 2070,
      "Ġthus": 2071,
      "ann": 2072,
      "val": 2073,
      "Ġamendment": 2074,
      "Ġfocus": 2075,
      "aps": 2076,
      "Ġroad": 2077,
      "stain": 2078,
      "Ġassoci": 2079,
      "icial": 2080,
      "Ġund": 2081,
      "ames": 2082,
      "Ġcharact": 2083,
      "Ġbuilding": 2084,
      "Ġbath": 2085,
      "Ġtele": 2086,
      "Ġsouth": 2087,
      "Ġopinion": 2088,
      "Ġdom": 2089,
      "pend": 2090,
      "Ġpoints": 2091,
      "Ġentire": 2092,
      "Ġlegislation": 2093,
      "Ġmakes": 2094,
      "Ġpot": 2095,
      "ators": 2096,
      "Ġisland": 2097,
      "ember": 2098,
      "Ġvol": 2099,
      "Ġmach": 2100,
      "Ġmeeting": 2101,
      "ension": 2102,
      "ories": 2103,
      "Ġlot": 2104,
      "Ġperfect": 2105,
      "Ġquestions": 2106,
      "Ġcheck": 2107,
      "Ġdeli": 2108,
      "Ġprojects": 2109,
      "Ġunivers": 2110,
      "Ġresults": 2111,
      "Ġcred": 2112,
      "Ġenvironmental": 2113,
      "Ġattention": 2114,
      "Ġcalled": 2115,
      "Ġnatural": 2116,
      "Ġchina": 2117,
      "Ġbreakfast": 2118,
      "Ġlin": 2119,
      "Ġguests": 2120,
      "Ġpolicies": 2121,
      "ening": 2122,
      "uge": 2123,
      "Ġresponsibility": 2124,
      "Ġgroups": 2125,
      "iet": 2126,
      "hod": 2127,
      "Ġcontext": 2128,
      "Ġadminist": 2129,
      "imum": 2130,
      "Ġtyp": 2131,
      "Ġemployment": 2132,
      "aster": 2133,
      "Ġmanu": 2134,
      "Ġinternal": 2135,
      "Ġident": 2136,
      "Ġclearly": 2137,
      "Ġcivil": 2138,
      "Ġprovides": 2139,
      "edi": 2140,
      "bon": 2141,
      "Ġtraining": 2142,
      "ters": 2143,
      "Ġconcerned": 2144,
      "Ġindeed": 2145,
      "Ġgreater": 2146,
      "Ġsport": 2147,
      "ilt": 2148,
      "irc": 2149,
      "Ġcop": 2150,
      "Ġlear": 2151,
      "Ġdam": 2152,
      "Ġlog": 2153,
      "Ġappropri": 2154,
      "Ġeffective": 2155,
      "Ġprevent": 2156,
      "Ġdr": 2157,
      "Ġrestaurant": 2158,
      "Ġversion": 2159,
      "pping": 2160,
      "Ġcod": 2161,
      "Ġcontinu": 2162,
      "Ġonline": 2163,
      "ograph": 2164,
      "bur": 2165,
      "Ġfundamental": 2166,
      "ledge": 2167,
      "ery": 2168,
      "Ġcommit": 2169,
      "Ġspeak": 2170,
      "Ġimportance": 2171,
      "Ġtechnical": 2172,
      "Ġbook": 2173,
      "Ġbank": 2174,
      "Ġcomplete": 2175,
      "word": 2176,
      "ior": 2177,
      "Ġknown": 2178,
      "Ġstandards": 2179,
      "ened": 2180,
      "Ġmusic": 2181,
      "tion": 2182,
      "bo": 2183,
      "Ġcapital": 2184,
      "Ġstandard": 2185,
      "Ġworks": 2186,
      "Ġextrem": 2187,
      "Ġaust": 2188,
      "ler": 2189,
      "ountain": 2190,
      "Ġru": 2191,
      "Ġcourt": 2192,
      "ceed": 2193,
      "Ġincreasing": 2194,
      "Ġce": 2195,
      "Ġmanufact": 2196,
      "Ġnetwork": 2197,
      "Ġren": 2198,
      "Ġquick": 2199,
      "ows": 2200,
      "Ġprocedure": 2201,
      "mitted": 2202,
      "Ġmethod": 2203,
      "Ġhistory": 2204,
      "Ġmob": 2205,
      "Ġassist": 2206,
      "Ġlos": 2207,
      "Ġpric": 2208,
      "Ġachie": 2209,
      "Ġcurrently": 2210,
      "Ġprinciple": 2211,
      "ges": 2212,
      "Ġrecent": 2213,
      "Ġnature": 2214,
      "Ġshare": 2215,
      "Ġ30": 2216,
      "Ġselect": 2217,
      "Ġindepend": 2218,
      "Ġamount": 2219,
      "ured": 2220,
      "Ġanal": 2221,
      "Ġmanag": 2222,
      "Ġansw": 2223,
      "Ġwords": 2224,
      "Ġsignificant": 2225,
      "Ġfunds": 2226,
      "Ġ/": 2227,
      "itch": 2228,
      "Ġwon": 2229,
      "Ġsolutions": 2230,
      "Ġcultural": 2231,
      "Ġrisk": 2232,
      "Ġclic": 2233,
      "Ġdemocratic": 2234,
      "Ġfarm": 2235,
      "Ġcirc": 2236,
      "atch": 2237,
      "ump": 2238,
      "Ġdemand": 2239,
      "Ġyoung": 2240,
      "Ġlater": 2241,
      "Ġauthorities": 2242,
      "Ġsan": 2243,
      "Ġrequired": 2244,
      "Ġstation": 2245,
      "Ġsituated": 2246,
      "ering": 2247,
      "Ġaud": 2248,
      "ring": 2249,
      "Ġessential": 2250,
      "unch": 2251,
      "Ġairport": 2252,
      "Ġregional": 2253,
      "Ġeducation": 2254,
      "att": 2255,
      "Ġred": 2256,
      "Ġfacilities": 2257,
      "Ġbur": 2258,
      "ruction": 2259,
      "Ġrelax": 2260,
      "Ġrad": 2261,
      "ateg": 2262,
      "Ġsustain": 2263,
      "lig": 2264,
      "Ġdistrib": 2265,
      "ried": 2266,
      "Ġtre": 2267,
      "Ġschool": 2268,
      "pose": 2269,
      "Ġbi": 2270,
      "Ġregions": 2271,
      "Ġeur": 2272,
      "Ġfight": 2273,
      "Ġconference": 2274,
      "sc": 2275,
      "Ġsubst": 2276,
      "Ġdemocracy": 2277,
      "Ġec": 2278,
      "Ġappl": 2279,
      "Ġforce": 2280,
      "Ġupon": 2281,
      "Ġcompetition": 2282,
      "hib": 2283,
      "Ġaspect": 2284,
      "Ġsty": 2285,
      "Ġrecord": 2286,
      "Ġaware": 2287,
      "Ġinfl": 2288,
      "Ġsuggest": 2289,
      "Ġmess": 2290,
      "Ġside": 2291,
      "Ġland": 2292,
      "Ġdirectly": 2293,
      "Ġliber": 2294,
      "Ġmom": 2295,
      "Ġevents": 2296,
      "Ġcomput": 2297,
      "arity": 2298,
      "Ġresponsible": 2299,
      "oot": 2300,
      "Ġpages": 2301,
      "ided": 2302,
      "Ġcamp": 2303,
      "Ġtotal": 2304,
      "den": 2305,
      "Ġlow": 2306,
      "Ġlonger": 2307,
      "Ġcentury": 2308,
      "Ġlive": 2309,
      "Ġmountain": 2310,
      "une": 2311,
      "Ġ11": 2312,
      "Ġrequirements": 2313,
      "Ġ|": 2314,
      "Ġproposed": 2315,
      "Ġparties": 2316,
      "Ġmonths": 2317,
      "Ġder": 2318,
      "Ġcrit": 2319,
      "Ġpark": 2320,
      "Ġmaintain": 2321,
      "mar": 2322,
      "ients": 2323,
      "Ġcharacter": 2324,
      "Ġinterests": 2325,
      "bour": 2326,
      "ll": 2327,
      "round": 2328,
      "Ġlanguage": 2329,
      "ank": 2330,
      "Ġcard": 2331,
      "Ġlink": 2332,
      "Ġapply": 2333,
      "Ġprep": 2334,
      "Ġaffect": 2335,
      "Ġsun": 2336,
      "Ġcontract": 2337,
      "Ġmass": 2338,
      "Ġarticle": 2339,
      "oint": 2340,
      "ging": 2341,
      "Ġsound": 2342,
      "Ġenough": 2343,
      "Ġimplementation": 2344,
      "ussia": 2345,
      "anced": 2346,
      "Ġguarantee": 2347,
      "key": 2348,
      "Ġitem": 2349,
      "Ġexch": 2350,
      "ĠÂ": 2351,
      "Ġanim": 2352,
      "Ġclean": 2353,
      "Ġconsequ": 2354,
      "Ġthems": 2355,
      "Ġinvolved": 2356,
      "Ġdocument": 2357,
      "Ġfair": 2358,
      "Ġrefer": 2359,
      "Ġthemselves": 2360,
      "Ġgard": 2361,
      "Ġcy": 2362,
      "arian": 2363,
      "Ġturn": 2364,
      "empt": 2365,
      "ton": 2366,
      "Ġeverything": 2367,
      "Ġcustomer": 2368,
      "Ġchanges": 2369,
      "Ġtravel": 2370,
      "Ġefforts": 2371,
      "Ġbroad": 2372,
      "Ġvoted": 2373,
      "Ġgreen": 2374,
      "Ġ25": 2375,
      "rench": 2376,
      "Ġaffairs": 2377,
      "erous": 2378,
      "Ġir": 2379,
      "atory": 2380,
      "Ġnote": 2381,
      "Ġsoon": 2382,
      "Ġ14": 2383,
      "Ġclimate": 2384,
      "acy": 2385,
      "Ġneeded": 2386,
      "Ġtarget": 2387,
      "Ġcenter": 2388,
      "Ġmer": 2389,
      "Ġthough": 2390,
      "Ġextremely": 2391,
      "Ġcla": 2392,
      "Ġnorth": 2393,
      "Ġadditional": 2394,
      "Ġeither": 2395,
      "Ġconsult": 2396,
      "Ġafric": 2397,
      "Ġdeveloped": 2398,
      "Ġago": 2399,
      "Ġcaus": 2400,
      "Ġmarkets": 2401,
      "Ġtas": 2402,
      "Ġprevious": 2403,
      "Ġmedia": 2404,
      "ta": 2405,
      "Ġnegotiations": 2406,
      "Ġharm": 2407,
      "Ġpositive": 2408,
      "Ġprices": 2409,
      "Ġpict": 2410,
      "Ġoffice": 2411,
      "paren": 2412,
      "Ġdownload": 2413,
      "Ġsafe": 2414,
      "Ġoppos": 2415,
      "Ġdeveloping": 2416,
      "ops": 2417,
      "Ġviews": 2418,
      "Ġalmost": 2419,
      "Ġfinal": 2420,
      "rist": 2421,
      "Ġvide": 2422,
      "ser": 2423,
      "Ġcases": 2424,
      "Ġrussia": 2425,
      "Ġspace": 2426,
      "rad": 2427,
      "itary": 2428,
      "pro": 2429,
      "Ġspa": 2430,
      "Ġsurround": 2431,
      "Ġdraw": 2432,
      "Ġprogram": 2433,
      "Ġindic": 2434,
      "Ġpool": 2435,
      "Ġpan": 2436,
      "Ġcomes": 2437,
      "Ġtrue": 2438,
      "Ġthanks": 2439,
      "Ġjoint": 2440,
      "Ġ16": 2441,
      "Ġcut": 2442,
      "ony": 2443,
      "Ġden": 2444,
      "Ġwa": 2445,
      "ired": 2446,
      "Ġliving": 2447,
      "Ġinvestment": 2448,
      "ibility": 2449,
      "Ġprofessional": 2450,
      "Ġcommunication": 2451,
      "Ġcreated": 2452,
      "Ġrecommend": 2453,
      "Ġ2008": 2454,
      "Ġten": 2455,
      "Ġenl": 2456,
      "Ġground": 2457,
      "Ġarri": 2458,
      "Ġterror": 2459,
      "Ġculture": 2460,
      "ili": 2461,
      "ored": 2462,
      "Ġfront": 2463,
      "Ġ2010": 2464,
      "Ġsend": 2465,
      "alogue": 2466,
      "Ġimmedi": 2467,
      "Ġknowledge": 2468,
      "ims": 2469,
      "cl": 2470,
      "Ġactually": 2471,
      "Ġaccomm": 2472,
      "Ġboard": 2473,
      "Ġetc": 2474,
      "Ġfile": 2475,
      "Ġunique": 2476,
      "Ġaccommod": 2477,
      "Ġincluded": 2478,
      "utional": 2479,
      "Ġattract": 2480,
      "Ġtype": 2481,
      "Ġfrench": 2482,
      "Ġwide": 2483,
      "gen": 2484,
      "Ġtransparen": 2485,
      "Ġprec": 2486,
      "eless": 2487,
      "Ġsearch": 2488,
      "ma": 2489,
      "Ġhon": 2490,
      "Ġconvention": 2491,
      "Ġmind": 2492,
      "che": 2493,
      "sh": 2494,
      "Ġcross": 2495,
      "Ġworkers": 2496,
      "Ġtransl": 2497,
      "Ġthroughout": 2498,
      "Ġclick": 2499,
      "ctions": 2500,
      "Ġamb": 2501,
      "str": 2502,
      "irm": 2503,
      "Ġfive": 2504,
      "Ġconcept": 2505,
      "Ġnor": 2506,
      "Ġlooking": 2507,
      "Ġ17": 2508,
      "ino": 2509,
      "has": 2510,
      "Ġseen": 2511,
      "Ġencoura": 2512,
      "Ġholiday": 2513,
      "Ġreceive": 2514,
      "haps": 2515,
      "Ġcertainly": 2516,
      "Ġideal": 2517,
      "ob": 2518,
      "Ġidea": 2519,
      "lear": 2520,
      "Ġ50": 2521,
      "Ġeast": 2522,
      "Ġcollect": 2523,
      "Ġusers": 2524,
      "ulate": 2525,
      "Ġcast": 2526,
      "Ġ24": 2527,
      "Ġappropriate": 2528,
      "oid": 2529,
      "Ġperhaps": 2530,
      "Ġequip": 2531,
      "elling": 2532,
      "abled": 2533,
      "Ġdesigned": 2534,
      "Ġmoment": 2535,
      "Ġexcept": 2536,
      "Ġheld": 2537,
      "ource": 2538,
      "new": 2539,
      "ought": 2540,
      "Ġearly": 2541,
      "30": 2542,
      "Ġoutside": 2543,
      "ison": 2544,
      "Ġsolid": 2545,
      "mos": 2546,
      "Ġcomfortable": 2547,
      "let": 2548,
      "rial": 2549,
      "Ġgame": 2550,
      "Ġexclus": 2551,
      "Ġdate": 2552,
      "Ġimpact": 2553,
      "ĠÐ": 2554,
      "Ġever": 2555,
      "ead": 2556,
      "ipped": 2557,
      "Ġmajority": 2558,
      "Ġmonitor": 2559,
      "Ġfamous": 2560,
      "Ġfrance": 2561,
      "vant": 2562,
      "Ġextra": 2563,
      "Ġfeatures": 2564,
      "Ġdecl": 2565,
      "Ġrate": 2566,
      "Ġacross": 2567,
      "eral": 2568,
      "Ġupd": 2569,
      "Ġdraft": 2570,
      "Ġdut": 2571,
      "Ġhotels": 2572,
      "Ġhold": 2573,
      "ban": 2574,
      "Ġthing": 2575,
      "Ġbrit": 2576,
      "Ġfall": 2577,
      "Ġparts": 2578,
      "no": 2579,
      "Ġdispl": 2580,
      "Ġconcerning": 2581,
      "Ġnothing": 2582,
      "Ġoblig": 2583,
      "light": 2584,
      "Ġtraditional": 2585,
      "ote": 2586,
      "Ġil": 2587,
      "Ġflex": 2588,
      "Ġdoing": 2589,
      "ternal": 2590,
      "Ġvict": 2591,
      "Ġ2007": 2592,
      "Ġkm": 2593,
      "su": 2594,
      "Ġnam": 2595,
      "Ġwalk": 2596,
      "Ġcolleag": 2597,
      "ilar": 2598,
      "Ġemphas": 2599,
      "Ġmodel": 2600,
      "Ġcomplet": 2601,
      "ires": 2602,
      "ression": 2603,
      "cer": 2604,
      "Ġcoord": 2605,
      "ĠâĢĺ": 2606,
      "Ġtakes": 2607,
      "50": 2608,
      "aring": 2609,
      "ians": 2610,
      "Ġcorrect": 2611,
      "off": 2612,
      "Ġbuilt": 2613,
      "sid": 2614,
      "Ġjud": 2615,
      "Ġrail": 2616,
      "Ġcommer": 2617,
      "Ġregarding": 2618,
      "Ġhy": 2619,
      "Ġuk": 2620,
      "Ġhours": 2621,
      "Ġcomplex": 2622,
      "ean": 2623,
      "Ġdemon": 2624,
      "ha": 2625,
      "Ġexisting": 2626,
      "gic": 2627,
      "Ġengine": 2628,
      "Ġbra": 2629,
      "dle": 2630,
      "Ġprogrammes": 2631,
      "Ġvir": 2632,
      "Ġcoh": 2633,
      "Ġlux": 2634,
      "Ġinstead": 2635,
      "Ġdeterm": 2636,
      "Ġbasic": 2637,
      "Ġmax": 2638,
      "Ġ100": 2639,
      "Ġdesp": 2640,
      "Ġconcerns": 2641,
      "Ġlis": 2642,
      "Ġmilitary": 2643,
      "Ġdig": 2644,
      "ables": 2645,
      "rast": 2646,
      "Ġconnection": 2647,
      "Ġdecisions": 2648,
      "rug": 2649,
      "Ġturkey": 2650,
      "Ġagreements": 2651,
      "inary": 2652,
      "Ġofficial": 2653,
      "use": 2654,
      "ott": 2655,
      "Ġobjective": 2656,
      "Ġcham": 2657,
      "atically": 2658,
      "Ġagre": 2659,
      "Ġtook": 2660,
      "Ġleading": 2661,
      "Ġcompletely": 2662,
      "Ġconflic": 2663,
      "Ġnews": 2664,
      "Ġassess": 2665,
      "Ġnice": 2666,
      "Ġvari": 2667,
      "Ġindustrial": 2668,
      "Ġmentioned": 2669,
      "chan": 2670,
      "Ġoriginal": 2671,
      "Ġtv": 2672,
      "Ġwriting": 2673,
      "ots": 2674,
      "Ġseries": 2675,
      "Ġthreat": 2676,
      "Ġreasons": 2677,
      "Ġfa": 2678,
      "Ġexchange": 2679,
      "fortun": 2680,
      "Ġhalf": 2681,
      "ex": 2682,
      "Ġcru": 2683,
      "Ġbody": 2684,
      "Ġpractice": 2685,
      "Ġfed": 2686,
      "Ġrelated": 2687,
      "Ġpurch": 2688,
      "Ġimage": 2689,
      "Ġprint": 2690,
      "ria": 2691,
      "vert": 2692,
      "Ġsent": 2693,
      "oph": 2694,
      "Ġeveryone": 2695,
      "Ġ13": 2696,
      "Ġunfortun": 2697,
      "Ġpopulation": 2698,
      "yn": 2699,
      "Ġrule": 2700,
      "Ġmuse": 2701,
      "Ġsimilar": 2702,
      "rection": 2703,
      "ches": 2704,
      "ones": 2705,
      "Ġbelow": 2706,
      "Ġscient": 2707,
      "Ġenterpr": 2708,
      "Ġagricultural": 2709,
      "Ġju": 2710,
      "19": 2711,
      "Ġequipment": 2712,
      "Ġperformance": 2713,
      "Ġincludes": 2714,
      "Ġapplications": 2715,
      "Ġamerican": 2716,
      "oking": 2717,
      "Ġobjectives": 2718,
      "\".": 2719,
      "Ġsepar": 2720,
      "Ġsett": 2721,
      "Ġconclus": 2722,
      "Ġjobs": 2723,
      "Ġself": 2724,
      "Ġregist": 2725,
      "Ġpackage": 2726,
      "ublic": 2727,
      "Ġchoose": 2728,
      "Ġrecently": 2729,
      "Ġcomputer": 2730,
      "Ġenglish": 2731,
      "Ġexternal": 2732,
      "Ġadvant": 2733,
      "Ġallows": 2734,
      "Ġminister": 2735,
      "Ġjustice": 2736,
      "rael": 2737,
      "Ġinitiative": 2738,
      "Ġbecom": 2739,
      "Ġvalues": 2740,
      "Ġsho": 2741,
      "more": 2742,
      "Ġestablished": 2743,
      "Ġconsumer": 2744,
      "ley": 2745,
      "Ġmal": 2746,
      "Ġface": 2747,
      "Ġamerica": 2748,
      "ses": 2749,
      "Ġemer": 2750,
      "lt": 2751,
      "burg": 2752,
      "Ġgoods": 2753,
      "cent": 2754,
      "Ġtransfer": 2755,
      "itable": 2756,
      "Ġchoice": 2757,
      "ological": 2758,
      "uted": 2759,
      "Ġjan": 2760,
      "Ġword": 2761,
      "Ġsatis": 2762,
      "Ġage": 2763,
      "rop": 2764,
      "Ġreports": 2765,
      "Ġsens": 2766,
      "ying": 2767,
      "Ġsimple": 2768,
      "Ġreceived": 2769,
      "Ġstability": 2770,
      "Ġdepend": 2771,
      "just": 2772,
      "ival": 2773,
      "Ġcapac": 2774,
      "Ġmechan": 2775,
      "Ġfiles": 2776,
      "Ġexec": 2777,
      "Ġpet": 2778,
      "fficient": 2779,
      "Ġrich": 2780,
      "grat": 2781,
      "Ġmic": 2782,
      "Ġdoub": 2783,
      "Ġpain": 2784,
      "Ġ:": 2785,
      "Ġbri": 2786,
      "ster": 2787,
      "Ġreturn": 2788,
      "Ġqual": 2789,
      "Ġfriendly": 2790,
      "Ġsix": 2791,
      "Ġcas": 2792,
      "Ġlisbon": 2793,
      "term": 2794,
      "Ġconcern": 2795,
      "emp": 2796,
      "Ġhor": 2797,
      "Ġpen": 2798,
      "anish": 2799,
      "Ġoil": 2800,
      "Ġisrael": 2801,
      "Ġleaders": 2802,
      "Ġnuc": 2803,
      "Ġactive": 2804,
      "Ġstop": 2805,
      "equ": 2806,
      "Ġgovernments": 2807,
      "Ġclub": 2808,
      "Ġstar": 2809,
      "Ġdouble": 2810,
      "Ġtreatment": 2811,
      "Ġbenefit": 2812,
      "ming": 2813,
      "cious": 2814,
      "Ġkeyword": 2815,
      "Ġsuff": 2816,
      "Ġquickly": 2817,
      "Ġdefin": 2818,
      "eu": 2819,
      "Ġimpos": 2820,
      "Ġmuseum": 2821,
      "enda": 2822,
      "Ġcongrat": 2823,
      "Ġmiddle": 2824,
      "estern": 2825,
      "Ġdespite": 2826,
      "eries": 2827,
      "Ġcover": 2828,
      "Ġeffic": 2829,
      "Ġanalys": 2830,
      "Ġsqu": 2831,
      "Ġpopular": 2832,
      "Ġfoot": 2833,
      "Ġchrist": 2834,
      "Ġjob": 2835,
      "Ġintegration": 2836,
      "Ġdialogue": 2837,
      "Ġpotential": 2838,
      "imes": 2839,
      "know": 2840,
      "Ġinflu": 2841,
      "Ġrepl": 2842,
      "ana": 2843,
      "Ġexhib": 2844,
      "reg": 2845,
      "duct": 2846,
      "amic": 2847,
      "Ð¾": 2848,
      "Ġsense": 2849,
      "iveness": 2850,
      "Ġaltern": 2851,
      "Ġpleas": 2852,
      "Ġconsumers": 2853,
      "Ġsil": 2854,
      "Ġking": 2855,
      "Ġdepart": 2856,
      "app": 2857,
      "Ġlack": 2858,
      "Ġabsol": 2859,
      "Ġachieved": 2860,
      "Ġcontains": 2861,
      "apt": 2862,
      "Ġbeginning": 2863,
      "Ġgree": 2864,
      "ills": 2865,
      "Ġnorm": 2866,
      "Ġcarry": 2867,
      "Ġhighly": 2868,
      "ef": 2869,
      "Ġterra": 2870,
      "Ġseems": 2871,
      "wide": 2872,
      "Ġsuccessful": 2873,
      "Ġinterv": 2874,
      "Ġvideo": 2875,
      "Ġnuclear": 2876,
      "Ġdie": 2877,
      "ology": 2878,
      "Ġsummer": 2879,
      "Ġlic": 2880,
      "ï¿": 2881,
      "zer": 2882,
      "Ġincreased": 2883,
      "ï¿½": 2884,
      "Ġspeed": 2885,
      "Ġstage": 2886,
      "itten": 2887,
      "Ġanswer": 2888,
      "Ġcat": 2889,
      "Ġenlarge": 2890,
      "Ġill": 2891,
      "Ġcoll": 2892,
      "Ġwindows": 2893,
      "Ġwarm": 2894,
      "Ġformer": 2895,
      "Ġbooking": 2896,
      "face": 2897,
      "Ġattempt": 2898,
      "reh": 2899,
      "Ġblo": 2900,
      "Ġhigher": 2901,
      "resh": 2902,
      "Ġdu": 2903,
      "Ġlevels": 2904,
      "Ġefficient": 2905,
      "Ġ198": 2906,
      "vious": 2907,
      "Ġ2000": 2908,
      "Ġrepublic": 2909,
      "hic": 2910,
      "Ġcomprom": 2911,
      "Ġreser": 2912,
      "Ġpresented": 2913,
      "Ġtom": 2914,
      "Ġberlin": 2915,
      "Ġhuge": 2916,
      "Ġequipped": 2917,
      "Ġtell": 2918,
      "ude": 2919,
      "Ġnations": 2920,
      "Ġprinciples": 2921,
      "Ġagenda": 2922,
      "Ġcode": 2923,
      "Ġvo": 2924,
      "Ġemb": 2925,
      "11": 2926,
      "Ġsupply": 2927,
      "bor": 2928,
      "Ġmark": 2929,
      "Ġadded": 2930,
      "olf": 2931,
      "Ġdemonstr": 2932,
      "Ġtable": 2933,
      "Ġdang": 2934,
      "Ġcarried": 2935,
      "Ġwhose": 2936,
      "Ġopportunities": 2937,
      "ese": 2938,
      "Ġchalleng": 2939,
      "ground": 2940,
      "phere": 2941,
      "yl": 2942,
      "ush": 2943,
      "Ġfurn": 2944,
      "raft": 2945,
      "Ġunfortunately": 2946,
      "Ġatmos": 2947,
      "ervation": 2948,
      "Ġjune": 2949,
      "Ġagreed": 2950,
      "Ġvehic": 2951,
      "Ġobvious": 2952,
      "Ġyes": 2953,
      "Ġreviews": 2954,
      "ira": 2955,
      "Ġconfirm": 2956,
      "itect": 2957,
      "Ġavoid": 2958,
      "Ġmaterials": 2959,
      "Ġstreet": 2960,
      "Ġsubsid": 2961,
      "Ġfloor": 2962,
      "Ġship": 2963,
      "Ġcommitment": 2964,
      "Ġhar": 2965,
      "Ġneigh": 2966,
      "Ġobtain": 2967,
      "Ġmatters": 2968,
      "Ġsustainable": 2969,
      "Ġord": 2970,
      "Ġlay": 2971,
      "Ġcommercial": 2972,
      "Ġwest": 2973,
      "Ġshows": 2974,
      "rought": 2975,
      "wise": 2976,
      "Ġdeath": 2977,
      "\",": 2978,
      "Ġbad": 2979,
      "af": 2980,
      "Ġreflect": 2981,
      "Ġbehind": 2982,
      "Ġconsist": 2983,
      "Ġfu": 2984,
      "Ġrates": 2985,
      "Ġasked": 2986,
      "Ġrout": 2987,
      "Ġexport": 2988,
      "Ġwonder": 2989,
      "ww": 2990,
      "ature": 2991,
      "ert": 2992,
      "Ġarm": 2993,
      "Ġdirection": 2994,
      "Ġsubmitted": 2995,
      "Ġeffects": 2996,
      "Ġpromote": 2997,
      "Ġtraffic": 2998,
      "Ġaspects": 2999,
      "Ġlimited": 3000,
      "''": 3001,
      "Ġcredit": 3002,
      "Ġwestern": 3003,
      "Ġproperty": 3004,
      "Ġspir": 3005,
      "Ġpossibility": 3006,
      "Ġdece": 3007,
      "lection": 3008,
      "Ġshown": 3009,
      "Ġfig": 3010,
      "Ġenable": 3011,
      "Ġ2006": 3012,
      "ane": 3013,
      "Ġcreation": 3014,
      "Ġarchitect": 3015,
      "Ġpow": 3016,
      "Ġski": 3017,
      "Ġproviding": 3018,
      "acks": 3019,
      "era": 3020,
      "Ġcoming": 3021,
      "Ġorganis": 3022,
      "Ġanti": 3023,
      "Ġsection": 3024,
      "Ġstress": 3025,
      "Ġsetting": 3026,
      "igration": 3027,
      "Ġlatest": 3028,
      "apan": 3029,
      "Ġaccommodation": 3030,
      "ously": 3031,
      "Ġgain": 3032,
      "Ġcame": 3033,
      "pid": 3034,
      "Ġlabour": 3035,
      "Ġenlargement": 3036,
      "Ġwall": 3037,
      "cel": 3038,
      "Ġresponse": 3039,
      "isc": 3040,
      "Ġdetails": 3041,
      "Ġconsidered": 3042,
      "Ġarr": 3043,
      "Ġchur": 3044,
      "uary": 3045,
      "Ġdeep": 3046,
      "illed": 3047,
      "Ġcoast": 3048,
      "Ġmovement": 3049,
      "urs": 3050,
      "etary": 3051,
      "Ġcro": 3052,
      "issions": 3053,
      "Ġround": 3054,
      "Ġpressure": 3055,
      "mit": 3056,
      "Ġregulations": 3057,
      "Ġreject": 3058,
      "Ġspain": 3059,
      "Ġsummit": 3060,
      "Ġeasily": 3061,
      "Ġreached": 3062,
      "Ġpra": 3063,
      "Ġregular": 3064,
      "Ġcriter": 3065,
      "alu": 3066,
      "Ġreduce": 3067,
      "Ġgrant": 3068,
      "Ġcapacity": 3069,
      "Ġapartment": 3070,
      "Ġactions": 3071,
      "Ġcondition": 3072,
      "Ġindependent": 3073,
      "lier": 3074,
      "dom": 3075,
      "Ġprepared": 3076,
      "where": 3077,
      "Ġassistance": 3078,
      "vere": 3079,
      "Ġpartner": 3080,
      "Ġapartments": 3081,
      "Ġdisplay": 3082,
      "Ġroman": 3083,
      "Ġconduct": 3084,
      "Ġmarch": 3085,
      "Ġmicro": 3086,
      "Ġguid": 3087,
      "Ġsept": 3088,
      "Ġelectron": 3089,
      "Ġtalk": 3090,
      "Ġpriority": 3091,
      "Ġdecided": 3092,
      "12": 3093,
      "Ġours": 3094,
      "Ġleave": 3095,
      "Ġwid": 3096,
      "Ġbalance": 3097,
      "Ġgarden": 3098,
      "Ġjour": 3099,
      "Ġstri": 3100,
      "ev": 3101,
      "Ġoct": 3102,
      "ding": 3103,
      "Ġsites": 3104,
      "Ġconstruction": 3105,
      "Ġblack": 3106,
      "Ġplaces": 3107,
      "Ġwritten": 3108,
      "employ": 3109,
      "Ġwhite": 3110,
      "Ġjapan": 3111,
      "Ġgives": 3112,
      "Ġbathroom": 3113,
      "Ġremains": 3114,
      "Ġprepar": 3115,
      "Ġcause": 3116,
      "Ġitaly": 3117,
      "Ġfunding": 3118,
      "Ġinstruments": 3119,
      "ij": 3120,
      "itation": 3121,
      "ona": 3122,
      "Ġsize": 3123,
      "Ġmanufacture": 3124,
      "Ġatmosphere": 3125,
      "mail": 3126,
      "Ġje": 3127,
      "Ġstyle": 3128,
      "ussion": 3129,
      "ka": 3130,
      "sibilities": 3131,
      "Ġdigital": 3132,
      "Ġpartnership": 3133,
      "Ġfriends": 3134,
      "Â®": 3135,
      "Ġclosed": 3136,
      "ooks": 3137,
      "Ġannoun": 3138,
      "Ġfurthermore": 3139,
      "Ġpaper": 3140,
      "Ġsource": 3141,
      "astic": 3142,
      "Ġtrain": 3143,
      "Ġforms": 3144,
      "Ġstructural": 3145,
      "Ġ)": 3146,
      "Ġcreating": 3147,
      "iterran": 3148,
      "Ġhighlight": 3149,
      "Ġliberal": 3150,
      "Ġflow": 3151,
      "Ġdescrib": 3152,
      "Ġwood": 3153,
      "Ġaccom": 3154,
      "Ġdeg": 3155,
      "istics": 3156,
      "hol": 3157,
      "Ġacqu": 3158,
      "Ġappear": 3159,
      "Ġvillage": 3160,
      "Ġsupported": 3161,
      "rupt": 3162,
      "encies": 3163,
      "Ġserver": 3164,
      "Ġhous": 3165,
      "Ġuniversity": 3166,
      "Ġled": 3167,
      "Ġlik": 3168,
      "ica": 3169,
      "Ġthous": 3170,
      "Ġthought": 3171,
      "Ġseptember": 3172,
      "ober": 3173,
      "Ġcopy": 3174,
      "Ġdecember": 3175,
      "Ġelse": 3176,
      "itting": 3177,
      "Ġpurpose": 3178,
      "Ġconclud": 3179,
      "Ġafrica": 3180,
      "Ġpros": 3181,
      "ume": 3182,
      "cle": 3183,
      "Ġcompreh": 3184,
      "Ġcharge": 3185,
      "Ġitalian": 3186,
      "antly": 3187,
      "Ġfilm": 3188,
      "ategories": 3189,
      "iterranean": 3190,
      "Ġresort": 3191,
      "Ġbrought": 3192,
      "Ġlaunch": 3193,
      "Ġbase": 3194,
      "Ðµ": 3195,
      "Ġfire": 3196,
      "Ġsolidarity": 3197,
      "ief": 3198,
      "Ġmessage": 3199,
      "Ġmobile": 3200,
      "Ġstudy": 3201,
      "Ġdiscussion": 3202,
      "Ġsecondly": 3203,
      "Ġfishing": 3204,
      "Ġurg": 3205,
      "Ġmac": 3206,
      "Ġult": 3207,
      "Ġmeasure": 3208,
      "Ġbuy": 3209,
      "mer": 3210,
      "Ġrelevant": 3211,
      "Ġdiv": 3212,
      "Ġforest": 3213,
      "Ġdim": 3214,
      "Ġrepe": 3215,
      "Ġinteresting": 3216,
      "Ġadministr": 3217,
      "Ð¸": 3218,
      "Ġoption": 3219,
      "Ġpleased": 3220,
      "Ġagriculture": 3221,
      "Ġproduced": 3222,
      "Ġprob": 3223,
      "Ġpath": 3224,
      "Ġstatus": 3225,
      "Ġbul": 3226,
      "Ġrelationship": 3227,
      "Ġbillion": 3228,
      "Ġstatement": 3229,
      "Ġgames": 3230,
      "Ġexplain": 3231,
      "Ġque": 3232,
      "Ġvariety": 3233,
      "Ġlearn": 3234,
      "Ġminist": 3235,
      "Ġmoreover": 3236,
      "Ġtask": 3237,
      "Ġwine": 3238,
      "imately": 3239,
      "Ġsteps": 3240,
      "Ġactivity": 3241,
      "Ġbecame": 3242,
      "Ġlargest": 3243,
      "aries": 3244,
      "Ġmedium": 3245,
      "iture": 3246,
      "Ġcorpor": 3247,
      "ker": 3248,
      "Ġprocedures": 3249,
      "gra": 3250,
      "Ġcompon": 3251,
      "Ġfast": 3252,
      "raq": 3253,
      "do": 3254,
      "Ġoptim": 3255,
      "Ġways": 3256,
      "Ġaward": 3257,
      "put": 3258,
      "aces": 3259,
      "Ġregards": 3260,
      "ties": 3261,
      "Ġfirstly": 3262,
      "Ġminor": 3263,
      "Ġgas": 3264,
      "Ġplat": 3265,
      "Ġdamage": 3266,
      "Ġdocuments": 3267,
      "eth": 3268,
      "pres": 3269,
      "Ġfell": 3270,
      "zz": 3271,
      "Ġii": 3272,
      "Ð°": 3273,
      "Ġprem": 3274,
      "asc": 3275,
      "inated": 3276,
      "Ġmill": 3277,
      "Ġbey": 3278,
      "Ġstarted": 3279,
      "Ġnumerous": 3280,
      "ada": 3281,
      "Ġexact": 3282,
      "Ġallowed": 3283,
      "Ġagency": 3284,
      "Ġviolence": 3285,
      "Ġequal": 3286,
      "Ġsometimes": 3287,
      "Ġcand": 3288,
      "Ġeth": 3289,
      "Ġadapt": 3290,
      "Ġswim": 3291,
      "Ġcompromise": 3292,
      "rs": 3293,
      "Ġproduce": 3294,
      "Ġquiet": 3295,
      "âĤ": 3296,
      "Ġdise": 3297,
      "Ġprovisions": 3298,
      "Ġrestaurants": 3299,
      "Ġbritish": 3300,
      "Ġdrive": 3301,
      "Ġcontribution": 3302,
      "âĤ¬": 3303,
      "Ġ2005": 3304,
      "ream": 3305,
      "Ġjanuary": 3306,
      "vision": 3307,
      "Ġtools": 3308,
      "Ġfix": 3309,
      "Ġoctober": 3310,
      "Ġrelation": 3311,
      "Ġrelig": 3312,
      "Ġtransparency": 3313,
      "Ġhistorical": 3314,
      "Ġconver": 3315,
      "Ġgiving": 3316,
      "aily": 3317,
      "porary": 3318,
      "Ġ40": 3319,
      "phone": 3320,
      "Ġintegrated": 3321,
      "Ġham": 3322,
      "Ġbeyond": 3323,
      "Ġvac": 3324,
      "orrow": 3325,
      "enge": 3326,
      "cks": 3327,
      "ussi": 3328,
      "istan": 3329,
      "Ġpover": 3330,
      "Ġsha": 3331,
      "Ġscientific": 3332,
      "Ġcriteria": 3333,
      "Ġspanish": 3334,
      "Ġpoverty": 3335,
      "rimin": 3336,
      "Ġpayment": 3337,
      "Ġoperation": 3338,
      "enced": 3339,
      "Ġplayer": 3340,
      "ouch": 3341,
      "Ġdaily": 3342,
      "Ġsales": 3343,
      "Ġourselves": 3344,
      "Ġey": 3345,
      "Ġgrand": 3346,
      "Ġtourism": 3347,
      "Ġelements": 3348,
      "Ġassociation": 3349,
      "Ġdistribution": 3350,
      "Ġlower": 3351,
      "Ġimmediately": 3352,
      "Ġworth": 3353,
      "ift": 3354,
      "ai": 3355,
      "Ġapplied": 3356,
      "Ġspirit": 3357,
      "Ġstructure": 3358,
      "Ġpoor": 3359,
      "Ġbenefits": 3360,
      "Ġreading": 3361,
      "ril": 3362,
      "Ġrat": 3363,
      "Ġstarting": 3364,
      "Ġemployees": 3365,
      "Ġlegislative": 3366,
      "ivity": 3367,
      "iab": 3368,
      "Ġanalysis": 3369,
      "Ġteach": 3370,
      "Ġtypes": 3371,
      "Ġcert": 3372,
      "Ġsam": 3373,
      "icket": 3374,
      "Ġmonetary": 3375,
      "Ġ21": 3376,
      "Ġinstrument": 3377,
      "antic": 3378,
      "Ġbox": 3379,
      "works": 3380,
      "Ġmis": 3381,
      "ially": 3382,
      "Ġlake": 3383,
      "osp": 3384,
      "Ġtechnologies": 3385,
      "ano": 3386,
      "Ġunemploy": 3387,
      "bit": 3388,
      "Ġgot": 3389,
      "Ġemail": 3390,
      "iciency": 3391,
      "Ġmonitoring": 3392,
      "Ġlate": 3393,
      "itude": 3394,
      "Ġfirm": 3395,
      "Ġthin": 3396,
      "Ġau": 3397,
      "Ġevalu": 3398,
      "Ġreality": 3399,
      "Ġhighest": 3400,
      "Ġenh": 3401,
      "aged": 3402,
      "Ġelections": 3403,
      "Ġoffering": 3404,
      "elds": 3405,
      "ception": 3406,
      "Ġcrimin": 3407,
      "orders": 3408,
      "Ġuseful": 3409,
      "Ġ2004": 3410,
      "Ġiraq": 3411,
      "Ġtomorrow": 3412,
      "Ġchallenges": 3413,
      "Ġforces": 3414,
      "Ġharmon": 3415,
      "mission": 3416,
      "Ġprocesses": 3417,
      "Ġgre": 3418,
      "Ġjuly": 3419,
      "Ġdistance": 3420,
      "Ġilleg": 3421,
      "Ġcolleagues": 3422,
      "Ġtit": 3423,
      "aging": 3424,
      "Ġsports": 3425,
      "Ġlinks": 3426,
      "rastruct": 3427,
      "Ġpersons": 3428,
      "Ġconflict": 3429,
      "nel": 3430,
      "Ġoccas": 3431,
      "Ġmachine": 3432,
      "ades": 3433,
      "Ġstra": 3434,
      "Ġcohes": 3435,
      "Ġgold": 3436,
      "star": 3437,
      "Ġsecure": 3438,
      "Ġseason": 3439,
      "Ġriver": 3440,
      "Ġparking": 3441,
      "Ġconsequences": 3442,
      "right": 3443,
      "Ġsaying": 3444,
      "Ġhung": 3445,
      "Ġreference": 3446,
      "Ġinfrastruct": 3447,
      "Ġplant": 3448,
      "bu": 3449,
      "dam": 3450,
      "Ġhappy": 3451,
      "Ġnove": 3452,
      "Ġannual": 3453,
      "Ġstock": 3454,
      "erc": 3455,
      "Ġmediterranean": 3456,
      "ls": 3457,
      "sec": 3458,
      "alled": 3459,
      "Ġpractical": 3460,
      "Ġrenew": 3461,
      "ien": 3462,
      "Ġswed": 3463,
      "Ġcou": 3464,
      "Ġslo": 3465,
      "Ġmun": 3466,
      "aign": 3467,
      "Ġbon": 3468,
      "Ġmotor": 3469,
      "Ġconstruct": 3470,
      "Ġconven": 3471,
      "Ġinnovation": 3472,
      "ription": 3473,
      "urance": 3474,
      "Ġideas": 3475,
      "Ġtast": 3476,
      "Ġwaste": 3477,
      "Ġrapid": 3478,
      "Ġvers": 3479,
      "Ġplayers": 3480,
      "ights": 3481,
      "lished": 3482,
      "Ġ23": 3483,
      "Ġorganisation": 3484,
      "Ġoperating": 3485,
      "ends": 3486,
      "Ġpaid": 3487,
      "office": 3488,
      "Ġnovember": 3489,
      "Ġgoes": 3490,
      "Ġsquare": 3491,
      "Ġotherwise": 3492,
      "Ġcampaign": 3493,
      "Ġlu": 3494,
      "Ġminimum": 3495,
      "Ġsufficient": 3496,
      "eks": 3497,
      "Ġhistoric": 3498,
      "Ġrecon": 3499,
      "Ġreact": 3500,
      "Ġfrequ": 3501,
      "Ġ$": 3502,
      "Ġorganisations": 3503,
      "ession": 3504,
      "Ġrequires": 3505,
      "Ġspee": 3506,
      "Ġweak": 3507,
      "Ġchurch": 3508,
      "Ġportug": 3509,
      "Ġadjust": 3510,
      "Ġrelia": 3511,
      "Ġclients": 3512,
      "Ġcomprehensive": 3513,
      "Ġrural": 3514,
      "Ġlines": 3515,
      "Ġoptions": 3516,
      "Ġpie": 3517,
      "Ġhom": 3518,
      "Ġsecret": 3519,
      "Ġfest": 3520,
      "Ġadvantage": 3521,
      "tt": 3522,
      "Ġoffered": 3523,
      "Ġcircum": 3524,
      "Ġefficiency": 3525,
      "Ġbit": 3526,
      "rian": 3527,
      "Ġdoubt": 3528,
      "Ġmand": 3529,
      "Ġcrucial": 3530,
      "Ġrelating": 3531,
      "Ġmaximum": 3532,
      "reci": 3533,
      "Ġweeks": 3534,
      "Ġfine": 3535,
      "Ġadvert": 3536,
      "utely": 3537,
      "Ġcongratulate": 3538,
      "Ġhall": 3539,
      "Ġreduction": 3540,
      "Ġworldwide": 3541,
      "Ġgod": 3542,
      "Ġargu": 3543,
      "Ġchallenge": 3544,
      "Ġsem": 3545,
      "Ġticket": 3546,
      "Ġfisheries": 3547,
      "Ġimplemented": 3548,
      "Ġrussi": 3549,
      "Ġcohesion": 3550,
      "elt": 3551,
      "etic": 3552,
      "Ġvisitors": 3553,
      "'.": 3554,
      "Ġang": 3555,
      "Ġterrorism": 3556,
      "Ġpictures": 3557,
      "Ġshopping": 3558,
      "Ġvoting": 3559,
      "Ġparis": 3560,
      "head": 3561,
      "Ġfarmers": 3562,
      "Ġwelcom": 3563,
      "Ġpalest": 3564,
      "Ġ197": 3565,
      "Ġlands": 3566,
      "Ġpublished": 3567,
      "fe": 3568,
      "Ġaug": 3569,
      "Ġclient": 3570,
      "body": 3571,
      "Ġgrowing": 3572,
      "iation": 3573,
      "Ġlives": 3574,
      "ilater": 3575,
      "Ġapril": 3576,
      "based": 3577,
      "igr": 3578,
      "Ġdol": 3579,
      "Ġswimming": 3580,
      "Ġdyn": 3581,
      "Ġprobably": 3582,
      "Ġauthority": 3583,
      "itarian": 3584,
      "Ġbudgetary": 3585,
      "Ġcu": 3586,
      "Ġanything": 3587,
      "Ġcaused": 3588,
      "verse": 3589,
      "Ġjoin": 3590,
      "Ġrelease": 3591,
      "org": 3592,
      "Ġlimit": 3593,
      "estic": 3594,
      "Ġdesk": 3595,
      "Ġready": 3596,
      "ox": 3597,
      "ini": 3598,
      "Ġfer": 3599,
      "60": 3600,
      "Ġdrug": 3601,
      "olution": 3602,
      "Ġoverall": 3603,
      "Ġadministration": 3604,
      "Ġcounter": 3605,
      "Ġlanguages": 3606,
      "Ġinterp": 3607,
      "Ġstor": 3608,
      "theless": 3609,
      "Ġdecor": 3610,
      "Ġmag": 3611,
      "Ġheav": 3612,
      "Ġaccordance": 3613,
      "sch": 3614,
      "Ġconstitution": 3615,
      "Ġnevertheless": 3616,
      "Ġcritic": 3617,
      "ney": 3618,
      "Ġmeaning": 3619,
      "respon": 3620,
      "Ġinnovative": 3621,
      "Ġtourist": 3622,
      "Ġpowers": 3623,
      "Ġtrust": 3624,
      "see": 3625,
      "Ġut": 3626,
      "Ġbrand": 3627,
      "Ġextent": 3628,
      "pective": 3629,
      "Ġfit": 3630,
      "aria": 3631,
      "Ġinterested": 3632,
      "Ġterrace": 3633,
      "Ġvirt": 3634,
      "Ġborder": 3635,
      "dra": 3636,
      "Ġmethods": 3637,
      "Ġselection": 3638,
      "inese": 3639,
      "bru": 3640,
      "Ġlove": 3641,
      "Ġcandid": 3642,
      "Ġearth": 3643,
      "Ġiran": 3644,
      "Ġimages": 3645,
      "Ġbusinesses": 3646,
      "ulated": 3647,
      "Ġones": 3648,
      "Ġeastern": 3649,
      "Ġsen": 3650,
      "Ġwatch": 3651,
      "Ġcompetit": 3652,
      "Ġmorning": 3653,
      "Ġexpert": 3654,
      "Ġconcent": 3655,
      "berg": 3656,
      "Ġbedroom": 3657,
      "Ġfamil": 3658,
      "ror": 3659,
      "Ġarrange": 3660,
      "ocol": 3661,
      "Ġsectors": 3662,
      "Ġded": 3663,
      "Ġlost": 3664,
      "sk": 3665,
      "Ġfulf": 3666,
      "Ġstrategic": 3667,
      "ques": 3668,
      "Ġcurrency": 3669,
      "Ġkitch": 3670,
      "Ġbes": 3671,
      "Ġrepresentatives": 3672,
      "Ġincor": 3673,
      "Ġchair": 3674,
      "Ġvalid": 3675,
      "ara": 3676,
      "Ġcell": 3677,
      "Ġ2003": 3678,
      "sm": 3679,
      "iction": 3680,
      "Ġborders": 3681,
      "Ġchance": 3682,
      "force": 3683,
      "Ġbanks": 3684,
      "Ñģ": 3685,
      "Ġfresh": 3686,
      "Ġexerc": 3687,
      "Ġtren": 3688,
      "Ġmiss": 3689,
      "Ġgenu": 3690,
      "Ġencourage": 3691,
      "Ġaccession": 3692,
      "ari": 3693,
      "Ġ22": 3694,
      "Ġcollection": 3695,
      "una": 3696,
      "Ġfru": 3697,
      "Ġinvestig": 3698,
      "Ġaccepted": 3699,
      "izing": 3700,
      "Ġadopt": 3701,
      "time": 3702,
      "semb": 3703,
      "Ġsex": 3704,
      "Ġfields": 3705,
      "Ġabsolutely": 3706,
      "Ġappreci": 3707,
      "cape": 3708,
      "Ġire": 3709,
      "Ġ%": 3710,
      "Ġinfluence": 3711,
      "Ġraised": 3712,
      "Ġopening": 3713,
      "Ġtrying": 3714,
      "Ġprocessing": 3715,
      "Ġwanted": 3716,
      "Ġgolf": 3717,
      "ourable": 3718,
      "Ġeleg": 3719,
      "Ġchinese": 3720,
      "ÑĤ": 3721,
      "Ġcompos": 3722,
      "Ġaustria": 3723,
      "Ġrestrict": 3724,
      "Ġproceed": 3725,
      "Ġwalking": 3726,
      "Ġclaim": 3727,
      "ama": 3728,
      "13": 3729,
      "Ġdemands": 3730,
      "Ġnort": 3731,
      "hold": 3732,
      "Ġnamely": 3733,
      "standing": 3734,
      "Ġireland": 3735,
      "Ġalternative": 3736,
      "Ġmedic": 3737,
      "Ġprime": 3738,
      "Ġpasseng": 3739,
      "ĠâĤ¬": 3740,
      "Ġphys": 3741,
      "idge": 3742,
      "Ġinvolve": 3743,
      "Ġsurpr": 3744,
      "di": 3745,
      "Ġdiscover": 3746,
      "Ġchann": 3747,
      "Ġmenu": 3748,
      "Ġoccup": 3749,
      "unt": 3750,
      "Ġvital": 3751,
      "Ġinitiatives": 3752,
      "Ġdatab": 3753,
      "verage": 3754,
      "Ġobser": 3755,
      "Ġcalls": 3756,
      "Ġdelivery": 3757,
      "Ġara": 3758,
      "Ġsort": 3759,
      "Ġplans": 3760,
      "elines": 3761,
      "ilateral": 3762,
      "ny": 3763,
      "abor": 3764,
      "Ġcities": 3765,
      "Ġplanning": 3766,
      "Ġinstallation": 3767,
      "sy": 3768,
      "Ġfeed": 3769,
      "Ġpolice": 3770,
      "Ġphoto": 3771,
      "Ġconfig": 3772,
      "Ġcircumst": 3773,
      "ondon": 3774,
      "Ġillegal": 3775,
      "umb": 3776,
      "Ġcos": 3777,
      "Ġfear": 3778,
      "Ġmedical": 3779,
      "Ġven": 3780,
      "euro": 3781,
      "Ġspect": 3782,
      "Ġcrime": 3783,
      "cont": 3784,
      "Ġwrong": 3785,
      "Ġkitchen": 3786,
      "Ġphil": 3787,
      "fi": 3788,
      "ork": 3789,
      "Ġchanged": 3790,
      "vis": 3791,
      "Ġparag": 3792,
      "Ġcomments": 3793,
      "Ġelectronic": 3794,
      "Ġstudents": 3795,
      "craft": 3796,
      "Ġplatform": 3797,
      "Ġimproved": 3798,
      "Ġrussian": 3799,
      "Ġwinter": 3800,
      "Ġintended": 3801,
      "Ġexpressed": 3802,
      "Ġfederal": 3803,
      "rary": 3804,
      "Ġoccur": 3805,
      "15": 3806,
      "Ġgoal": 3807,
      "Ġdeliver": 3808,
      "isely": 3809,
      "Ġtalking": 3810,
      "Ġfamilies": 3811,
      "Ð½": 3812,
      "Ġremember": 3813,
      "ender": 3814,
      "Ġparliamentary": 3815,
      "Ġautomatically": 3816,
      "Ġyourself": 3817,
      "Ġsubstant": 3818,
      "Ġheard": 3819,
      "Ġcommitted": 3820,
      "Ġremind": 3821,
      "cell": 3822,
      "Ġlondon": 3823,
      "Ġcele": 3824,
      "rest": 3825,
      "Ġworked": 3826,
      "mbh": 3827,
      "umption": 3828,
      "Ġcommand": 3829,
      "Ġsimpl": 3830,
      "Ġdefence": 3831,
      "pper": 3832,
      "amp": 3833,
      "iff": 3834,
      "Ġmainly": 3835,
      "Ġsyn": 3836,
      "Ġrunning": 3837,
      "used": 3838,
      "Ġspecifically": 3839,
      "Ġcriminal": 3840,
      "poses": 3841,
      "Ġunemployment": 3842,
      "Ġcompli": 3843,
      "Ġapprox": 3844,
      "Ġusually": 3845,
      "iance": 3846,
      "Ġprovision": 3847,
      "Ġability": 3848,
      "Ġalone": 3849,
      "ience": 3850,
      "rich": 3851,
      "Ġincreasingly": 3852,
      "Ġhelpful": 3853,
      "Ġevening": 3854,
      "Ġreforms": 3855,
      "Ġinfrastructure": 3856,
      "Ġrot": 3857,
      "Ġplaced": 3858,
      "Ġgmbh": 3859,
      "Ġmotion": 3860,
      "Ġdiscrimin": 3861,
      "cast": 3862,
      "Ġphone": 3863,
      "Ġelectric": 3864,
      "Ġbod": 3865,
      "gue": 3866,
      "Ġfeature": 3867,
      "Ġapproved": 3868,
      "Ġmarketing": 3869,
      "Ġq": 3870,
      "Ġdisp": 3871,
      "Ġsuitable": 3872,
      "Ġdeleg": 3873,
      "Ġconclusion": 3874,
      "Ġwhom": 3875,
      "lim": 3876,
      "Ġcapt": 3877,
      "Ġcircumstances": 3878,
      "Ġvan": 3879,
      "Ġsand": 3880,
      "ico": 3881,
      "Ġdecide": 3882,
      "president": 3883,
      "Ġparticipation": 3884,
      "Ġaffected": 3885,
      "iling": 3886,
      "Ġconfidence": 3887,
      "Ġrein": 3888,
      "Ġmagn": 3889,
      "Ġregime": 3890,
      "Ġreduced": 3891,
      "Ġemissions": 3892,
      "Ġ60": 3893,
      "iles": 3894,
      "Ġdistrict": 3895,
      "undred": 3896,
      "amb": 3897,
      "Ġcolor": 3898,
      "Ġensuring": 3899,
      "Ġho": 3900,
      "pan": 3901,
      "Ġdivers": 3902,
      "Ġmultip": 3903,
      "Ġsave": 3904,
      "Ġlas": 3905,
      "Ġda": 3906,
      "uses": 3907,
      "Ġinh": 3908,
      "entions": 3909,
      "Ġcompl": 3910,
      "iable": 3911,
      "lands": 3912,
      "rel": 3913,
      "Ġpriorities": 3914,
      "nes": 3915,
      "enty": 3916,
      "Ġperman": 3917,
      "Ġ000": 3918,
      "Ġassemb": 3919,
      "Ġaugust": 3920,
      "Ġcove": 3921,
      "hn": 3922,
      "hood": 3923,
      "Ġchem": 3924,
      "Ġextensive": 3925,
      "Ġhundred": 3926,
      "Ġlaws": 3927,
      "thern": 3928,
      "Ġdead": 3929,
      "Ġfellow": 3930,
      "Ġappoint": 3931,
      "icians": 3932,
      "Ġscope": 3933,
      "Ġdetailed": 3934,
      "Ġfoundation": 3935,
      "Ġrise": 3936,
      "Ġvictims": 3937,
      "lines": 3938,
      "va": 3939,
      "ilit": 3940,
      "Ġcontribute": 3941,
      "Ġcomment": 3942,
      "ife": 3943,
      "Ġmut": 3944,
      "ocks": 3945,
      "Ġsupports": 3946,
      "Ġben": 3947,
      "Ġseparate": 3948,
      "Ġpowerful": 3949,
      "Ġbegan": 3950,
      "Ġep": 3951,
      "Ġbuff": 3952,
      "Ġhear": 3953,
      "Ġsell": 3954,
      "Ġgetting": 3955,
      "Ġmere": 3956,
      "Ġleav": 3957,
      "Ġanimals": 3958,
      "Ġfrank": 3959,
      "Ġsays": 3960,
      "Ġgall": 3961,
      "Ġmix": 3962,
      "Ġcharm": 3963,
      "Ġ27": 3964,
      "Ġstorage": 3965,
      "Ġbrow": 3966,
      "Ġscreen": 3967,
      "Ġslow": 3968,
      "hern": 3969,
      "Ġprecisely": 3970,
      "Ġundert": 3971,
      "zech": 3972,
      "inate": 3973,
      "Ġmanner": 3974,
      "Ġinside": 3975,
      "Ġguidelines": 3976,
      "Ġprefer": 3977,
      "Ġhosp": 3978,
      "Ġthousands": 3979,
      "gs": 3980,
      "house": 3981,
      "Ġattack": 3982,
      "illing": 3983,
      "Ġfunctions": 3984,
      "Ġbelong": 3985,
      "Ġrespond": 3986,
      "Ġtabled": 3987,
      "Ġplayed": 3988,
      "cers": 3989,
      "itory": 3990,
      "Ġadministrative": 3991,
      "aw": 3992,
      "Ġintroduced": 3993,
      "Ġsources": 3994,
      "hr": 3995,
      "Ġregret": 3996,
      "Ġprograms": 3997,
      "Ġlies": 3998,
      "Ġdin": 3999,
      "Ġeffectively": 4000,
      "ued": 4001,
      "Ġpurposes": 4002,
      "Ġlarger": 4003,
      "attle": 4004,
      "orn": 4005,
      "spe": 4006,
      "Ġcompetitive": 4007,
      "Ġassessment": 4008,
      "Ġforum": 4009,
      "Ġaimed": 4010,
      "Ġexactly": 4011,
      "Ġprotected": 4012,
      "ba": 4013,
      "Ġnetworks": 4014,
      "Ġforget": 4015,
      "Ġcamera": 4016,
      "Ġic": 4017,
      "Ġtrav": 4018,
      "Ġrisks": 4019,
      "Ġsatisf": 4020,
      "inian": 4021,
      "fin": 4022,
      "Ġmap": 4023,
      "Ġ2002": 4024,
      "Ġreferred": 4025,
      "Ġearlier": 4026,
      "Ġparagraph": 4027,
      "cient": 4028,
      "Ġ*": 4029,
      "itzer": 4030,
      "Ġdiscussions": 4031,
      "Ġgenerally": 4032,
      "Ġspend": 4033,
      "Ġinstitutional": 4034,
      "Ġweap": 4035,
      "Ġloss": 4036,
      "Ġdevelopments": 4037,
      "Ġentry": 4038,
      "Ġsymb": 4039,
      "Ġfort": 4040,
      "Ġtrack": 4041,
      "Ġintroduction": 4042,
      "called": 4043,
      "erences": 4044,
      "Ġdeclar": 4045,
      "Ġanyone": 4046,
      "Ġfounded": 4047,
      "Ġradio": 4048,
      "Ġdedic": 4049,
      "Ġsitting": 4050,
      "Ġbir": 4051,
      "Ġczech": 4052,
      "Ġbecoming": 4053,
      "Ġpoll": 4054,
      "overy": 4055,
      ".,": 4056,
      "Ġadvanced": 4057,
      "Ġexhibition": 4058,
      "Ġserve": 4059,
      "mon": 4060,
      "set": 4061,
      "Ġserved": 4062,
      "Ġstated": 4063,
      "Ġrepresents": 4064,
      "Ġwonderful": 4065,
      "aint": 4066,
      "Ġkingdom": 4067,
      "Ġenterprises": 4068,
      "Ġrefuge": 4069,
      "Ġimmigration": 4070,
      "Ġoperations": 4071,
      "Ġdepos": 4072,
      "Ġscience": 4073,
      "Ġcritical": 4074,
      "lying": 4075,
      "Ġmanaged": 4076,
      "bruary": 4077,
      "Ġexperts": 4078,
      "Ġdiscussed": 4079,
      "Ġwants": 4080,
      "Ġ2001": 4081,
      "Ġnatur": 4082,
      "rant": 4083,
      "bourg": 4084,
      "Ġnorthern": 4085,
      "Ġson": 4086,
      "Ġmont": 4087,
      "Ġsole": 4088,
      "Ġconvin": 4089,
      "Ġ''": 4090,
      "ault": 4091,
      "Ġquot": 4092,
      "Ġdebt": 4093,
      "Ġselected": 4094,
      "europe": 4095,
      "atively": 4096,
      "Ġspread": 4097,
      "Ġlikely": 4098,
      "Ġgar": 4099,
      "iding": 4100,
      "nal": 4101,
      "Ġsi": 4102,
      "Ġexclusive": 4103,
      "Ġgal": 4104,
      "Ġ80": 4105,
      "Ġimproving": 4106,
      "Ġunderstanding": 4107,
      "ÑĢ": 4108,
      "ils": 4109,
      "Ġministers": 4110,
      "Ġcovered": 4111,
      "urt": 4112,
      "Ġanimal": 4113,
      "Ġtro": 4114,
      "Ġcorrespon": 4115,
      "Ġobviously": 4116,
      "Ġlisted": 4117,
      "categories": 4118,
      "Ġsupporting": 4119,
      "Ġopened": 4120,
      "Ġfif": 4121,
      "Ġbuildings": 4122,
      "Ġclosely": 4123,
      "Ġpicture": 4124,
      "Ġindia": 4125,
      "Ġphotograph": 4126,
      "Ġcoff": 4127,
      "Ġfollowed": 4128,
      "Ġseek": 4129,
      "Ġreception": 4130,
      "Ġunless": 4131,
      "Ġgro": 4132,
      "Ġpursu": 4133,
      "itzerland": 4134,
      "Ġbarcel": 4135,
      "board": 4136,
      "Ġhappen": 4137,
      "Ġukra": 4138,
      "Ġimag": 4139,
      "Ġtelephone": 4140,
      "ball": 4141,
      "Ġexplo": 4142,
      "Ġcoordination": 4143,
      "Ġlinked": 4144,
      "Ġstudies": 4145,
      "oke": 4146,
      "inal": 4147,
      "Ġtouch": 4148,
      "uration": 4149,
      "Ġactual": 4150,
      "Ġstrengthen": 4151,
      "Ġcomponents": 4152,
      "Ġpurchase": 4153,
      "Ġmist": 4154,
      "Ġdestro": 4155,
      "Ġnav": 4156,
      "Ġcompens": 4157,
      "Ġspeech": 4158,
      "gress": 4159,
      "Ġcompetitiveness": 4160,
      "Ġcompar": 4161,
      "Ġimpress": 4162,
      "Ġshop": 4163,
      "Ġpublish": 4164,
      "'ll": 4165,
      "Ġresist": 4166,
      "Ġneighbour": 4167,
      "Ġscen": 4168,
      "Ġasia": 4169,
      "Ġfebruary": 4170,
      "Ġdegree": 4171,
      "Ġconsiderable": 4172,
      "Ġsant": 4173,
      "Ġtemper": 4174,
      "Ġbrief": 4175,
      "Ġswiss": 4176,
      "Ġmetres": 4177,
      "ensions": 4178,
      "Ġelement": 4179,
      "Ġtypical": 4180,
      "Ġgraph": 4181,
      "gies": 4182,
      "Ġestate": 4183,
      "Ġexpected": 4184,
      "Ġrepresentative": 4185,
      "Ġexecut": 4186,
      "bar": 4187,
      "Ġfixed": 4188,
      "Ġcombat": 4189,
      "icip": 4190,
      "Ġload": 4191,
      "Ġ1999": 4192,
      "Ġprim": 4193,
      "Ġhands": 4194,
      "Ġuses": 4195,
      "Ġspeaking": 4196,
      "Ġfran": 4197,
      "Ġbott": 4198,
      "ength": 4199,
      "Ġspacious": 4200,
      "Ġspl": 4201,
      "Ġcateg": 4202,
      "inc": 4203,
      "ode": 4204,
      "ores": 4205,
      "Ġitems": 4206,
      "ifying": 4207,
      "Ġentit": 4208,
      "Ġduty": 4209,
      "Ġgreece": 4210,
      "Ġstrict": 4211,
      "ula": 4212,
      "Ġdirector": 4213,
      "uth": 4214,
      "Ġorganization": 4215,
      "Ġclar": 4216,
      "Ġmachines": 4217,
      "Ġsouthern": 4218,
      "mes": 4219,
      "Ġpresence": 4220,
      "ique": 4221,
      "Ġtot": 4222,
      "Ġtranslation": 4223,
      "Ġdelay": 4224,
      "Ġpc": 4225,
      "ussels": 4226,
      "Ġmaster": 4227,
      "Ġcorporate": 4228,
      "Ġsymbol": 4229,
      "Ġplaying": 4230,
      "rete": 4231,
      "Ġlibr": 4232,
      "Ġbehav": 4233,
      "Ġincorpor": 4234,
      "Ġrob": 4235,
      "ovo": 4236,
      "Ġplants": 4237,
      "40": 4238,
      "Ġformat": 4239,
      "17": 4240,
      "Ġvilla": 4241,
      "Ġfinance": 4242,
      "Ġnormal": 4243,
      "ented": 4244,
      "Ġkos": 4245,
      "Ġshops": 4246,
      "Ġhi": 4247,
      "ga": 4248,
      "Ġexpand": 4249,
      "Ġentirely": 4250,
      "amet": 4251,
      "tra": 4252,
      "Ġmountains": 4253,
      "ureau": 4254,
      "Ġtrip": 4255,
      "Ġproperly": 4256,
      "ids": 4257,
      "Ġdealing": 4258,
      "ingu": 4259,
      "free": 4260,
      "Ġleader": 4261,
      "Ġalloc": 4262,
      "Ġcontem": 4263,
      "Ġbear": 4264,
      "Ġswitzerland": 4265,
      "Ġvehicles": 4266,
      "Ġschem": 4267,
      "rate": 4268,
      "Ġorganiz": 4269,
      "18": 4270,
      "Ġtip": 4271,
      "Ġadvance": 4272,
      "Ġsusp": 4273,
      "Ġdomestic": 4274,
      "Ġflexibility": 4275,
      "Ġdispos": 4276,
      "Ġmeetings": 4277,
      "Ġdescription": 4278,
      "Ġrailway": 4279,
      "Ġbarcelona": 4280,
      "ste": 4281,
      "Ġtack": 4282,
      "Ġdifficulties": 4283,
      "Ġwent": 4284,
      "Ġconvenient": 4285,
      "Ġneither": 4286,
      "Ġincome": 4287,
      "Ġentertain": 4288,
      "Ġislands": 4289,
      "bre": 4290,
      "net": 4291,
      "Ġcore": 4292,
      "Ġpleasant": 4293,
      "Ġthinking": 4294,
      "Ġsong": 4295,
      "Ġfailure": 4296,
      "Ġvoice": 4297,
      "Ġwilling": 4298,
      "Ġpolitics": 4299,
      "Ġfacing": 4300,
      "Ġdatabase": 4301,
      "Ġgave": 4302,
      "Ġlegit": 4303,
      "Ġturk": 4304,
      "Ġcalc": 4305,
      "pa": 4306,
      "Ġguide": 4307,
      "Ġcooper": 4308,
      "Ġcelebr": 4309,
      "wards": 4310,
      "ake": 4311,
      "Ġblue": 4312,
      "Ġancient": 4313,
      "Ġrelate": 4314,
      "cia": 4315,
      "Ġbrussels": 4316,
      "Ġconsideration": 4317,
      "Ġfacilit": 4318,
      "ray": 4319,
      "Ġnumbers": 4320,
      "Ġgradu": 4321,
      "Ġyork": 4322,
      "Ġvalley": 4323,
      "Ġpoland": 4324,
      "Ġadequ": 4325,
      "Ġhostels": 4326,
      "Ġflexible": 4327,
      "Ġbureau": 4328,
      "Ġaverage": 4329,
      "Ġenterprise": 4330,
      "adem": 4331,
      "isms": 4332,
      "Ġblock": 4333,
      "Ġhouses": 4334,
      "Ġ+": 4335,
      "Ġsky": 4336,
      "Ġborn": 4337,
      "Ġtelevision": 4338,
      "Ġapplies": 4339,
      "Ġmembership": 4340,
      "ella": 4341,
      "Ġphotos": 4342,
      "Ġign": 4343,
      "Ġinit": 4344,
      "Ġtrading": 4345,
      "Ġpractices": 4346,
      "Ġ=": 4347,
      "arily": 4348,
      "Ġcuis": 4349,
      "Ġunac": 4350,
      "ental": 4351,
      "Ġpeaceful": 4352,
      "idents": 4353,
      "Ġpercent": 4354,
      "Ġenorm": 4355,
      "Ġmodified": 4356,
      "Ġpromoting": 4357,
      "Ġcastle": 4358,
      "itors": 4359,
      "za": 4360,
      "Ġbodies": 4361,
      "Ġbecomes": 4362,
      "Ġdemocrats": 4363,
      "Ġfinancing": 4364,
      "Ġbeds": 4365,
      "Ġtransform": 4366,
      "ivers": 4367,
      "mal": 4368,
      "Ġbelie": 4369,
      "Ġdan": 4370,
      "Ġsucceed": 4371,
      "Ġstatements": 4372,
      "Ġprotocol": 4373,
      "Ġestablishment": 4374,
      "Ġgeneration": 4375,
      "Ġhop": 4376,
      "year": 4377,
      "soft": 4378,
      "Ġarrival": 4379,
      "ero": 4380,
      "Ġhour": 4381,
      "Ġhumanitarian": 4382,
      "mark": 4383,
      "Ġperspective": 4384,
      "Ġinstance": 4385,
      "ishes": 4386,
      "ato": 4387,
      "Ġelim": 4388,
      "Ġdebian": 4389,
      "abil": 4390,
      "Ġsle": 4391,
      "Ġhimself": 4392,
      "making": 4393,
      "Ġaims": 4394,
      "Ġpenal": 4395,
      "Ġarchitecture": 4396,
      "Ġdream": 4397,
      "Ġinn": 4398,
      "sterdam": 4399,
      "Ġsav": 4400,
      "Ġsubsidi": 4401,
      "can": 4402,
      "Ġcards": 4403,
      "',": 4404,
      "Ġexperienced": 4405,
      "like": 4406,
      "ube": 4407,
      "road": 4408,
      "Ġ!": 4409,
      "ken": 4410,
      "rid": 4411,
      "Ġkil": 4412,
      "Ġdefined": 4413,
      "Ġsuppl": 4414,
      "Ġimplementing": 4415,
      "Ġyester": 4416,
      "Ġdangerous": 4417,
      "Ġmission": 4418,
      "Ġbelg": 4419,
      "Ġmov": 4420,
      "Ġopposition": 4421,
      "Ġmodels": 4422,
      "Ġplus": 4423,
      "Ġdoor": 4424,
      "Ġacknow": 4425,
      "Ġeasier": 4426,
      "pol": 4427,
      "Ġcars": 4428,
      "Ġreducing": 4429,
      "Ġcuisine": 4430,
      "Ġamsterdam": 4431,
      "Ġmyself": 4432,
      "Ġbeauty": 4433,
      "Ġassociated": 4434,
      "Ġdifferences": 4435,
      "Ġinsurance": 4436,
      "Ġseriously": 4437,
      "Ġtor": 4438,
      "Ġsigned": 4439,
      "Ġadoption": 4440,
      "ulations": 4441,
      "Ġstructures": 4442,
      "Ġagencies": 4443,
      "Ġcourses": 4444,
      "Ġinformed": 4445,
      "Ġcoffee": 4446,
      "pal": 4447,
      "Ġmos": 4448,
      "Ġwithdra": 4449,
      "ishing": 4450,
      "sized": 4451,
      "Ġyesterday": 4452,
      "Ġproducers": 4453,
      "utt": 4454,
      "Ġpreser": 4455,
      "Ġsale": 4456,
      "inding": 4457,
      "Ġtun": 4458,
      "Ġlength": 4459,
      "Ġcollabor": 4460,
      "Ġaccur": 4461,
      "Ġsafegu": 4462,
      "Ġevidence": 4463,
      "Ġconnected": 4464,
      "Ġglass": 4465,
      "Ġincom": 4466,
      "Ġcd": 4467,
      "Ġmur": 4468,
      "rap": 4469,
      "Ġupdate": 4470,
      "Ġpositions": 4471,
      "Ġrecognition": 4472,
      "Ġsud": 4473,
      "16": 4474,
      "Ġtold": 4475,
      "Ġinitial": 4476,
      "Ġpas": 4477,
      "Ġdv": 4478,
      "Ġjav": 4479,
      "Ġsn": 4480,
      "Ġconcrete": 4481,
      "Ġlearning": 4482,
      "Ġbackground": 4483,
      "ios": 4484,
      "Ġcarefully": 4485,
      "Ġ28": 4486,
      "Ġdifference": 4487,
      "govern": 4488,
      "aters": 4489,
      "Ġalt": 4490,
      "Ġquant": 4491,
      "known": 4492,
      "los": 4493,
      "Ġnearby": 4494,
      "Ġimmediate": 4495,
      "Ġappears": 4496,
      "Ġimprovement": 4497,
      "Ġinsp": 4498,
      "Ġfestival": 4499,
      "back": 4500,
      "Ġgenuine": 4501,
      "Ġhappened": 4502,
      "Ġterritory": 4503,
      "Ġshower": 4504,
      "Ġcondem": 4505,
      "Ġcalling": 4506,
      "Ġsad": 4507,
      "Ð¾Ð": 4508,
      "Ġsatell": 4509,
      "gment": 4510,
      "ki": 4511,
      "Ġvision": 4512,
      "Ġsatisfact": 4513,
      "Ġguarantees": 4514,
      "Ġcombination": 4515,
      "Ġunaccept": 4516,
      "Ġdiscrimination": 4517,
      "Ġgoals": 4518,
      "Ġmemory": 4519,
      "isch": 4520,
      "Â´": 4521,
      "Ġbeaches": 4522,
      "Ġexcess": 4523,
      "Ġimpossible": 4524,
      "Ġintel": 4525,
      "Ġelegant": 4526,
      "Ġparen": 4527,
      "Ġmich": 4528,
      "izes": 4529,
      "Ġpropose": 4530,
      "enna": 4531,
      "Ġnames": 4532,
      "Ġcombined": 4533,
      "Ġshared": 4534,
      "Ġtruly": 4535,
      "Ġpun": 4536,
      "agen": 4537,
      "Ġ196": 4538,
      "Ġattractive": 4539,
      "Ġtransition": 4540,
      "Ġliab": 4541,
      "Ġavailability": 4542,
      "Ġpure": 4543,
      "Ġalb": 4544,
      "Ġtransact": 4545,
      "Ġobs": 4546,
      "Ġfant": 4547,
      "Ġurban": 4548,
      "ylum": 4549,
      "Ġast": 4550,
      "vey": 4551,
      "Ġpackages": 4552,
      "Ġholidays": 4553,
      "Ġbay": 4554,
      "Ġassembly": 4555,
      "Ġvul": 4556,
      "Ġba": 4557,
      "Ġdescribed": 4558,
      "coming": 4559,
      "Ġequality": 4560,
      "Ġasylum": 4561,
      "Ġattach": 4562,
      "ught": 4563,
      "Ġahead": 4564,
      "itious": 4565,
      "Ġcontrary": 4566,
      "Ġvotes": 4567,
      "Ġconstitutional": 4568,
      "uff": 4569,
      "Ġconsumption": 4570,
      "pre": 4571,
      "enn": 4572,
      "âĢľ": 4573,
      "Ġusa": 4574,
      "Ġowners": 4575,
      "Ġeight": 4576,
      "Ġreleased": 4577,
      "Ġtaste": 4578,
      "Ġspent": 4579,
      "Ġcompared": 4580,
      "Ġdelight": 4581,
      "Ġpermanent": 4582,
      "Ġ500": 4583,
      "Ġdevices": 4584,
      "Ġannounced": 4585,
      "cr": 4586,
      "ml": 4587,
      "overed": 4588,
      "Ġwishes": 4589,
      "Ġfigures": 4590,
      "Ġnegative": 4591,
      "view": 4592,
      "Ġpossibilities": 4593,
      "Ġcommunities": 4594,
      "Ġcontinued": 4595,
      "Ġnaturally": 4596,
      "fr": 4597,
      "bert": 4598,
      "Ġband": 4599,
      "omb": 4600,
      "Ġreligious": 4601,
      "Ġtasks": 4602,
      "Ġdesire": 4603,
      "Ġchamber": 4604,
      "Ġchemical": 4605,
      "14": 4606,
      "Ġadult": 4607,
      "Ġunit": 4608,
      "Ġregister": 4609,
      "Ġparticipate": 4610,
      "Ġyouth": 4611,
      "Ġadvertising": 4612,
      "Ġinteract": 4613,
      "Ġnotice": 4614,
      "Ġspring": 4615,
      "Ġrock": 4616,
      "Ġunacceptable": 4617,
      "Ġreasonable": 4618,
      "Ġallowing": 4619,
      "Ġseven": 4620,
      "Ġstore": 4621,
      "Ġluxury": 4622,
      "Ġgreatest": 4623,
      "Ġappeal": 4624,
      "Ġremo": 4625,
      "Ġjew": 4626,
      "Ġprofession": 4627,
      "Ġcontinues": 4628,
      "Ġclaims": 4629,
      "Ġdelic": 4630,
      "Ġintroduce": 4631,
      "Ġarab": 4632,
      "Ġregistered": 4633,
      "Ġstable": 4634,
      "otel": 4635,
      "Ġinstitution": 4636,
      "Ġdry": 4637,
      "Ġisl": 4638,
      "Ġdoct": 4639,
      "Ġskills": 4640,
      "Ġraise": 4641,
      "Ġexplore": 4642,
      "Ġsteel": 4643,
      "iscal": 4644,
      "Ġexpend": 4645,
      "Ġkore": 4646,
      "Ġenables": 4647,
      "erent": 4648,
      "ja": 4649,
      "Ġein": 4650,
      "Ġmoving": 4651,
      "Ġcloser": 4652,
      "Ġcharged": 4653,
      "Ġstrongly": 4654,
      "Ġentitled": 4655,
      "Ġfruit": 4656,
      "quis": 4657,
      "Ġeconomies": 4658,
      "Ġbutton": 4659,
      "Ġeuropeans": 4660,
      "Ġcompleted": 4661,
      "Ġreplace": 4662,
      "with": 4663,
      "Ġsurface": 4664,
      "Ġdimension": 4665,
      "ashion": 4666,
      "da": 4667,
      "Ġprivacy": 4668,
      "Ġtransparent": 4669,
      "ellig": 4670,
      "Ġchamp": 4671,
      "Ġinterpret": 4672,
      "zy": 4673,
      "Ġdevice": 4674,
      "Ġreservation": 4675,
      "Ġcharter": 4676,
      "Ġlabor": 4677,
      "Ġturkish": 4678,
      "condition": 4679,
      "Ġestablishing": 4680,
      "Ġsurrounding": 4681,
      "bl": 4682,
      "Ġstory": 4683,
      "Ġwindow": 4684,
      "Ġirish": 4685,
      "aced": 4686,
      "tenance": 4687,
      "ilst": 4688,
      "Ġrace": 4689,
      "Ġsnow": 4690,
      "Ġmatch": 4691,
      "25": 4692,
      "99": 4693,
      "Ġdedicated": 4694,
      "osen": 4695,
      "part": 4696,
      "Ġsurrounded": 4697,
      "Ġresidence": 4698,
      "Ġindividuals": 4699,
      "Ġdisease": 4700,
      "Ġdepartment": 4701,
      "Ġexercise": 4702,
      "Ġdipl": 4703,
      "Ġwire": 4704,
      "Ġsession": 4705,
      "Ġartists": 4706,
      "Ġinterface": 4707,
      "Ġmulti": 4708,
      "Ġhonourable": 4709,
      "Ġforth": 4710,
      "Ġextended": 4711,
      "ensus": 4712,
      "inating": 4713,
      "Ġcategory": 4714,
      "european": 4715,
      "Ġtotally": 4716,
      "Ġos": 4717,
      "Ġol": 4718,
      "Ġenormous": 4719,
      "Ġreliable": 4720,
      "Ġprison": 4721,
      "Ġafrican": 4722,
      "Ġurgent": 4723,
      "Ġtitle": 4724,
      "Ġpromotion": 4725,
      "dp": 4726,
      "Ġmaintenance": 4727,
      "Ġshi": 4728,
      "....": 4729,
      "Ġbound": 4730,
      "Ġexclud": 4731,
      "Ġweapons": 4732,
      "Ġconclusions": 4733,
      "Ġcontrols": 4734,
      "met": 4735,
      "ille": 4736,
      "Ġforced": 4737,
      "Ġmeters": 4738,
      "Ġdestroy": 4739,
      "going": 4740,
      "Ġ26": 4741,
      "Ġrelaxing": 4742,
      "Ġdivid": 4743,
      "Ġacadem": 4744,
      "ya": 4745,
      "Ġspending": 4746,
      "Ġwhilst": 4747,
      "Ġdiplom": 4748,
      "Ġalliance": 4749,
      "Ġsaw": 4750,
      "Ġgranted": 4751,
      "lex": 4752,
      "Ġweight": 4753,
      "Ġmanager": 4754,
      "Ġsignal": 4755,
      "ky": 4756,
      "Ġindependence": 4757,
      "ione": 4758,
      "Ġdeser": 4759,
      "Ġvon": 4760,
      "Ġanaly": 4761,
      "Ġcook": 4762,
      "Ġ300": 4763,
      "Ġconvinced": 4764,
      "Ġbooks": 4765,
      "Ġnether": 4766,
      "Ġwww": 4767,
      "Ġnar": 4768,
      "Ġinstalled": 4769,
      "Ġengineering": 4770,
      "Ġmart": 4771,
      "Ġroute": 4772,
      "Ġfab": 4773,
      "Ġprevention": 4774,
      "atever": 4775,
      "Ġkosovo": 4776,
      "Ġrent": 4777,
      "Ġmeant": 4778,
      "Ġip": 4779,
      "Ġbos": 4780,
      "Ġchain": 4781,
      "Ġ70": 4782,
      "Ġsubsequ": 4783,
      "Ġfailed": 4784,
      "aks": 4785,
      "uts": 4786,
      "Ġukraine": 4787,
      "'re": 4788,
      "Ġnation": 4789,
      "Ġzone": 4790,
      "Ġ90": 4791,
      "Ġbuffet": 4792,
      "Ġdefinition": 4793,
      "Ġrh": 4794,
      "Ġjournal": 4795,
      "Ġdefic": 4796,
      "Ġstands": 4797,
      "Ġaircraft": 4798,
      "table": 4799,
      "Ġsymp": 4800,
      "Ġfactors": 4801,
      "Ġsides": 4802,
      "Ġwto": 4803,
      "Ġunable": 4804,
      "Ġachieving": 4805,
      "Ġattractions": 4806,
      "nic": 4807,
      "Ġelection": 4808,
      "Ġfiscal": 4809,
      "mun": 4810,
      "Ġscale": 4811,
      "Ġexpression": 4812,
      "Ġsched": 4813,
      "Ġwhatever": 4814,
      "Ġpayments": 4815,
      "Ġsuite": 4816,
      "ata": 4817,
      "Ġcontinuing": 4818,
      "Ġiron": 4819,
      "Ġpassed": 4820,
      "Ġadvice": 4821,
      "Ġreve": 4822,
      "Ġbiggest": 4823,
      "Ġaudio": 4824,
      "Ġliter": 4825,
      "ghan": 4826,
      "Ġrenov": 4827,
      "Ġregistration": 4828,
      "Ġcath": 4829,
      "Ġunto": 4830,
      "Ġkept": 4831,
      "ania": 4832,
      "Ġcold": 4833,
      "Ġperfectly": 4834,
      "Ġflight": 4835,
      "Ġunf": 4836,
      "olid": 4837,
      "âĢĿ,": 4838,
      "med": 4839,
      "alle": 4840,
      "Ġcandidate": 4841,
      "itage": 4842,
      "Ġswitch": 4843,
      "ita": 4844,
      "Ġlicense": 4845,
      "Ġgreek": 4846,
      "Ġbulg": 4847,
      "Ġvehicle": 4848,
      "Ġintervention": 4849,
      "Ġpact": 4850,
      "acking": 4851,
      "Ġarticles": 4852,
      "Ġpension": 4853,
      "Ġcommitments": 4854,
      "Ġdrawn": 4855,
      "eed": 4856,
      "Ġcontemporary": 4857,
      "Ġcolour": 4858,
      "Ġhostel": 4859,
      "Ġhit": 4860,
      "Ġmail": 4861,
      "Ġnetherlands": 4862,
      "Ġrightly": 4863,
      "Ġcab": 4864,
      "Ġdia": 4865,
      "igrants": 4866,
      "usion": 4867,
      "Ġparticipants": 4868,
      "Ġliability": 4869,
      "Ġkar": 4870,
      "Ġintellig": 4871,
      "Ġoutstanding": 4872,
      "Ġrecovery": 4873,
      "Ġobst": 4874,
      "Ġinclus": 4875,
      "Ġcompat": 4876,
      "Ġlaid": 4877,
      "Ġentr": 4878,
      "Ġexamples": 4879,
      "bed": 4880,
      "here": 4881,
      "Ġsomeone": 4882,
      "Ġcroat": 4883,
      "Ġoutcome": 4884,
      "Ġvienna": 4885,
      "Ġdeclaration": 4886,
      "Ġreserve": 4887,
      "Ġchosen": 4888,
      "Ġobligations": 4889,
      "vereign": 4890,
      "Ġwealth": 4891,
      "--": 4892,
      "Ġrevolution": 4893,
      "Ġphilos": 4894,
      "Ġapproximately": 4895,
      "aza": 4896,
      "Ġcontents": 4897,
      "pet": 4898,
      "lantic": 4899,
      "Ġorganised": 4900,
      "Ġambitious": 4901,
      "Ġtried": 4902,
      "Ġmechanism": 4903,
      "anging": 4904,
      "Ġlimits": 4905,
      "Ġpu": 4906,
      "Ġgovernance": 4907,
      "Ġportugal": 4908,
      "iant": 4909,
      "Ġnotes": 4910,
      "Ġcheap": 4911,
      "Ġsatellite": 4912,
      "{{": 4913,
      "Ġphysical": 4914,
      "Ġles": 4915,
      "Ġacts": 4916,
      "Ġmas": 4917,
      "Ġconstantly": 4918,
      "ola": 4919,
      "Ġdynamic": 4920,
      "gage": 4921,
      "Ġnearly": 4922,
      "df": 4923,
      "Ġspecies": 4924,
      ".âĢĿ": 4925,
      "Ġinstruct": 4926,
      "ervations": 4927,
      "Ġcopyright": 4928,
      "Ġchanging": 4929,
      "Ġcart": 4930,
      "Ġcool": 4931,
      "Ġsurv": 4932,
      "Ġexecutive": 4933,
      "Ġfashion": 4934,
      "Ġton": 4935,
      "ko": 4936,
      "enh": 4937,
      "âĢĿ.": 4938,
      "Ġoccasion": 4939,
      "Ġloun": 4940,
      "Ġafghan": 4941,
      "Ġ1998": 4942,
      "governmental": 4943,
      "Ġelected": 4944,
      "charge": 4945,
      "Ġcolleague": 4946,
      "Ġbudgets": 4947,
      "arks": 4948,
      "Ġsensitive": 4949,
      "Ġpill": 4950,
      "Ġstone": 4951,
      "wal": 4952,
      "Ġuns": 4953,
      "Ġcub": 4954,
      "Ġindustries": 4955,
      "Ġinstitute": 4956,
      "apers": 4957,
      "oring": 4958,
      "Ġdistin": 4959,
      "Ġsituations": 4960,
      "Ġexpenditure": 4961,
      "Ġrecommendations": 4962,
      "Ġemerg": 4963,
      "anim": 4964,
      "Ġproport": 4965,
      "Ġmit": 4966,
      "Ġlandscape": 4967,
      "Ġlie": 4968,
      "Ġsovereign": 4969,
      "Ġdetect": 4970,
      "Ġther": 4971,
      "Ġmanufacturing": 4972,
      "Ġsold": 4973,
      "Ġamongst": 4974,
      "Ġsuccessfully": 4975,
      "Ġasking": 4976,
      "ias": 4977,
      "Ġextend": 4978,
      "Ġbalanced": 4979,
      "Ġtrib": 4980,
      "Ġdrin": 4981,
      "how": 4982,
      "Ġheating": 4983,
      "Ġputting": 4984,
      "Ġpref": 4985,
      "Ġexpos": 4986,
      "Ġfraud": 4987,
      "Ġglad": 4988,
      "Ġreci": 4989,
      "ded": 4990,
      "Ġtargets": 4991,
      "Ġtechnological": 4992,
      "Ġpreviously": 4993,
      "Ġstrengthening": 4994,
      "Ġpul": 4995,
      "vi": 4996,
      "Ġheritage": 4997,
      "iques": 4998,
      "Ġbringing": 4999,
      "Ġcasino": 5000,
      "Ġpassword": 5001,
      "Ġbag": 5002,
      "ham": 5003,
      "Ġroy": 5004,
      "Ġafford": 5005,
      "Ġmerely": 5006,
      "}}": 5007,
      "Ġist": 5008,
      "ront": 5009,
      "Ġpil": 5010,
      "Ġprospect": 5011,
      "Ġbattle": 5012,
      "Ġfuel": 5013,
      "ooth": 5014,
      "Ġconsensus": 5015,
      "80": 5016,
      "ads": 5017,
      "Ġ29": 5018,
      "Ġguaranteed": 5019,
      "Ġmultiple": 5020,
      "Ġtruth": 5021,
      "Ġpatients": 5022,
      "Ġaccessible": 5023,
      "Ġassign": 5024,
      "Ġaustrian": 5025,
      "Ġintention": 5026,
      "Ġoverlo": 5027,
      "Ġadvent": 5028,
      "Ġidentity": 5029,
      "Ġpalestinian": 5030,
      "Ġwrite": 5031,
      "23": 5032,
      "Ġexplan": 5033,
      "Ġcontained": 5034,
      "Ġball": 5035,
      "24": 5036,
      "Ġlibrary": 5037,
      "nis": 5038,
      "akes": 5039,
      "Ġsmaller": 5040,
      "Ġdeposit": 5041,
      "Ġletter": 5042,
      "Ġfactor": 5043,
      "Ġdub": 5044,
      "Ġwaiting": 5045,
      "Ġcry": 5046,
      "Ġdriving": 5047,
      "vent": 5048,
      "Ġskin": 5049,
      "ht": 5050,
      "Ġconsists": 5051,
      "Ġdisposal": 5052,
      "Ġoutdo": 5053,
      "Ġquar": 5054,
      "Ġveget": 5055,
      "onia": 5056,
      "Ġremove": 5057,
      "lich": 5058,
      "imb": 5059,
      "ifications": 5060,
      "Ġresulting": 5061,
      "Ġlatin": 5062,
      "Ġvent": 5063,
      "Ġpersonally": 5064,
      "cap": 5065,
      "wing": 5066,
      "Ġwed": 5067,
      "Ġpalace": 5068,
      "Ġorders": 5069,
      "Ġminute": 5070,
      "irect": 5071,
      "Ġgrounds": 5072,
      "Ġcancell": 5073,
      "Ġthereby": 5074,
      "Ġlinux": 5075,
      "Ġsubstantial": 5076,
      "Ġye": 5077,
      "Ġpointed": 5078,
      "Ġplanned": 5079,
      "Ġleads": 5080,
      "Ġresponsibilities": 5081,
      "what": 5082,
      "Ġlob": 5083,
      "Ġtesting": 5084,
      "Ġconsolid": 5085,
      "Ġvalu": 5086,
      "Ġslight": 5087,
      "Ġschools": 5088,
      "Ġflat": 5089,
      "Ġstim": 5090,
      "Ġcauses": 5091,
      "Ġdele": 5092,
      "Ġevaluation": 5093,
      "Ġdefend": 5094,
      "Ġseeking": 5095,
      "Ġoperate": 5096,
      "Ġentertainment": 5097,
      "Ġbab": 5098,
      "Ġrub": 5099,
      "Ġbars": 5100,
      "Ġcapable": 5101,
      "Ġjun": 5102,
      "Ġphase": 5103,
      "Ġrome": 5104,
      "inst": 5105,
      "Ġretain": 5106,
      "Ġnewsp": 5107,
      "Ġsets": 5108,
      "Ġdoll": 5109,
      "Ġpleasure": 5110,
      "Ġterritor": 5111,
      "Ġapproval": 5112,
      "Ġfurnished": 5113,
      "Ġprimary": 5114,
      "Ġalbum": 5115,
      "mas": 5116,
      "Ġspaces": 5117,
      "entially": 5118,
      "Ġconstant": 5119,
      "Ġsafeguard": 5120,
      "ruption": 5121,
      "yle": 5122,
      "Ġacceptable": 5123,
      "Ġconclude": 5124,
      "Ġgir": 5125,
      "Ġsuites": 5126,
      "ulating": 5127,
      "quality": 5128,
      "ike": 5129,
      "Ġblood": 5130,
      "Ġprimar": 5131,
      "Ġwaters": 5132,
      "aken": 5133,
      "Ġdecades": 5134,
      "Ġvice": 5135,
      "Ġbalcon": 5136,
      "umn": 5137,
      "Ġbrings": 5138,
      "Ġthor": 5139,
      "Ġdiversity": 5140,
      "Ġintellect": 5141,
      "Ġattacks": 5142,
      "Ġuniversal": 5143,
      "Ġwhe": 5144,
      "Ġmutual": 5145,
      "inations": 5146,
      "Ġclassic": 5147,
      "Ġparamet": 5148,
      "tr": 5149,
      "Ġvulner": 5150,
      "iny": 5151,
      "sibly": 5152,
      "point": 5153,
      "Ġpred": 5154,
      "Ġinvestments": 5155,
      "Ġadequate": 5156,
      "Ġtheat": 5157,
      "Ġmode": 5158,
      "Ġprimarily": 5159,
      "Ġrig": 5160,
      "Ġinhab": 5161,
      "bus": 5162,
      "Ġdefault": 5163,
      "Ġtalks": 5164,
      "Ġleis": 5165,
      "Ġsweden": 5166,
      "idential": 5167,
      "Ġbat": 5168,
      "Ġdepending": 5169,
      "place": 5170,
      "Ġ\"...": 5171,
      "Ġwi": 5172,
      "Ġdiscussing": 5173,
      "Ġkilomet": 5174,
      "Ġprotest": 5175,
      "Ġeye": 5176,
      "Ġcreative": 5177,
      "ql": 5178,
      "smoking": 5179,
      "Ġrul": 5180,
      "Ġprepare": 5181,
      "Ġpatent": 5182,
      "Ġ1997": 5183,
      "Ġaddressed": 5184,
      "Ġlord": 5185,
      "Ġmini": 5186,
      "Ġfourth": 5187,
      "...\"": 5188,
      "Ġaccounts": 5189,
      "Ġmanufacturers": 5190,
      "Ġsubsc": 5191,
      "Ġsac": 5192,
      "Ġversions": 5193,
      "ĠâĢĶ": 5194,
      "Ġstudio": 5195,
      "Ġcorner": 5196,
      "Ġheavy": 5197,
      "Ġcustoms": 5198,
      "Ġbill": 5199,
      "Ġromania": 5200,
      "Ġdelegation": 5201,
      "Ġcompliance": 5202,
      "Ġfather": 5203,
      "Ġexception": 5204,
      "Ġdrugs": 5205,
      "Ġparad": 5206,
      "Ġautomatic": 5207,
      "mann": 5208,
      "Ġleadership": 5209,
      "Ġleisure": 5210,
      "Ġkinds": 5211,
      "zen": 5212,
      "Ġarms": 5213,
      "Ġmel": 5214,
      "Ġphilosoph": 5215,
      "Ġnamed": 5216,
      "tic": 5217,
      "Ġwild": 5218,
      "Ġze": 5219,
      "zil": 5220,
      "Ġ31": 5221,
      "border": 5222,
      "Ġkn": 5223,
      "Ġchristian": 5224,
      "Ġlam": 5225,
      "Ġbirth": 5226,
      "fl": 5227,
      "!!": 5228,
      "Ġswe": 5229,
      "Ġqualified": 5230,
      "ivered": 5231,
      "Ġrequested": 5232,
      "Ġrental": 5233,
      "Ġtours": 5234,
      "ole": 5235,
      "Ġcompetence": 5236,
      "Ġcommunications": 5237,
      "Ġdetermined": 5238,
      "ttp": 5239,
      "Ġmechanisms": 5240,
      "Ġarmy": 5241,
      "Ġstraight": 5242,
      "Ġbarri": 5243,
      "Ġconsultation": 5244,
      "Ġmount": 5245,
      "Ġsolar": 5246,
      "Ġfill": 5247,
      "under": 5248,
      "Ġice": 5249,
      "Ġtend": 5250,
      "Ġgeograph": 5251,
      "Ġscript": 5252,
      "Ġunanim": 5253,
      "Ġ35": 5254,
      "Ġdealt": 5255,
      "Ġpresentation": 5256,
      "Ġopposite": 5257,
      "osed": 5258,
      "Ġimper": 5259,
      "Ġpanor": 5260,
      "Ġrefugees": 5261,
      "Ġdelivered": 5262,
      "Ġdomain": 5263,
      "iring": 5264,
      "Ġchap": 5265,
      "Ġwebsites": 5266,
      "fol": 5267,
      "ogle": 5268,
      "Ġimprovements": 5269,
      "Ġspot": 5270,
      "onom": 5271,
      "Ġvisa": 5272,
      "hus": 5273,
      "Ġturned": 5274,
      "Ġdutch": 5275,
      "Ġbrowser": 5276,
      "Ġfem": 5277,
      "Ġdark": 5278,
      "oman": 5279,
      "ros": 5280,
      "Ġpiece": 5281,
      "Ġvoc": 5282,
      "bel": 5283,
      "Ġrepeated": 5284,
      "Ġequally": 5285,
      "Ġcongress": 5286,
      "Ġurge": 5287,
      "Ġunits": 5288,
      "asters": 5289,
      "down": 5290,
      "mo": 5291,
      "Ġmicrosoft": 5292,
      "Ġfaced": 5293,
      "Ġbesides": 5294,
      "licit": 5295,
      "Ġcompensation": 5296,
      "Ġgender": 5297,
      "Ġfeeling": 5298,
      "uries": 5299,
      "alt": 5300,
      "Ġcharming": 5301,
      "rum": 5302,
      "Ġcentres": 5303,
      "Ġhelping": 5304,
      "Ġsignificantly": 5305,
      "Ġblog": 5306,
      "Ġexceed": 5307,
      "Ġoutput": 5308,
      "Ġshape": 5309,
      "Ġsanctions": 5310,
      "Ġdivision": 5311,
      "Ġexperiences": 5312,
      "Ġonto": 5313,
      "pass": 5314,
      "Ġinsist": 5315,
      "Ġmagaz": 5316,
      "Ġextension": 5317,
      "Ġreply": 5318,
      "Ġrecommended": 5319,
      "98": 5320,
      "Ġtob": 5321,
      "Ġprofit": 5322,
      "Ġsail": 5323,
      "Ġamaz": 5324,
      "Ġcash": 5325,
      "Ġrequests": 5326,
      "Ġsupplement": 5327,
      "Ġexistence": 5328,
      "ora": 5329,
      "Ġmarked": 5330,
      "Ġdirectives": 5331,
      "Ġattitude": 5332,
      "jo": 5333,
      "Ġcra": 5334,
      "pes": 5335,
      "Ġegy": 5336,
      "abilities": 5337,
      "Ġconsistent": 5338,
      "Ġsight": 5339,
      "Ġpoker": 5340,
      "Ġspeakers": 5341,
      "Ġlaunched": 5342,
      "Ġstreets": 5343,
      "Ġbinding": 5344,
      "Ġmoved": 5345,
      "Ġknows": 5346,
      "Ġruns": 5347,
      "Ġintellectual": 5348,
      "furt": 5349,
      "Ġjur": 5350,
      "roud": 5351,
      "Ġcombating": 5352,
      "Ġmetal": 5353,
      "Ġtemporary": 5354,
      "Ġkeeping": 5355,
      "Ġexpertise": 5356,
      "col": 5357,
      "Ġfurniture": 5358,
      "je": 5359,
      "Ġmex": 5360,
      "Ġrare": 5361,
      "book": 5362,
      "Ġreferen": 5363,
      "Ġreprodu": 5364,
      "Ġwait": 5365,
      "Ġapplicable": 5366,
      "Ġrejected": 5367,
      "Ġobligation": 5368,
      "Ġpoliticians": 5369,
      "Ġ).": 5370,
      "arent": 5371,
      "Ġdestination": 5372,
      "ancy": 5373,
      "Ġpeoples": 5374,
      "Ġoperators": 5375,
      "Ġmobility": 5376,
      "gi": 5377,
      "Ġprize": 5378,
      "Ġrecognise": 5379,
      "Ġfinding": 5380,
      "Ġolder": 5381,
      "itz": 5382,
      "Ġvess": 5383,
      "Ġtaxes": 5384,
      "Ġlatter": 5385,
      "ela": 5386,
      "45": 5387,
      "Ġobjects": 5388,
      "Ġemphasis": 5389,
      "Ġmillions": 5390,
      "Ġbridge": 5391,
      "matic": 5392,
      "Ġsubstances": 5393,
      "Ġegypt": 5394,
      "Ġexpectations": 5395,
      "ado": 5396,
      "Ġroyal": 5397,
      "Ġtreated": 5398,
      "Ġerror": 5399,
      "Ġdict": 5400,
      "Ġing": 5401,
      "ris": 5402,
      "anda": 5403,
      "urb": 5404,
      "Ġnoise": 5405,
      "Ġexpensive": 5406,
      "Ġstream": 5407,
      "Ġedition": 5408,
      "Ġdishes": 5409,
      "Ġbrazil": 5410,
      "Ġcontrast": 5411,
      "Ġrepresented": 5412,
      "Ġheads": 5413,
      "Ġadvis": 5414,
      "Ġholding": 5415,
      "Ġdinner": 5416,
      "Ġpassengers": 5417,
      "Ġtrees": 5418,
      "Ġrenewable": 5419,
      "Ġvast": 5420,
      "Ġadm": 5421,
      "elled": 5422,
      "kt": 5423,
      "Ġestim": 5424,
      "Ġcomply": 5425,
      "Ġtests": 5426,
      "Ġtrend": 5427,
      "rif": 5428,
      "Ġcloth": 5429,
      "Ġresolve": 5430,
      "Ġbran": 5431,
      "Ġconsequently": 5432,
      "Ġproud": 5433,
      "Ġadvantages": 5434,
      "class": 5435,
      "rated": 5436,
      "reme": 5437,
      "Ġoutdoor": 5438,
      "Ġminim": 5439,
      "Ġchairman": 5440,
      "Ġdiseases": 5441,
      "Ġlounge": 5442,
      "Ġultimately": 5443,
      "Ġpsy": 5444,
      "Ġexists": 5445,
      "Ġbedrooms": 5446,
      "Ġlou": 5447,
      "onym": 5448,
      "Ġrelatively": 5449,
      "Ġtexts": 5450,
      "Ġwit": 5451,
      "Ġstations": 5452,
      "Ġpick": 5453,
      "Ġmother": 5454,
      "Ġarrangements": 5455,
      "Ġemphasise": 5456,
      "Ġglobalisation": 5457,
      "ova": 5458,
      "Ġhelps": 5459,
      "Ġtemperature": 5460,
      "ourage": 5461,
      "Ġsettings": 5462,
      "arus": 5463,
      "enses": 5464,
      "appoint": 5465,
      "ager": 5466,
      "Ġdisaster": 5467,
      "iliar": 5468,
      "Ġentered": 5469,
      "Ġrespective": 5470,
      "abling": 5471,
      "Ġnos": 5472,
      "Ġapparent": 5473,
      "Ġdisabled": 5474,
      "Ġod": 5475,
      "Ġoffices": 5476,
      "Ġquarter": 5477,
      "Ġarrest": 5478,
      "Ġenhance": 5479,
      "Ġweather": 5480,
      "Ġgn": 5481,
      "Ġappreciate": 5482,
      "outh": 5483,
      "Ġboat": 5484,
      "Ġfigure": 5485,
      "Ġjourney": 5486,
      "Ġshad": 5487,
      "Ġdanger": 5488,
      "ule": 5489,
      "Ġinvolving": 5490,
      "Ġvolume": 5491,
      "Ġgoogle": 5492,
      "Ġsuffering": 5493,
      "âĦ": 5494,
      "Ġcovers": 5495,
      "Ġdvd": 5496,
      "Ġbol": 5497,
      "Ġpush": 5498,
      "rugg": 5499,
      "Ġbreat": 5500,
      "Ġsleep": 5501,
      "Ġtreaties": 5502,
      "]],": 5503,
      "Ġexclusively": 5504,
      "commun": 5505,
      "ern": 5506,
      "Ġleaving": 5507,
      "Ġvaluable": 5508,
      "yc": 5509,
      "Ġfat": 5510,
      "Ġfelt": 5511,
      "Ġrepeat": 5512,
      "Ġposs": 5513,
      "Ġprosper": 5514,
      "certain": 5515,
      "Ġ--": 5516,
      "Ġhappens": 5517,
      "ancing": 5518,
      "Ġgallery": 5519,
      "Ġfantastic": 5520,
      "Ġprotecting": 5521,
      "oms": 5522,
      "Ġlose": 5523,
      "Ġjohn": 5524,
      "Ġgardens": 5525,
      "%.": 5526,
      "Ġrecommendation": 5527,
      "03": 5528,
      "Ġburden": 5529,
      "Ġthorough": 5530,
      "Ġcollective": 5531,
      "Ġmunich": 5532,
      "ÃŁ": 5533,
      "ett": 5534,
      "Ġcomplic": 5535,
      "Ġrecognised": 5536,
      "Ġfitness": 5537,
      "Ġped": 5538,
      "Ġmarit": 5539,
      "ette": 5540,
      "Ġwellness": 5541,
      "illa": 5542,
      "box": 5543,
      "Ġaccompan": 5544,
      "Ġprivile": 5545,
      "Ġstrugg": 5546,
      "Ġserb": 5547,
      "Ġoffic": 5548,
      "anged": 5549,
      "âĦ¢": 5550,
      "Ġopposed": 5551,
      "Ġreven": 5552,
      "oren": 5553,
      "Ġhelped": 5554,
      "cal": 5555,
      "Ġfaith": 5556,
      "Ġobtained": 5557,
      "cipl": 5558,
      "Ġlisten": 5559,
      "uting": 5560,
      "Ġ1996": 5561,
      "Ġna": 5562,
      "Ġhospit": 5563,
      "Ġeyes": 5564,
      "Ġconfirmed": 5565,
      "Ġgeorg": 5566,
      "Ġmi": 5567,
      "Ġsolve": 5568,
      "gely": 5569,
      "Ġofficials": 5570,
      "urd": 5571,
      "Ġcontracts": 5572,
      "Ġpreparation": 5573,
      "Ġinvolvement": 5574,
      "iced": 5575,
      "Ġexceptional": 5576,
      "Ġhence": 5577,
      "Ġcarri": 5578,
      "Ġdetermine": 5579,
      "anges": 5580,
      "Ġadvoc": 5581,
      "Ġvisual": 5582,
      "Ġfighting": 5583,
      "Ġsauna": 5584,
      "Ġprovider": 5585,
      "Ġreconst": 5586,
      "Ġhair": 5587,
      "Ġthirdly": 5588,
      "itely": 5589,
      "Ġillust": 5590,
      "Ġincreases": 5591,
      "Ġextraord": 5592,
      "vely": 5593,
      "Ġnewly": 5594,
      "Ġ1990": 5595,
      "Ġpak": 5596,
      "car": 5597,
      "Ġcriticism": 5598,
      "Ġswedish": 5599,
      "Ġincent": 5600,
      "**": 5601,
      "Ġinterior": 5602,
      "Ġobstac": 5603,
      "Ġspectac": 5604,
      "Ġorganizations": 5605,
      "Ġremark": 5606,
      "Ġhandling": 5607,
      "Ġdischarge": 5608,
      "Ġky": 5609,
      "Ġextreme": 5610,
      "Ġsaint": 5611,
      "Ġlargely": 5612,
      "Ġdiscovered": 5613,
      "Ġdebates": 5614,
      "bility": 5615,
      "Ġstrategies": 5616,
      "Ġafghanistan": 5617,
      "Ġfasc": 5618,
      "Ġeuros": 5619,
      "Ġimpl": 5620,
      "Ġconstructive": 5621,
      "Ġvolunt": 5622,
      "Ġpsych": 5623,
      "Ġcup": 5624,
      "Ġlunch": 5625,
      "Ġmassive": 5626,
      "Ġcontributions": 5627,
      "cking": 5628,
      "Ġbritain": 5629,
      "Ġrid": 5630,
      "vak": 5631,
      "Ġserves": 5632,
      "ae": 5633,
      "Ġhealthy": 5634,
      "ii": 5635,
      "Ġ;": 5636,
      "Ġdur": 5637,
      "grade": 5638,
      ",âĢĿ": 5639,
      "ras": 5640,
      "22": 5641,
      "Ġliberalisation": 5642,
      "Ġmandate": 5643,
      "Ġdiscount": 5644,
      "Ġoperational": 5645,
      "Ġcomplain": 5646,
      "Ġhundreds": 5647,
      "iger": 5648,
      "Ġtransportation": 5649,
      "Ġamounts": 5650,
      "Ġimpressive": 5651,
      "Ġlabel": 5652,
      "oral": 5653,
      "Ġraw": 5654,
      "Ġwireless": 5655,
      "lav": 5656,
      "Ġeg": 5657,
      "Ġdav": 5658,
      "Ġawareness": 5659,
      "Ġremoved": 5660,
      "rep": 5661,
      "Ġwarrant": 5662,
      "Ġartist": 5663,
      "des": 5664,
      "Ġvacation": 5665,
      "top": 5666,
      "Ġrestrictions": 5667,
      "Ġprohib": 5668,
      "Ġopinions": 5669,
      "Ġlooks": 5670,
      "Ġnom": 5671,
      "Ġlobby": 5672,
      "Ġcable": 5673,
      "Ġzur": 5674,
      "Ġflag": 5675,
      "Ġresolutions": 5676,
      "Ġhardware": 5677,
      "Ġstake": 5678,
      "Ġphen": 5679,
      "Ġhappening": 5680,
      "Ġparliaments": 5681,
      "ĠâĢŀ": 5682,
      "augh": 5683,
      "Ġboo": 5684,
      "97": 5685,
      "Ġdrawing": 5686,
      "Ġpret": 5687,
      "Ġplanet": 5688,
      "Ġvirtual": 5689,
      "count": 5690,
      "Ġcompr": 5691,
      "Ġworse": 5692,
      "lymp": 5693,
      "Ġproperties": 5694,
      "Ġsor": 5695,
      "appe": 5696,
      "Ġsexual": 5697,
      "Ġfee": 5698,
      "Ġcharges": 5699,
      "Ġremaining": 5700,
      "rors": 5701,
      "Ġpolish": 5702,
      "Ġpattern": 5703,
      "Ġabol": 5704,
      "Ġengage": 5705,
      "Ġdrink": 5706,
      "Ġinhabit": 5707,
      "Ġrapporteurs": 5708,
      "Ġcharacteristics": 5709,
      "Ð»": 5710,
      "Ġfrid": 5711,
      "ius": 5712,
      "//": 5713,
      "Ġrequirement": 5714,
      "Ġemergency": 5715,
      "oss": 5716,
      "Ġcreates": 5717,
      "fa": 5718,
      "rew": 5719,
      "Ġabroad": 5720,
      "cific": 5721,
      "Ġtrek": 5722,
      "Ġstatistics": 5723,
      "gent": 5724,
      "Ġluxem": 5725,
      "cs": 5726,
      "Ġpoly": 5727,
      "Ġimpression": 5728,
      "Ġisol": 5729,
      "70": 5730,
      "Ġbush": 5731,
      "Ġannounce": 5732,
      "Ġnavig": 5733,
      "Ġpic": 5734,
      "):": 5735,
      "Ġheat": 5736,
      "Ġparents": 5737,
      "Ġformal": 5738,
      "hop": 5739,
      "Ġgran": 5740,
      "Ġprecise": 5741,
      "Ġcroatia": 5742,
      "tedly": 5743,
      "Ġissued": 5744,
      "Ġwitness": 5745,
      "hand": 5746,
      "Ġ195": 5747,
      "Ġmaritime": 5748,
      "Ġsocialist": 5749,
      "Ġmessages": 5750,
      "Ġdecis": 5751,
      "âĢ¦": 5752,
      "Ġproportion": 5753,
      "Ġmigration": 5754,
      "âĢĵ": 5755,
      "holders": 5756,
      "Ġran": 5757,
      "Ġprove": 5758,
      "Ġflash": 5759,
      "Ġfavor": 5760,
      "Ġdining": 5761,
      "Ġmonu": 5762,
      "Ġdoesn": 5763,
      "Ġmeat": 5764,
      "ben": 5765,
      "Ġnato": 5766,
      "Ġcleaning": 5767,
      "Ġidentify": 5768,
      "Ġmetro": 5769,
      "Ġfrequently": 5770,
      "andon": 5771,
      "Ġexpan": 5772,
      "Ġhill": 5773,
      "asts": 5774,
      "Ġregulatory": 5775,
      "Ġconflicts": 5776,
      "Ġgone": 5777,
      "stood": 5778,
      "Ġacquis": 5779,
      "Ġutil": 5780,
      "Ġattend": 5781,
      "Ġstars": 5782,
      "Ġenthus": 5783,
      "win": 5784,
      "umin": 5785,
      "Ġcouple": 5786,
      "Ġbelarus": 5787,
      "elfare": 5788,
      "Ġdepends": 5789,
      "Ġcontinent": 5790,
      "Ġreturned": 5791,
      "Ġreserves": 5792,
      "Ġolymp": 5793,
      "Ġzu": 5794,
      "Ġgdp": 5795,
      "Ġcertific": 5796,
      "Ġfamiliar": 5797,
      "Ġenforce": 5798,
      "friend": 5799,
      "Ġfrankfurt": 5800,
      "Ġchannel": 5801,
      "Ġcosta": 5802,
      "Ġcatch": 5803,
      "Ġtowns": 5804,
      "Ġtickets": 5805,
      "Ġcareer": 5806,
      "Ġjapanese": 5807,
      "Ġgets": 5808,
      "ateful": 5809,
      "Ġcarbon": 5810,
      "Ġbulgaria": 5811,
      "Ġintend": 5812,
      "Ġbalk": 5813,
      "oken": 5814,
      "Ġregularly": 5815,
      "Ġcoal": 5816,
      "Ġwalls": 5817,
      "Ġsubmit": 5818,
      "Ġreveal": 5819,
      "Ġabsolute": 5820,
      "po": 5821,
      "ago": 5822,
      "Ġmaintained": 5823,
      "Ġminority": 5824,
      "Ġmeps": 5825,
      "Ġalp": 5826,
      "Ġdriver": 5827,
      "Ġfacilitate": 5828,
      "Ġinterf": 5829,
      "Ġmm": 5830,
      "Ġrenovated": 5831,
      "Ġinvestors": 5832,
      "Ġdisappoint": 5833,
      "Ġupper": 5834,
      "aper": 5835,
      "oto": 5836,
      "Ġalco": 5837,
      "Ġelectricity": 5838,
      "Ġphenomen": 5839,
      "Ġproc": 5840,
      "ague": 5841,
      "Ġtu": 5842,
      "idden": 5843,
      "Ġowner": 5844,
      "Ġproof": 5845,
      "sman": 5846,
      "Ġafterno": 5847,
      "Ġsurroundings": 5848,
      "Ġseat": 5849,
      "imed": 5850,
      "Ġlovely": 5851,
      "Ġanswers": 5852,
      "Ġwelfare": 5853,
      "Ġfax": 5854,
      "Ġjac": 5855,
      "Ġdefine": 5856,
      "Ġshar": 5857,
      "Ġmiles": 5858,
      "Ġperformed": 5859,
      "Ġdocumentation": 5860,
      "Ġtopic": 5861,
      "Ġreported": 5862,
      "prus": 5863,
      "Ġconducted": 5864,
      "Ġseeing": 5865,
      "ares": 5866,
      "azz": 5867,
      "Ġfreedoms": 5868,
      "related": 5869,
      "Ġabandon": 5870,
      "Ġcontacts": 5871,
      "Ġupdated": 5872,
      "Ġfacility": 5873,
      "://": 5874,
      "Ġpakistan": 5875,
      "Ġtrou": 5876,
      "Ġhttp": 5877,
      "Ġconnections": 5878,
      "Ġelev": 5879,
      "gl": 5880,
      "Ġsomewhat": 5881,
      "Ġsupposed": 5882,
      "Ġaustral": 5883,
      "build": 5884,
      "Ġcyprus": 5885,
      "Ġdeals": 5886,
      "Ġsevere": 5887,
      "Ġsettlement": 5888,
      "Ġoral": 5889,
      "Ġtoler": 5890,
      "Ġcomplement": 5891,
      "Ġmaintaining": 5892,
      "Ġbalcony": 5893,
      "Ġmargin": 5894,
      "Ġwars": 5895,
      "Ġstring": 5896,
      "oured": 5897,
      "Ġcommittees": 5898,
      "Ġmir": 5899,
      "Ġoce": 5900,
      "Ġsus": 5901,
      ",\"": 5902,
      "oted": 5903,
      "Ġdates": 5904,
      "Ġorganized": 5905,
      "Ġfollows": 5906,
      "Ġwines": 5907,
      "Ġfaster": 5908,
      "Ġjoined": 5909,
      "Ġ150": 5910,
      "Ġdisplayed": 5911,
      "90": 5912,
      "Ġtourists": 5913,
      "Ġconfiguration": 5914,
      "Ġluxembourg": 5915,
      "Ġtechniques": 5916,
      "Ġought": 5917,
      "uls": 5918,
      "Ġremote": 5919,
      "aff": 5920,
      "Ġethnic": 5921,
      "zone": 5922,
      "Ġtheme": 5923,
      "ael": 5924,
      "unction": 5925,
      "Ġmagnific": 5926,
      "Ġdemanding": 5927,
      "sight": 5928,
      "Ġliqu": 5929,
      "orse": 5930,
      "Ġresistance": 5931,
      "Ġprinting": 5932,
      "Ġpollution": 5933,
      "Ġnoted": 5934,
      "viet": 5935,
      "ena": 5936,
      "orf": 5937,
      "Ġbehavi": 5938,
      "Ġsurely": 5939,
      "Ġexpansion": 5940,
      "Ġsurf": 5941,
      "orge": 5942,
      "Ġnone": 5943,
      "Ġpi": 5944,
      "Ġdas": 5945,
      "Ġker": 5946,
      "Ġcutting": 5947,
      "Ġworry": 5948,
      "opol": 5949,
      "Ġintens": 5950,
      "Ġdivided": 5951,
      "Ġintergovernmental": 5952,
      "Ġentrance": 5953,
      "Ġphp": 5954,
      "Ġroma": 5955,
      "Ġnord": 5956,
      "Ġflights": 5957,
      "Ġportugues": 5958,
      "Ġdrivers": 5959,
      "dum": 5960,
      "Ġinput": 5961,
      "Ġproducing": 5962,
      "Ġgrateful": 5963,
      "iform": 5964,
      "Ġinvite": 5965,
      "Ġcourage": 5966,
      "Ġrelaxation": 5967,
      "Ġexit": 5968,
      "eller": 5969,
      "Ġpassenger": 5970,
      "Ġcollaboration": 5971,
      "Ġtail": 5972,
      "Ġaqu": 5973,
      "Ġsigns": 5974,
      "Ġarrive": 5975,
      "Ġsubsidies": 5976,
      "Ġfulfil": 5977,
      "Ġbug": 5978,
      "Ġchief": 5979,
      "Ġeducational": 5980,
      "Ġinhabitants": 5981,
      "Ġmunicip": 5982,
      "enhagen": 5983,
      "Ġcycle": 5984,
      "Ġmostly": 5985,
      "wood": 5986,
      "Ġfal": 5987,
      "rote": 5988,
      "Ġfunctioning": 5989,
      "Ġcareful": 5990,
      "Ġdecorated": 5991,
      "band": 5992,
      "Ġwidely": 5993,
      "Ġkorea": 5994,
      "pay": 5995,
      "iliation": 5996,
      "Ġvisiting": 5997,
      "Ġdelighted": 5998,
      "water": 5999,
      "ho": 6000,
      "Ġsmooth": 6001,
      "market": 6002,
      "econom": 6003,
      "Ġwik": 6004,
      "enary": 6005,
      "Ġpor": 6006,
      "Ġflu": 6007,
      "Ġcorresponding": 6008,
      "'ve": 6009,
      "Ġprofile": 6010,
      "Ġcitizen": 6011,
      "Ġbottom": 6012,
      "Ġstylish": 6013,
      "Ġsociet": 6014,
      "Ġ45": 6015,
      "Ġvisible": 6016,
      "Ġlocations": 6017,
      "Ġchannels": 6018,
      "Ġinvolves": 6019,
      "Ġpresents": 6020,
      "Ġstarts": 6021,
      "Ġportuguese": 6022,
      "cd": 6023,
      "96": 6024,
      "hour": 6025,
      "Ġcategories": 6026,
      "Ġib": 6027,
      "Ġaer": 6028,
      "ura": 6029,
      "Ġtrafficking": 6030,
      "Ġreservations": 6031,
      "Ġspeaker": 6032,
      "Ġscan": 6033,
      "Ġcorruption": 6034,
      "sl": 6035,
      "Ġscheme": 6036,
      "Ġreferendum": 6037,
      "Ġbright": 6038,
      "Ġaccident": 6039,
      "Ġshowing": 6040,
      "care": 6041,
      "Ġfan": 6042,
      "Ġconsidering": 6043,
      "Ġafternoon": 6044,
      "Ġfilms": 6045,
      "rase": 6046,
      "Ġdomin": 6047,
      "Ġprest": 6048,
      "Ġcanada": 6049,
      "Ġexciting": 6050,
      "press": 6051,
      "Ġpackaging": 6052,
      "Ġfocused": 6053,
      "Ġcompact": 6054,
      "Ġrestruct": 6055,
      "nd": 6056,
      "aves": 6057,
      "Ġdemonstrate": 6058,
      "vo": 6059,
      "Ġ),": 6060,
      "Ġawa": 6061,
      "ips": 6062,
      "Ġaccompanied": 6063,
      "Ġsto": 6064,
      "Ġfootball": 6065,
      "engen": 6066,
      "Ġindicated": 6067,
      "Ġdisappe": 6068,
      "arters": 6069,
      "liers": 6070,
      "Ġstored": 6071,
      "rical": 6072,
      "Ġamp": 6073,
      "Ġbanking": 6074,
      "iled": 6075,
      "Ġdistingu": 6076,
      "Ġdemonstrated": 6077,
      "cession": 6078,
      "Ġhorse": 6079,
      "Ġ2020": 6080,
      "Ġunderstood": 6081,
      "Ġcolon": 6082,
      "Ġsugar": 6083,
      "Ġautonom": 6084,
      "Ġeffectiveness": 6085,
      "Â°": 6086,
      "Ġbio": 6087,
      "Ġwoman": 6088,
      "Ġrestric": 6089,
      "Ġconsulting": 6090,
      "ema": 6091,
      "Ġms": 6092,
      "Ġforg": 6093,
      "Ġguard": 6094,
      "Ġvisited": 6095,
      "Ġminorities": 6096,
      "Ġinflation": 6097,
      "Ġairlines": 6098,
      "Ġbilateral": 6099,
      "utor": 6100,
      "Ġcontrolled": 6101,
      "Ġni": 6102,
      "Ġongoing": 6103,
      "Ġproved": 6104,
      "Ġcin": 6105,
      "Ġmanaging": 6106,
      "Ġadopting": 6107,
      "Ġindex": 6108,
      "ĠÂ»": 6109,
      "Ġfunctional": 6110,
      "Ġeventually": 6111,
      "Ġcourts": 6112,
      "Ġwashing": 6113,
      "Ġcontrad": 6114,
      "Ġslovak": 6115,
      "Ġturning": 6116,
      "igen": 6117,
      "Ġmanual": 6118,
      "Ġalcohol": 6119,
      "Ġexplicit": 6120,
      "Ġtheatre": 6121,
      "acion": 6122,
      "sa": 6123,
      "Ġdro": 6124,
      "Ġcrimes": 6125,
      "Ġundertaking": 6126,
      "Ġtwenty": 6127,
      "Ġboost": 6128,
      "Ġfriday": 6129,
      "Ġproven": 6130,
      "Ġfirms": 6131,
      "Ġ?": 6132,
      "Ġassets": 6133,
      "Ġjudicial": 6134,
      "roll": 6135,
      "Ġcosy": 6136,
      "Ġimmigrants": 6137,
      "Ġlug": 6138,
      "Ġfinished": 6139,
      "Ġsmes": 6140,
      "Ġconcluded": 6141,
      "Ġspectacular": 6142,
      "stein": 6143,
      "iano": 6144,
      "Ġbehaviour": 6145,
      "Ġshipping": 6146,
      "Ġluxur": 6147,
      "Ġspoken": 6148,
      "Ġawarded": 6149,
      "acco": 6150,
      "produ": 6151,
      "Ġpersonnel": 6152,
      "Ġterrorist": 6153,
      "Ġprofessionals": 6154,
      "Ġsupervis": 6155,
      "igu": 6156,
      "Ġ1995": 6157,
      "ni": 6158,
      "war": 6159,
      "Ġemerging": 6160,
      "Ġtheory": 6161,
      "oub": 6162,
      "Ġfacts": 6163,
      "Ġmodu": 6164,
      "Ġcopenhagen": 6165,
      "Ġgi": 6166,
      "Ġsubsidiarity": 6167,
      "Ġcompatible": 6168,
      "hor": 6169,
      "Ġcompetent": 6170,
      "life": 6171,
      "Ġdestruction": 6172,
      "Ġprague": 6173,
      "ym": 6174,
      "Ġbroadcast": 6175,
      "Ġmodule": 6176,
      "entic": 6177,
      "Ġmovie": 6178,
      "Ġbaltic": 6179,
      "Ġrecorded": 6180,
      "inter": 6181,
      "Ġtransactions": 6182,
      "Ġsending": 6183,
      "Ġemot": 6184,
      "Ġtaxation": 6185,
      "Ġtennis": 6186,
      "Ġassume": 6187,
      "Ġpartly": 6188,
      "Ġuncertain": 6189,
      "Ġisraeli": 6190,
      "Ġbeg": 6191,
      "Ġpossibly": 6192,
      "Ġtackle": 6193,
      "Ġanne": 6194,
      "Ġok": 6195,
      "Ġplenty": 6196,
      "Ġsuppliers": 6197,
      "Ġprovince": 6198,
      "Ġrapidly": 6199,
      "Ġextraordinary": 6200,
      "tical": 6201,
      "Ġpharm": 6202,
      "Ġoccasions": 6203,
      "Ġcul": 6204,
      "02": 6205,
      "Ġovercome": 6206,
      "Ġreplaced": 6207,
      "Ġcenturies": 6208,
      "Ġproviders": 6209,
      "Ġroutes": 6210,
      "Ġgri": 6211,
      "Ġmanufacturer": 6212,
      "Ġera": 6213,
      "Ġsupplier": 6214,
      "Ġlots": 6215,
      "Ġschengen": 6216,
      "Ġopera": 6217,
      "Ġeat": 6218,
      "Ġnine": 6219,
      "Ġmusical": 6220,
      "Ġsecretary": 6221,
      "Ġassum": 6222,
      "Ġimposed": 6223,
      "dro": 6224,
      "uk": 6225,
      "Ġstabil": 6226,
      "Ġarts": 6227,
      "Ġoriginally": 6228,
      "Ġshares": 6229,
      "Ġrespected": 6230,
      "Ġpaint": 6231,
      "Ġphilosophy": 6232,
      "Ġwhereas": 6233,
      "Ġnights": 6234,
      "Ġartistic": 6235,
      "Ġuniform": 6236,
      "Ġpurs": 6237,
      "Ġstronger": 6238,
      "Ġvary": 6239,
      "Ġpromp": 6240,
      "Ġdesired": 6241,
      "Ġpieces": 6242,
      "Ġjose": 6243,
      "Ġvoluntary": 6244,
      "Ġ32": 6245,
      "Ġdies": 6246,
      "Ġflood": 6247,
      "Ġpaul": 6248,
      "Ġcontaining": 6249,
      "Ġcredibility": 6250,
      "Ġinfring": 6251,
      "Ġko": 6252,
      "ador": 6253,
      "ache": 6254,
      "Ġsuperior": 6255,
      "Ġendorse": 6256,
      "Ġmagnificent": 6257,
      "Ġsie": 6258,
      "Ġcere": 6259,
      "iers": 6260,
      "Ðº": 6261,
      "Ġaddresses": 6262,
      "Ġplenary": 6263,
      "Ġgam": 6264,
      "Ġmotiv": 6265,
      "pers": 6266,
      "Ġmilk": 6267,
      "Ġaus": 6268,
      "35": 6269,
      ");": 6270,
      "Ġencouraging": 6271,
      "Ġradical": 6272,
      "Ġecu": 6273,
      "Ġdign": 6274,
      "Ġcorrectly": 6275,
      "Ġsilver": 6276,
      "Ġeditor": 6277,
      "Ġinclusion": 6278,
      "asse": 6279,
      "Ġmoral": 6280,
      "Ġweekend": 6281,
      "Ġimagine": 6282,
      "gos": 6283,
      "Ġdeclared": 6284,
      "Ġmadrid": 6285,
      "Ġtobacco": 6286,
      "ship": 6287,
      "Ġtrial": 6288,
      "Ġcomponent": 6289,
      "Ġsoph": 6290,
      "Ġscand": 6291,
      "Ġmexico": 6292,
      "hotel": 6293,
      "Ġeverybody": 6294,
      "Ġpreparing": 6295,
      "Ġdefinitely": 6296,
      "Â²": 6297,
      "Ġtower": 6298,
      "Ġhes": 6299,
      "Ġsatisfied": 6300,
      "ocr": 6301,
      "Ġlan": 6302,
      "Ġvig": 6303,
      "Ġpoore": 6304,
      "Ġstanding": 6305,
      "Ġdied": 6306,
      "Ġusual": 6307,
      "while": 6308,
      "etheless": 6309,
      "iel": 6310,
      "Ġvat": 6311,
      "atures": 6312,
      "Ġnonetheless": 6313,
      "Ġpremium": 6314,
      "Ġauditors": 6315,
      "Ġdisk": 6316,
      "Ġupdates": 6317,
      "Ġiso": 6318,
      "Ġconsent": 6319,
      "Ġauthentic": 6320,
      "cul": 6321,
      "Ġargument": 6322,
      "Ġhungary": 6323,
      "Ġbelgium": 6324,
      "otic": 6325,
      "Ġplays": 6326,
      "Ġconserv": 6327,
      "Ġvit": 6328,
      "Ġretail": 6329,
      "Ġelsewhere": 6330,
      "Ġdistributed": 6331,
      "Ġrol": 6332,
      "Ġhat": 6333,
      "Ġrenow": 6334,
      "Ġsoviet": 6335,
      "Ġnarrow": 6336,
      "Ġbelief": 6337,
      "Ġsuffer": 6338,
      "Ġdefect": 6339,
      "iry": 6340,
      "Ġroll": 6341,
      "Ġformed": 6342,
      "Ġidentified": 6343,
      "Ġappointed": 6344,
      "Ġadults": 6345,
      "Ġregardless": 6346,
      "Ġthousand": 6347,
      "rent": 6348,
      "Ġrac": 6349,
      "Ġapplying": 6350,
      "Ġproposes": 6351,
      "Ġsatur": 6352,
      "pm": 6353,
      "itar": 6354,
      "cho": 6355,
      "Ġresolved": 6356,
      "Ġsemin": 6357,
      "run": 6358,
      "ander": 6359,
      "Ġthurs": 6360,
      "Ġslightly": 6361,
      "eds": 6362,
      "Ġluxurious": 6363,
      "Ġresource": 6364,
      "Ġdos": 6365,
      "Ġboot": 6366,
      "Ġhonest": 6367,
      "Ġroads": 6368,
      "Ġconcepts": 6369,
      "Ġprop": 6370,
      "ctive": 6371,
      "Ġsuit": 6372,
      "Ġduties": 6373,
      "Ġfinish": 6374,
      "Ġhousing": 6375,
      "Ġinj": 6376,
      "Ġcrew": 6377,
      "Ġ194": 6378,
      "gence": 6379,
      "Ġeld": 6380,
      "Ġlessons": 6381,
      "Ġfederation": 6382,
      "Ġsupplies": 6383,
      "Ġeveryday": 6384,
      "Ġearn": 6385,
      "Ġtrips": 6386,
      "]].": 6387,
      "chen": 6388,
      "Ġunw": 6389,
      "Ġpanel": 6390,
      "lined": 6391,
      "Ġedge": 6392,
      "Ġsubstance": 6393,
      "Ġensures": 6394,
      "Ġnic": 6395,
      "Ġ400": 6396,
      "Ġnewslet": 6397,
      "Ġships": 6398,
      "Ġdirectory": 6399,
      "economic": 6400,
      "Ġteams": 6401,
      "Ġactively": 6402,
      "Ġsubjects": 6403,
      "Ġinterpretation": 6404,
      "Ġsolely": 6405,
      "Ġdecisive": 6406,
      "Ġdecre": 6407,
      "ĠÂ«": 6408,
      "Ġunfor": 6409,
      "Ġhoriz": 6410,
      "Ġexports": 6411,
      "Ġsmart": 6412,
      "Ġcarrying": 6413,
      "Ġproposing": 6414,
      "Ġsavings": 6415,
      "Ġorch": 6416,
      "Ġdecent": 6417,
      "Ġtraditions": 6418,
      "Ġvillages": 6419,
      "Ġdeficit": 6420,
      "aling": 6421,
      "Ġexcessive": 6422,
      "Ġrain": 6423,
      "Ġattempts": 6424,
      "Ġmp": 6425,
      "ament": 6426,
      "Ġdiverse": 6427,
      "Ġdrop": 6428,
      "oles": 6429,
      "Ġassure": 6430,
      "yer": 6431,
      "Ġabsence": 6432,
      "Ġappeared": 6433,
      "Ġabuse": 6434,
      "Ġtea": 6435,
      "Ġconditioning": 6436,
      "32": 6437,
      "Ġdeter": 6438,
      "Ġdeparture": 6439,
      "Ġreligion": 6440,
      "Ġfly": 6441,
      "ida": 6442,
      "Ġvulnerable": 6443,
      "Ġindo": 6444,
      "ails": 6445,
      "Ġoverview": 6446,
      "Ġsatisfaction": 6447,
      "Ġprox": 6448,
      "Ġath": 6449,
      "Ġrising": 6450,
      "Ġtopics": 6451,
      "Ġlegitimate": 6452,
      "Ġinqu": 6453,
      "Ġtradem": 6454,
      "Ġdeploy": 6455,
      "Ġparalle": 6456,
      "Ġmuseums": 6457,
      "Ġthir": 6458,
      "Ġforests": 6459,
      "icht": 6460,
      "repren": 6461,
      "ement": 6462,
      "Ġfleet": 6463,
      "Ġsunday": 6464,
      "Ġgramm": 6465,
      "card": 6466,
      "Ġacting": 6467,
      "Ġskiing": 6468,
      "Ġdistort": 6469,
      "minute": 6470,
      "Ġgolden": 6471,
      "ais": 6472,
      "dis": 6473,
      "Ġtab": 6474,
      "Ġconcert": 6475,
      "Ġinfect": 6476,
      "Ġromantic": 6477,
      "esth": 6478,
      "Ġcondemn": 6479,
      "repreneur": 6480,
      "Ġsuggestions": 6481,
      "fall": 6482,
      "Ġrevision": 6483,
      "Ġrepresentation": 6484,
      "Ġbike": 6485,
      "Ġsanta": 6486,
      "Ġshutt": 6487,
      "Ġpreced": 6488,
      "Ġroof": 6489,
      "Ġimpose": 6490,
      "Ġcolours": 6491,
      "Ġattrib": 6492,
      "Ġuna": 6493,
      "Ġaviation": 6494,
      "Ġacknowledge": 6495,
      "Ġtran": 6496,
      "Ġscene": 6497,
      "hu": 6498,
      "Ġthursday": 6499,
      "âĢĶ": 6500,
      "Ġcontinuous": 6501,
      "ationally": 6502,
      "Ġmagazine": 6503,
      "Ġwrote": 6504,
      "erman": 6505,
      "Ġcountryside": 6506,
      "Ġshap": 6507,
      "Ġcomparison": 6508,
      "Ġmaybe": 6509,
      "club": 6510,
      "Ġtree": 6511,
      "Ġports": 6512,
      "Ġarrived": 6513,
      "haus": 6514,
      "level": 6515,
      "Ġengland": 6516,
      "Ġvic": 6517,
      "Ġbreach": 6518,
      "Ġdrinks": 6519,
      "Ġportfol": 6520,
      "Ġgreatly": 6521,
      "appl": 6522,
      "mod": 6523,
      "Ġtort": 6524,
      "Ġcatal": 6525,
      "Ġlists": 6526,
      "Ġalarm": 6527,
      "Ġgained": 6528,
      "Ġchampions": 6529,
      "Ġhungarian": 6530,
      "Ġunforget": 6531,
      "Ġinspect": 6532,
      "Ġreceiving": 6533,
      "Ġsin": 6534,
      "Ġpolitically": 6535,
      "Ġgenerated": 6536,
      "Ġjudge": 6537,
      "Ġpermitted": 6538,
      "Ġrecords": 6539,
      "Ġclin": 6540,
      "Ġamen": 6541,
      "Ġinvited": 6542,
      "tery": 6543,
      "orient": 6544,
      "Ġregarded": 6545,
      "Ġsocieties": 6546,
      "Ġenabling": 6547,
      "Ġpursue": 6548,
      "grad": 6549,
      "Ġhomes": 6550,
      "Ġlt": 6551,
      "Ġdifficulty": 6552,
      "Ġundoub": 6553,
      "made": 6554,
      "Ġfarming": 6555,
      "Ġdelicious": 6556,
      "oli": 6557,
      "Ġsurve": 6558,
      "page": 6559,
      "Ġdoors": 6560,
      "Ġpdf": 6561,
      "ellers": 6562,
      "Ġperiods": 6563,
      "Ġspecialist": 6564,
      "ifies": 6565,
      "Ġpatient": 6566,
      "Ġsuggested": 6567,
      "Ġreaction": 6568,
      "ams": 6569,
      "Ġentrepreneur": 6570,
      "inger": 6571,
      "Ñĥ": 6572,
      "Ġeads": 6573,
      "eva": 6574,
      "Ġindirect": 6575,
      "Ġconfirmation": 6576,
      "Ġaccel": 6577,
      "Ġorganic": 6578,
      "Ġproceedings": 6579,
      "Ġfans": 6580,
      "Ġcancer": 6581,
      "Ġalex": 6582,
      "Ġdestroyed": 6583,
      "Ġthermal": 6584,
      "Ġlod": 6585,
      "Ġpassion": 6586,
      "Ġinstructions": 6587,
      "iro": 6588,
      "Ġiv": 6589,
      "Ġtight": 6590,
      "Ġarguments": 6591,
      "Ġdiagn": 6592,
      "pany": 6593,
      "Ġkon": 6594,
      "Ġmerc": 6595,
      "Ġspoke": 6596,
      "Ġharmonisation": 6597,
      "Ġfilter": 6598,
      "Ġexamine": 6599,
      "Ġprogramming": 6600,
      "Ġcathed": 6601,
      "Ġlift": 6602,
      "Ġmobil": 6603,
      "Ġcommissioners": 6604,
      "ibet": 6605,
      "aughter": 6606,
      "Ġpublication": 6607,
      "Ġdism": 6608,
      "Ġfactory": 6609,
      "Ġsustainability": 6610,
      "Ġspecified": 6611,
      "uit": 6612,
      "Ġsimult": 6613,
      "Ġequival": 6614,
      "hl": 6615,
      "Ġrealistic": 6616,
      "Ġimports": 6617,
      "Ġwider": 6618,
      "Ġprosperity": 6619,
      "Ġbonus": 6620,
      "27": 6621,
      "Ġhamburg": 6622,
      "Ġchapter": 6623,
      "wan": 6624,
      "Ġintroducing": 6625,
      "Ġrenowned": 6626,
      "Ġdiscipl": 6627,
      "Ġenjoyed": 6628,
      "ika": 6629,
      "mak": 6630,
      "osis": 6631,
      "26": 6632,
      "rd": 6633,
      "Ġexclusion": 6634,
      "Ġmonday": 6635,
      "Ġaccordingly": 6636,
      "Ġtherap": 6637,
      "Ġclubs": 6638,
      "čĊ": 6639,
      "Ġsupervision": 6640,
      "Ġsounds": 6641,
      "Ġconstitute": 6642,
      "gon": 6643,
      "Ġdidn": 6644,
      "Ġcau": 6645,
      "Ġlegally": 6646,
      "Ġrefers": 6647,
      "Ġanonym": 6648,
      "Ġlastly": 6649,
      "Ġuniversities": 6650,
      "Ġcooperate": 6651,
      "Ġsimultane": 6652,
      "night": 6653,
      "Ġmassage": 6654,
      "Ġreconstruction": 6655,
      "Ġocean": 6656,
      "Ġacp": 6657,
      "applause": 6658,
      "Ġobliged": 6659,
      "Ġvideos": 6660,
      "Ġsought": 6661,
      "2000": 6662,
      "Ġnut": 6663,
      "Ġhandle": 6664,
      "Ġpreventing": 6665,
      "ĠâĢ¢": 6666,
      "ribe": 6667,
      "Ġleaves": 6668,
      "Ġgul": 6669,
      "Ġstun": 6670,
      "Ġremov": 6671,
      "Ġreput": 6672,
      "Ġhardly": 6673,
      "scale": 6674,
      "Ġsignificance": 6675,
      "Ġox": 6676,
      "Ġpaying": 6677,
      "Ġcharacters": 6678,
      "Ġscr": 6679,
      "Ġkilled": 6680,
      "Ġneighb": 6681,
      "Ġmissing": 6682,
      "Ġshadow": 6683,
      "Ġconce": 6684,
      "Ġpara": 6685,
      "Ġdependent": 6686,
      "Ġsum": 6687,
      "Ġende": 6688,
      "Ġshuttle": 6689,
      "Ġunforgettable": 6690,
      "Ġnegotiating": 6691,
      "Ġnormally": 6692,
      "Ġhospitality": 6693,
      "Ġax": 6694,
      "Ġliquid": 6695,
      "Ġtravelling": 6696,
      "Ġluggage": 6697,
      "km": 6698,
      "Ġfifth": 6699,
      "Ġinterview": 6700,
      "Ġgross": 6701,
      "Ġordinary": 6702,
      "advant": 6703,
      "Ġlayer": 6704,
      "Ġfabric": 6705,
      "rie": 6706,
      "communic": 6707,
      "play": 6708,
      "Ġcells": 6709,
      "Ġjustified": 6710,
      "inder": 6711,
      "Ġenhanced": 6712,
      "Ġgate": 6713,
      "www": 6714,
      "roso": 6715,
      "Ġ2011": 6716,
      "Ġsalz": 6717,
      "Ġamazing": 6718,
      "stal": 6719,
      "Ġconciliation": 6720,
      "enth": 6721,
      "asbourg": 6722,
      "Ġalban": 6723,
      "ahn": 6724,
      "Ġfemale": 6725,
      "ante": 6726,
      "Ġsequ": 6727,
      "Ġorient": 6728,
      "Ġappearance": 6729,
      "Ġsharing": 6730,
      "33": 6731,
      "Ġexempt": 6732,
      "Ġcombine": 6733,
      "Ġplastic": 6734,
      "ascript": 6735,
      "Ġalleg": 6736,
      "Ġmodules": 6737,
      "Ġtransmission": 6738,
      "100": 6739,
      "Ġsuffered": 6740,
      "Ġpin": 6741,
      "Ġride": 6742,
      "Ġhiking": 6743,
      "ige": 6744,
      "Ġmedicine": 6745,
      "Ġunderground": 6746,
      "Ġwelcomed": 6747,
      "Ġneighbourhood": 6748,
      "Ġsongs": 6749,
      "Ġundoubtedly": 6750,
      "Ġgh": 6751,
      "ographic": 6752,
      "Ġdirected": 6753,
      "Ġdamages": 6754,
      "Ġcomputers": 6755,
      "Ġsplend": 6756,
      "Ġdialog": 6757,
      "Ġfinland": 6758,
      "Ġparameters": 6759,
      "Ġunlike": 6760,
      "Ġbeings": 6761,
      "Ġdisadvant": 6762,
      "ista": 6763,
      "Ġremained": 6764,
      "bi": 6765,
      "Ġtables": 6766,
      "Ġrealise": 6767,
      "Ġomb": 6768,
      "irt": 6769,
      "Ġdiss": 6770,
      "real": 6771,
      "Ġannivers": 6772,
      "Ġcontributed": 6773,
      "ography": 6774,
      "Ġcraft": 6775,
      "Ġrepair": 6776,
      "Ġcathedral": 6777,
      "Ġerrors": 6778,
      "Ġsections": 6779,
      "Ġinvestigation": 6780,
      "Ġjuris": 6781,
      "Ġcock": 6782,
      "Ġforthcoming": 6783,
      "Ġstrasbourg": 6784,
      "Ġmovements": 6785,
      "Ġcodec": 6786,
      "Ġtrail": 6787,
      "Ġcuts": 6788,
      "Ġcomplicated": 6789,
      "Ġproductivity": 6790,
      "Ġenabled": 6791,
      "Ġfees": 6792,
      "Ġalongside": 6793,
      "Ġallocated": 6794,
      "Ġbarriers": 6795,
      "west": 6796,
      "teen": 6797,
      "Ġfloren": 6798,
      "Ġfirmly": 6799,
      "Ġtel": 6800,
      "âĢĻ.": 6801,
      "Ġ00": 6802,
      "Ġarbit": 6803,
      "Ġclasses": 6804,
      "Ġacknowled": 6805,
      "%,": 6806,
      "eff": 6807,
      "Ġmoroc": 6808,
      "Ġaccurate": 6809,
      "Ġjavascript": 6810,
      "iner": 6811,
      "lets": 6812,
      "Ġchecks": 6813,
      "Ġstudent": 6814,
      "Ġparallel": 6815,
      "75": 6816,
      "Ġprosec": 6817,
      "Ġeco": 6818,
      "Ġmemor": 6819,
      "Ġwelcomes": 6820,
      "Ġinternationally": 6821,
      "Ġcalend": 6822,
      "Ġinev": 6823,
      "Ġfloors": 6824,
      "Ġatlantic": 6825,
      "ronom": 6826,
      "Ġhearing": 6827,
      "eep": 6828,
      "Ġacceptance": 6829,
      "Ġvessels": 6830,
      "ull": 6831,
      "Ġauf": 6832,
      "icy": 6833,
      "cht": 6834,
      "oration": 6835,
      "Ġmarine": 6836,
      "Ġrecognized": 6837,
      "Ġindicate": 6838,
      "Ġlabelling": 6839,
      "general": 6840,
      "Ġcovering": 6841,
      "Ġdance": 6842,
      "Ġobstacles": 6843,
      "cket": 6844,
      "Ġremarks": 6845,
      "Ġadventure": 6846,
      "Ġ1994": 6847,
      "Ġjer": 6848,
      "Ġgenerations": 6849,
      "Ġtrends": 6850,
      "fu": 6851,
      "encing": 6852,
      "Ġhills": 6853,
      "active": 6854,
      "Ġnovel": 6855,
      "Ġpad": 6856,
      "log": 6857,
      "Ġlegitim": 6858,
      "Ġtill": 6859,
      "Ġak": 6860,
      "Ġstocks": 6861,
      "Ġreaching": 6862,
      "Ġcot": 6863,
      "Ġrotary": 6864,
      "Ġombud": 6865,
      "Ġopens": 6866,
      "Ġclause": 6867,
      "Ġwarning": 6868,
      "oslav": 6869,
      "2001": 6870,
      "Ġhun": 6871,
      "Ġhus": 6872,
      "Ġdog": 6873,
      "heim": 6874,
      "Ġcollected": 6875,
      "Ġfunctionality": 6876,
      "Ġdisasters": 6877,
      "Ġtimet": 6878,
      "Ġsubsequent": 6879,
      "Ġselling": 6880,
      "500": 6881,
      "Ġindian": 6882,
      "Ġexplained": 6883,
      "Ġpenalty": 6884,
      "Ġwelcoming": 6885,
      "Ġgap": 6886,
      "Ġincred": 6887,
      "eland": 6888,
      "usal": 6889,
      "Ġincident": 6890,
      "Ġsaved": 6891,
      "Ġgenerate": 6892,
      "nia": 6893,
      "Ġimplic": 6894,
      "Ġsaturday": 6895,
      "Ġ#": 6896,
      "Ġvib": 6897,
      "my": 6898,
      "Ġmys": 6899,
      "gar": 6900,
      "Ġamericans": 6901,
      "Ġviolations": 6902,
      "Ġdignity": 6903,
      "using": 6904,
      "Ġmichael": 6905,
      "Ġasian": 6906,
      "Ġserbia": 6907,
      "ermen": 6908,
      "Ġsupervisory": 6909,
      "Ġtibet": 6910,
      "Ġlooked": 6911,
      "front": 6912,
      "chant": 6913,
      "Ġgast": 6914,
      "ints": 6915,
      "Ġnewsletter": 6916,
      "95": 6917,
      "Ġusb": 6918,
      "Ġcultures": 6919,
      "ala": 6920,
      "pat": 6921,
      "Ġshowed": 6922,
      "Ġingred": 6923,
      "Ġendeav": 6924,
      "Ġwhenever": 6925,
      "Ġ{{": 6926,
      "Ġmaria": 6927,
      "Ġdeliber": 6928,
      "Ġportal": 6929,
      "04": 6930,
      "Ġchristmas": 6931,
      "Ġpump": 6932,
      "Ġexploitation": 6933,
      "Ġexcluded": 6934,
      "Ġreflected": 6935,
      "instit": 6936,
      "Ġconsiderably": 6937,
      "Ġecological": 6938,
      "Ġadapted": 6939,
      "Ġmarina": 6940,
      "Ġolive": 6941,
      "Ġstick": 6942,
      "Ġreliability": 6943,
      "Ġash": 6944,
      "being": 6945,
      "Ġenem": 6946,
      "Ġsloven": 6947,
      "oll": 6948,
      "mat": 6949,
      "Ġhonour": 6950,
      "01": 6951,
      "Ġnu": 6952,
      "stream": 6953,
      "fs": 6954,
      "Ġoperator": 6955,
      "Ġlosses": 6956,
      "Ġliv": 6957,
      "Ġworst": 6958,
      "Ġinitially": 6959,
      "Ġly": 6960,
      "Ġpanoramic": 6961,
      "Ġanniversary": 6962,
      "uled": 6963,
      "ulous": 6964,
      "Ġsophistic": 6965,
      "Ġroot": 6966,
      "Ġrestore": 6967,
      "wr": 6968,
      "Ġpip": 6969,
      "Ġperm": 6970,
      "Ġstret": 6971,
      "friendly": 6972,
      "Ġtan": 6973,
      "commer": 6974,
      "Ġom": 6975,
      "Ġasp": 6976,
      "Ġmultilateral": 6977,
      "Ġamenities": 6978,
      "Ġfishermen": 6979,
      "flow": 6980,
      "lements": 6981,
      "cha": 6982,
      "Ġsovereignty": 6983,
      "Ġrational": 6984,
      "eter": 6985,
      "Ġoverlooking": 6986,
      "Ġtransferred": 6987,
      "Ġnewspapers": 6988,
      "Ġcollege": 6989,
      "Ġislamic": 6990,
      "adequ": 6991,
      "Ġbelieves": 6992,
      "wa": 6993,
      "Ġrecall": 6994,
      "Ġ36": 6995,
      "gines": 6996,
      "ugoslav": 6997,
      "Ġshortly": 6998,
      "def": 6999,
      "Ġgeneva": 7000,
      "Ġdesigns": 7001,
      "Ġcyc": 7002,
      "eline": 7003,
      "ido": 7004,
      "itical": 7005,
      "Ġtested": 7006,
      "Ġtoile": 7007,
      "Ġring": 7008,
      "Ġeverywhere": 7009,
      "Ġchat": 7010,
      "itted": 7011,
      "Ġpeter": 7012,
      "son": 7013,
      "Ġlith": 7014,
      "Ġrestructuring": 7015,
      "Ġfilled": 7016,
      "Ġmort": 7017,
      "Ġcamps": 7018,
      "05": 7019,
      "Ġreflects": 7020,
      "Ġstages": 7021,
      "town": 7022,
      "Ġbalkans": 7023,
      "ocking": 7024,
      "Ġnobody": 7025,
      "Ġscientists": 7026,
      "Ġessentially": 7027,
      "Ġlayout": 7028,
      "Ġvenice": 7029,
      "Ġmagic": 7030,
      "Ġfreely": 7031,
      "Ġtourna": 7032,
      "ello": 7033,
      "Ġconcentrate": 7034,
      "hof": 7035,
      "elle": 7036,
      "Ġplug": 7037,
      "Ġfo": 7038,
      "Ġsatisfy": 7039,
      "Ġheight": 7040,
      "Ġpretty": 7041,
      "fers": 7042,
      "Ġrestored": 7043,
      "Ġharbour": 7044,
      "Ġportfolio": 7045,
      "Ġadjustment": 7046,
      "38": 7047,
      "Ġsaving": 7048,
      "Ġdecade": 7049,
      "Ġcoordinated": 7050,
      "nam": 7051,
      "Ġgather": 7052,
      "Ġstrengthened": 7053,
      "Ġteaching": 7054,
      "ield": 7055,
      "Ġhu": 7056,
      "Ġbriefly": 7057,
      "36": 7058,
      "Ġalumin": 7059,
      "Ġundertaken": 7060,
      "Ġarmed": 7061,
      "Ġaustralia": 7062,
      "Ġvine": 7063,
      "Ġcontro": 7064,
      "Ġtracks": 7065,
      "Ġppe": 7066,
      "Ġwheel": 7067,
      "Ġombudsman": 7068,
      "Ġheading": 7069,
      "Ġanticip": 7070,
      "utsche": 7071,
      "Ġinadequ": 7072,
      "ario": 7073,
      "Ġliked": 7074,
      "Ġunfair": 7075,
      "Ġthumb": 7076,
      "Ġhighlights": 7077,
      "Ġnative": 7078,
      "Ġlit": 7079,
      "Ġsupplied": 7080,
      "Ġannex": 7081,
      "Ġcalm": 7082,
      "Ġengines": 7083,
      "Ġ75": 7084,
      "Ġsincere": 7085,
      "Ġgover": 7086,
      "appro": 7087,
      "Ġreserved": 7088,
      "ima": 7089,
      "Ġplain": 7090,
      "Ġarising": 7091,
      "Ġcommunist": 7092,
      "Ġmartin": 7093,
      "Ġshift": 7094,
      "Ġarise": 7095,
      "ieval": 7096,
      "Ġanywhere": 7097,
      "Ġlearned": 7098,
      "34": 7099,
      "opes": 7100,
      "Ġsudden": 7101,
      "'m": 7102,
      "Ġwil": 7103,
      "gg": 7104,
      "Ġpilot": 7105,
      "Ġgift": 7106,
      "Ġyugoslav": 7107,
      "Ġtreatments": 7108,
      "Ġshoot": 7109,
      "Ġneighbouring": 7110,
      "Ġlived": 7111,
      "Ġalle": 7112,
      "Ġprofits": 7113,
      "otive": 7114,
      "Ġkill": 7115,
      "Ġrecei": 7116,
      "Ġusage": 7117,
      "==": 7118,
      "Ġsuperb": 7119,
      "ani": 7120,
      "Ġthr": 7121,
      "necess": 7122,
      "Ġentering": 7123,
      "Ġassociations": 7124,
      "Ġtargeted": 7125,
      "Ġdoctor": 7126,
      "Ġtag": 7127,
      "Ġgoverning": 7128,
      "Ġdeeply": 7129,
      "Ġmarks": 7130,
      "effect": 7131,
      "Ġbeat": 7132,
      "Ġpresenting": 7133,
      "Ġtreas": 7134,
      "28": 7135,
      "Ð²": 7136,
      "Ġapprove": 7137,
      "Ġnap": 7138,
      "Ġholds": 7139,
      "eli": 7140,
      "Ġmedieval": 7141,
      "Ġrow": 7142,
      "Ġrecording": 7143,
      "Ġwer": 7144,
      "Ġconstitu": 7145,
      "Ġjurisd": 7146,
      "date": 7147,
      "ford": 7148,
      "via": 7149,
      "Ġliable": 7150,
      "Ġdisag": 7151,
      "Ġsurvey": 7152,
      "country": 7153,
      "Ġalpine": 7154,
      "Ġmouse": 7155,
      "Ġagents": 7156,
      "Ġideally": 7157,
      "Ġecb": 7158,
      "Ġdetermination": 7159,
      "ener": 7160,
      "iration": 7161,
      "ressed": 7162,
      "Ġempire": 7163,
      "Ġvaried": 7164,
      "64": 7165,
      "rog": 7166,
      "Ġindividually": 7167,
      "Ġislam": 7168,
      "Ġnecessarily": 7169,
      "Ġhorizon": 7170,
      "vest": 7171,
      "Ġsoul": 7172,
      "Ġmes": 7173,
      "Ġinfo": 7174,
      "Ġthreats": 7175,
      "ju": 7176,
      "Ġreferring": 7177,
      "Ġpicturesque": 7178,
      "Ġtough": 7179,
      "Ġlistings": 7180,
      "Ġprocessed": 7181,
      "Ġtranqu": 7182,
      "Ġadds": 7183,
      "Ġexecution": 7184,
      "Ġequivalent": 7185,
      "Ġcad": 7186,
      "Ġdesktop": 7187,
      "Ġsights": 7188,
      "Ġfalls": 7189,
      "Ġstuff": 7190,
      "Ġmacro": 7191,
      "Ġsensible": 7192,
      "Ġtelecommunic": 7193,
      "Ġappropriations": 7194,
      "las": 7195,
      "dem": 7196,
      "Ġdecline": 7197,
      "Ġcamer": 7198,
      "cio": 7199,
      "zard": 7200,
      "Ġordered": 7201,
      "Ġincorporated": 7202,
      "Ġreporting": 7203,
      "Ġministry": 7204,
      "Ġdemocrat": 7205,
      "Ġairports": 7206,
      "Ġgeographical": 7207,
      "Ġzurich": 7208,
      "Ġwides": 7209,
      "Ġbeer": 7210,
      "Ġsplit": 7211,
      "Ġstruggle": 7212,
      "Ġrecre": 7213,
      "sen": 7214,
      "Ġbomb": 7215,
      "Ġdar": 7216,
      "olic": 7217,
      "Ġgraphics": 7218,
      "Ġlicens": 7219,
      "ÅĤ": 7220,
      "inet": 7221,
      "Ġtraged": 7222,
      "Ġlasting": 7223,
      "Ġluc": 7224,
      "Ġindoor": 7225,
      "Ġpromise": 7226,
      "Ġseas": 7227,
      "Ġengaged": 7228,
      "Ġrevenue": 7229,
      "Ġdal": 7230,
      "conf": 7231,
      "Ġhydro": 7232,
      "Ġluck": 7233,
      "Ġunnecess": 7234,
      "cow": 7235,
      "Ġaside": 7236,
      "Ġdenmark": 7237,
      "Ġreputation": 7238,
      "Ġ1980": 7239,
      "cas": 7240,
      "Ġformats": 7241,
      "Ġstrictly": 7242,
      "Ġservers": 7243,
      "Ġinequ": 7244,
      "Ġtang": 7245,
      "Ġabsor": 7246,
      "Ġcomposition": 7247,
      "Ġblind": 7248,
      "Ġtam": 7249,
      "Ġinterpre": 7250,
      "Ġdollar": 7251,
      "Ġkir": 7252,
      "Ġstunning": 7253,
      "Ġhidden": 7254,
      "Ġcafe": 7255,
      "Ġintensive": 7256,
      "fit": 7257,
      "Ġprinted": 7258,
      "Ġproducer": 7259,
      "Ġcolors": 7260,
      "Ġgradually": 7261,
      "Ġteachers": 7262,
      "Ġprospects": 7263,
      "Ġgeorgia": 7264,
      "Ġintends": 7265,
      "Ġbegins": 7266,
      "rypt": 7267,
      "Ġobama": 7268,
      "Ġadding": 7269,
      "Ġphenomenon": 7270,
      "aching": 7271,
      "Ġvirtually": 7272,
      "Ġjoh": 7273,
      "Ġdepth": 7274,
      "orous": 7275,
      "Ġbathrooms": 7276,
      "Ġbearing": 7277,
      "Ġgreens": 7278,
      "Ġbout": 7279,
      "Ġdiplomatic": 7280,
      "Ġterritorial": 7281,
      "Ġbell": 7282,
      "Ġrough": 7283,
      "Ġbarroso": 7284,
      "Ġhyp": 7285,
      "Ġsorry": 7286,
      "Ġjes": 7287,
      "Ġstatute": 7288,
      "Ġforgot": 7289,
      "Ġbelgian": 7290,
      "Ġpillar": 7291,
      "Ġtoward": 7292,
      "Ġtwice": 7293,
      "Ġfairly": 7294,
      "Ġngos": 7295,
      "Ġargent": 7296,
      "find": 7297,
      "Ġdevelopers": 7298,
      "Ġspecialists": 7299,
      "Ġkh": 7300,
      "Ġcontest": 7301,
      "Ġasset": 7302,
      "Ġstem": 7303,
      "Ġseats": 7304,
      "Ġcha": 7305,
      "hips": 7306,
      "Ġurgently": 7307,
      "long": 7308,
      "Ġcandidates": 7309,
      "Ġ48": 7310,
      "Ġpod": 7311,
      "Ġconferences": 7312,
      "Ġpromised": 7313,
      "Ġorchest": 7314,
      "onic": 7315,
      "Ġsphere": 7316,
      "Ġupgrade": 7317,
      "oper": 7318,
      "Ġrelates": 7319,
      "Ġevident": 7320,
      "Ġtaxpay": 7321,
      "Ġ>": 7322,
      "Ġmeets": 7323,
      "Ġguided": 7324,
      "includ": 7325,
      "Ñı": 7326,
      "Ġresid": 7327,
      "Ġfeet": 7328,
      "Ġbasically": 7329,
      "serv": 7330,
      "conds": 7331,
      "Ġproduces": 7332,
      "Ġrelative": 7333,
      "Ġconsequence": 7334,
      "Ġnik": 7335,
      "Ġkilometres": 7336,
      "Ġefficiently": 7337,
      "irable": 7338,
      "Ġhospital": 7339,
      "Ġacademy": 7340,
      "Ġsophisticated": 7341,
      "uck": 7342,
      "Ġlakes": 7343,
      "Ġoccurred": 7344,
      "itate": 7345,
      "which": 7346,
      "Ġinspired": 7347,
      "ider": 7348,
      "Ġsurprise": 7349,
      "Ġwithdraw": 7350,
      "connect": 7351,
      "Ġmeal": 7352,
      "Ġparticipating": 7353,
      "Ġcoherent": 7354,
      "Ġmistake": 7355,
      "Ġacquired": 7356,
      "essions": 7357,
      "cher": 7358,
      "Ġkernel": 7359,
      "Ġwave": 7360,
      "Ġmanif": 7361,
      "Ġtai": 7362,
      "Ġsucceeded": 7363,
      "omas": 7364,
      "Ġended": 7365,
      "haust": 7366,
      "Ġheadqu": 7367,
      "igned": 7368,
      "Ġhighlighted": 7369,
      "Ġiii": 7370,
      "Ġresulted": 7371,
      "Ġsoil": 7372,
      "apse": 7373,
      "pread": 7374,
      "inely": 7375,
      "Ġmold": 7376,
      "usc": 7377,
      "Ġcultiv": 7378,
      "Ġconventional": 7379,
      "Ġcombines": 7380,
      "eding": 7381,
      "Ġ(\"": 7382,
      "Ġreinfor": 7383,
      "Ġprisoners": 7384,
      "hops": 7385,
      "Ð¼": 7386,
      "dri": 7387,
      "state": 7388,
      "Ġsubsequently": 7389,
      "21": 7390,
      "Ġoldest": 7391,
      "Ġconsiders": 7392,
      "Ġaffects": 7393,
      "Ġenvironmentally": 7394,
      "Ġwidespread": 7395,
      "Ġattached": 7396,
      "39": 7397,
      "Ġserving": 7398,
      "Ġfault": 7399,
      "ram": 7400,
      "Ġaccounting": 7401,
      "Ġachievement": 7402,
      "ishment": 7403,
      "Ġtroops": 7404,
      "Ġnavigation": 7405,
      "Ġtaxi": 7406,
      "Ġexplanation": 7407,
      "Ġï¿½": 7408,
      "Ġreiter": 7409,
      "Ġends": 7410,
      "Ġvictory": 7411,
      "ito": 7412,
      "Ġraising": 7413,
      "Ġacceler": 7414,
      "Ġaffili": 7415,
      "Ġcausing": 7416,
      "Ġencouraged": 7417,
      "Ġspecialized": 7418,
      "Ġmedicines": 7419,
      "Ġintelligent": 7420,
      "Ġaccidents": 7421,
      "Ġclassical": 7422,
      "Ġthrow": 7423,
      "Ġwooden": 7424,
      "Ġrestricted": 7425,
      "bb": 7426,
      "Ġextending": 7427,
      "quet": 7428,
      "wer": 7429,
      "building": 7430,
      "organ": 7431,
      "Ġ1992": 7432,
      "Ġgirls": 7433,
      "cue": 7434,
      "Ġmeals": 7435,
      "Ġmillenn": 7436,
      "Ġconvergence": 7437,
      "ulsory": 7438,
      "Ġlegend": 7439,
      "ading": 7440,
      "take": 7441,
      "Ġmysql": 7442,
      "alities": 7443,
      "Ġpassing": 7444,
      "Ġunus": 7445,
      "Ġseeks": 7446,
      "Ġepis": 7447,
      "Ġku": 7448,
      "Ġpermit": 7449,
      "Ġblocks": 7450,
      "2010": 7451,
      "atz": 7452,
      "Ġsimilarly": 7453,
      "Ġaz": 7454,
      "inn": 7455,
      "Ġquote": 7456,
      "Ġdispute": 7457,
      "Ġpreserve": 7458,
      "quisite": 7459,
      "Ġpoc": 7460,
      "Ġltd": 7461,
      "inity": 7462,
      "Ġpm": 7463,
      "Ġneut": 7464,
      "Ġchoices": 7465,
      "Ġharmful": 7466,
      "Ġultimate": 7467,
      "Ġchart": 7468,
      "utors": 7469,
      "Ġjava": 7470,
      "Ġstories": 7471,
      "name": 7472,
      "Ġsteam": 7473,
      "Ġbaby": 7474,
      "Ġdanish": 7475,
      "Ġputs": 7476,
      "Ġaccompl": 7477,
      "Ġclarify": 7478,
      "Ġquotas": 7479,
      "Ġcommod": 7480,
      "Ġterminal": 7481,
      "style": 7482,
      "law": 7483,
      "Ġdiving": 7484,
      "adic": 7485,
      "itative": 7486,
      "Ġmall": 7487,
      "Ġconvert": 7488,
      "Ġutmost": 7489,
      "Ġgrown": 7490,
      "rible": 7491,
      "Ġcater": 7492,
      "Ġhabit": 7493,
      "Ġbern": 7494,
      "Ġadditionally": 7495,
      "Ġaccompany": 7496,
      "Ġcm": 7497,
      "Ġcontextual": 7498,
      "Ġcertification": 7499,
      "Ġpurely": 7500,
      "Ġobserved": 7501,
      "Ġbow": 7502,
      "Ġvocational": 7503,
      "()": 7504,
      "29": 7505,
      "Ġrely": 7506,
      "Ġpermission": 7507,
      "Ġamended": 7508,
      "Ġaudi": 7509,
      "Ġangel": 7510,
      "istical": 7511,
      "Ġspite": 7512,
      "nish": 7513,
      "Ġdeutsche": 7514,
      "Ġcapabilities": 7515,
      "Ġcertificate": 7516,
      "Ġclimb": 7517,
      "tur": 7518,
      "Ġtwin": 7519,
      "ourse": 7520,
      "olo": 7521,
      "Ġvel": 7522,
      "Ġrose": 7523,
      "Ġsurprised": 7524,
      "oria": 7525,
      "Ġfeaturing": 7526,
      "Ġrecognize": 7527,
      "Ġdisagree": 7528,
      "Â»": 7529,
      "inians": 7530,
      "adays": 7531,
      "Ġcalendar": 7532,
      "Ġenjoying": 7533,
      "Ġsplendid": 7534,
      "Ġthumbn": 7535,
      "Ġdublin": 7536,
      "Ġmul": 7537,
      "Ġarc": 7538,
      "Ġfortun": 7539,
      "Ġlithu": 7540,
      "Ġautumn": 7541,
      "world": 7542,
      "Ġpainting": 7543,
      "Ġcancellation": 7544,
      "aga": 7545,
      "Ġflows": 7546,
      "Ġdefe": 7547,
      "nl": 7548,
      "Ġcommunicate": 7549,
      "text": 7550,
      "well": 7551,
      "Ġseconds": 7552,
      "Ġautomotive": 7553,
      "institutional": 7554,
      "ugin": 7555,
      "Ġestimated": 7556,
      "\")": 7557,
      "order": 7558,
      "Ġmanagers": 7559,
      "Ġinspe": 7560,
      "Ġcertified": 7561,
      "Ġhopes": 7562,
      "Ġreferences": 7563,
      "Ġchoos": 7564,
      "hi": 7565,
      "Ġnowadays": 7566,
      "Ġelectrical": 7567,
      "Ġflav": 7568,
      "ursions": 7569,
      "speed": 7570,
      "Ġfost": 7571,
      "christ": 7572,
      "adt": 7573,
      "ruck": 7574,
      "Ġstaying": 7575,
      "Ġintegrate": 7576,
      "Ġune": 7577,
      "Ġanonymous": 7578,
      "phrase": 7579,
      "trans": 7580,
      "national": 7581,
      "gments": 7582,
      "Ġstores": 7583,
      "Ġpour": 7584,
      "oul": 7585,
      "ati": 7586,
      "08": 7587,
      "Ġot": 7588,
      "Ġig": 7589,
      "Ġplaza": 7590,
      "Ġalter": 7591,
      "Ġenforcement": 7592,
      "fra": 7593,
      "Ġempty": 7594,
      "Ġaudience": 7595,
      "Ġschemes": 7596,
      "Ġofficer": 7597,
      "Ġstudied": 7598,
      "Ġaddressing": 7599,
      "Ġdynam": 7600,
      "Ġpercentage": 7601,
      "Ġpromises": 7602,
      "Ġultra": 7603,
      "Ġcrises": 7604,
      "Ġelevator": 7605,
      "Ġexhaust": 7606,
      "Ġlogistics": 7607,
      "Ġformula": 7608,
      "Ġassigned": 7609,
      "roph": 7610,
      "Ġsurprising": 7611,
      "Ġkong": 7612,
      "Ġjournalists": 7613,
      "Ġhal": 7614,
      "Ġviolation": 7615,
      "Ġrelationships": 7616,
      "Ġcookies": 7617,
      "Ġenthusi": 7618,
      "Ġimplications": 7619,
      "Ġsheet": 7620,
      "Ġ250": 7621,
      "Ġinner": 7622,
      "Ġsufficiently": 7623,
      "37": 7624,
      "Ġunity": 7625,
      "Ġinsu": 7626,
      "Ġsul": 7627,
      "Ġimperial": 7628,
      "oriented": 7629,
      "Ġkg": 7630,
      "Ġconfidential": 7631,
      "Ġeliminate": 7632,
      "oud": 7633,
      "Ġprincipal": 7634,
      "Ġbiod": 7635,
      "Ġinteractive": 7636,
      "Ġmath": 7637,
      "Ġclicking": 7638,
      "zo": 7639,
      "Ġingredients": 7640,
      "Ġlect": 7641,
      "Ġplate": 7642,
      "Ġexpense": 7643,
      "Ġlag": 7644,
      "Ġpresidents": 7645,
      "Ġnegotiation": 7646,
      "Ġapproaches": 7647,
      "utical": 7648,
      "Ġdavid": 7649,
      "Ġthick": 7650,
      "Ġlock": 7651,
      "Ġextract": 7652,
      "Ġcaptain": 7653,
      "Ġpy": 7654,
      "Ġupgrad": 7655,
      "Ġboats": 7656,
      "Ġoperates": 7657,
      "uous": 7658,
      "Ġsunny": 7659,
      "enter": 7660,
      "Ġscheduled": 7661,
      "ester": 7662,
      "Ġjoining": 7663,
      "Ġbelieved": 7664,
      "Ġpersist": 7665,
      "Ġjean": 7666,
      "Ġmotorway": 7667,
      "Ġcampaigns": 7668,
      "stra": 7669,
      "Ġedit": 7670,
      "Ġunderm": 7671,
      "site": 7672,
      "ders": 7673,
      "Ġbranch": 7674,
      "Ġdescribe": 7675,
      "ystem": 7676,
      "from": 7677,
      "nt": 7678,
      "amm": 7679,
      "Ġconcentration": 7680,
      "rees": 7681,
      "Ġpublishing": 7682,
      "Ġcrow": 7683,
      "Ġspons": 7684,
      "Ġinvent": 7685,
      "Ġwear": 7686,
      "Ġspr": 7687,
      "Ġwhereby": 7688,
      "Ġprompt": 7689,
      "Ġneighbours": 7690,
      "gart": 7691,
      "har": 7692,
      "station": 7693,
      "Ġcompulsory": 7694,
      "Ġtechnique": 7695,
      "Ġhong": 7696,
      "Ġbroken": 7697,
      "Ġlogic": 7698,
      "this": 7699,
      "Ñĭ": 7700,
      "Ġnov": 7701,
      "Ġblan": 7702,
      "Ġsecondary": 7703,
      "Ġfoundations": 7704,
      "pool": 7705,
      "Ġtrop": 7706,
      "Ġconstitutes": 7707,
      "Ġenvis": 7708,
      "Ġsenior": 7709,
      "Ġfranc": 7710,
      "Ġhect": 7711,
      "Ġconscious": 7712,
      "Ġedited": 7713,
      "Ġparks": 7714,
      "Ġsd": 7715,
      "Ġ1993": 7716,
      "Ġratification": 7717,
      "Ġmeaningfully": 7718,
      "zes": 7719,
      "Ġabstain": 7720,
      "Ġappointment": 7721,
      "Ġease": 7722,
      "Ġactors": 7723,
      "proof": 7724,
      "Ġinspection": 7725,
      "Ġcoastal": 7726,
      "ales": 7727,
      "Ġunderlying": 7728,
      "Ġorganise": 7729,
      "Ġremarkable": 7730,
      "hy": 7731,
      "ua": 7732,
      "Ġincentives": 7733,
      "Ġ..": 7734,
      "atlantic": 7735,
      "Ġger": 7736,
      "Ġskype": 7737,
      "jud": 7738,
      "ville": 7739,
      "Ġsuns": 7740,
      "keep": 7741,
      "Ġremed": 7742,
      "Ġexcursions": 7743,
      "hard": 7744,
      "Ġescape": 7745,
      "Ġpia": 7746,
      "Ġconvers": 7747,
      "Ġinvo": 7748,
      "Ġwinning": 7749,
      "Ġpoorest": 7750,
      "Ġht": 7751,
      "Ġsample": 7752,
      "rates": 7753,
      "Ġum": 7754,
      "fur": 7755,
      "Ġrand": 7756,
      "erly": 7757,
      "Ġprevail": 7758,
      "eper": 7759,
      "oty": 7760,
      "Ġsecur": 7761,
      "Ġsatisfactory": 7762,
      "Ġtransfers": 7763,
      "Ġmixed": 7764,
      "city": 7765,
      "Ġauto": 7766,
      "control": 7767,
      "uzz": 7768,
      "Ġtimetable": 7769,
      "49": 7770,
      "Ġaven": 7771,
      "endo": 7772,
      "Ġsacrif": 7773,
      "hear": 7774,
      "Ġtextile": 7775,
      "Ġbought": 7776,
      "Ġawards": 7777,
      "Ġmeasurement": 7778,
      "68": 7779,
      "Ġcompletion": 7780,
      "Ġcf": 7781,
      "Ġblow": 7782,
      "Ġtranslated": 7783,
      "Ġcuba": 7784,
      "Ġfewer": 7785,
      "Ġurgency": 7786,
      "aceutical": 7787,
      "Ġsmoking": 7788,
      "Ġpromin": 7789,
      "Ġemployed": 7790,
      "Ġenjoys": 7791,
      "Ġowned": 7792,
      "Ġsynth": 7793,
      "Ġriding": 7794,
      "Ġholy": 7795,
      "Ġmillennium": 7796,
      "lick": 7797,
      "Ġcontextually": 7798,
      "Ġgrammatically": 7799,
      "Ġleague": 7800,
      "Ġauthors": 7801,
      "Ġwednes": 7802,
      "Ġintelligence": 7803,
      "atis": 7804,
      "Ġpoet": 7805,
      "Ġhans": 7806,
      "Ġprodi": 7807,
      "Ġaccessories": 7808,
      "Ġpreferred": 7809,
      "arians": 7810,
      "Ġjack": 7811,
      "Ġresidential": 7812,
      "Ġdesigner": 7813,
      "Ġimf": 7814,
      "Ġguaranteeing": 7815,
      "Ġprofessor": 7816,
      "Ġoppon": 7817,
      "Ġsar": 7818,
      "Ġdun": 7819,
      "Ġeurozone": 7820,
      "Ġdup": 7821,
      "print": 7822,
      "acht": 7823,
      "Ġobserve": 7824,
      "Ġdictators": 7825,
      "Ġamending": 7826,
      "ulpt": 7827,
      "Ġlistening": 7828,
      "Ġconsiderations": 7829,
      "Ġpersu": 7830,
      "Ġreconcil": 7831,
      "Ġlegitimacy": 7832,
      "Ġkeys": 7833,
      "Ġbuyer": 7834,
      "Ġpap": 7835,
      "48": 7836,
      "Ġswift": 7837,
      "Ġunl": 7838,
      "Ġupload": 7839,
      "Ġcancel": 7840,
      "Ġthresh": 7841,
      "Ġmachin": 7842,
      "Ġcodecision": 7843,
      "including": 7844,
      "Ġken": 7845,
      "auer": 7846,
      "Ġprogressive": 7847,
      "iversity": 7848,
      "Ġpresidential": 7849,
      "ĠÐ¿": 7850,
      "Ġinadequate": 7851,
      "Ġlaund": 7852,
      "Ġproxim": 7853,
      "hel": 7854,
      "Ġsailing": 7855,
      "Ġ800": 7856,
      "09": 7857,
      "Ġleban": 7858,
      "Ġflorence": 7859,
      "arged": 7860,
      "Ġdramatic": 7861,
      "Ġ37": 7862,
      "Ġzero": 7863,
      "Ġgun": 7864,
      "agn": 7865,
      "Ġfaces": 7866,
      "Ġtravellers": 7867,
      "bach": 7868,
      "Ġletters": 7869,
      "Ġfascinating": 7870,
      "arer": 7871,
      "Ġmine": 7872,
      "Ġsocialists": 7873,
      "zza": 7874,
      "Ġdebating": 7875,
      "Ġslovakia": 7876,
      "Ġtempl": 7877,
      "Ġga": 7878,
      "Ġalps": 7879,
      "born": 7880,
      "Ġbuses": 7881,
      "Ġreturns": 7882,
      "Ġdeserves": 7883,
      "Ġforemost": 7884,
      "Ġreinforce": 7885,
      "Ġeconomically": 7886,
      "Ġfavourable": 7887,
      "Ġhd": 7888,
      "Ġsimultaneously": 7889,
      "Ġbread": 7890,
      "Ġopenness": 7891,
      "Ġrepeatedly": 7892,
      "Ġbegun": 7893,
      "cons": 7894,
      "Ġmoments": 7895,
      "Ġindones": 7896,
      "Ġcompliment": 7897,
      "Ġstrike": 7898,
      "gro": 7899,
      "Ġevol": 7900,
      "Ġcharacteristic": 7901,
      "Ġfolder": 7902,
      "Ġstip": 7903,
      "uster": 7904,
      "Ġfro": 7905,
      "Ġmoscow": 7906,
      "Ġkyoto": 7907,
      "Ġvacc": 7908,
      "Ġgenuinely": 7909,
      "Ġparadise": 7910,
      "âĢĻ,": 7911,
      "Ġinformal": 7912,
      "Ġchecked": 7913,
      "Ġthumbnail": 7914,
      "Ġexposed": 7915,
      "Ġrepresenting": 7916,
      "Ġjewish": 7917,
      "Ġimportantly": 7918,
      "Ġhealthcare": 7919,
      "tv": 7920,
      "Ġrubber": 7921,
      "Ġdial": 7922,
      "Ġjoy": 7923,
      "Ġexamination": 7924,
      "onal": 7925,
      "Ġwife": 7926,
      "Ġspeeches": 7927,
      "Ġseemed": 7928,
      "Ġjul": 7929,
      "isp": 7930,
      "Ġviet": 7931,
      "richt": 7932,
      "06": 7933,
      "Ġunnecessary": 7934,
      "Ġpuer": 7935,
      "Ġmanifest": 7936,
      "odes": 7937,
      "Ġtherapy": 7938,
      "Ġhero": 7939,
      "Ġforecast": 7940,
      "Ġgeorge": 7941,
      "Ġartific": 7942,
      "udi": 7943,
      "Ġaids": 7944,
      "Ġexhibitions": 7945,
      "Ġnaz": 7946,
      "Ġcomplaints": 7947,
      "Ġidentification": 7948,
      "Ġpools": 7949,
      "Ġoccupation": 7950,
      "Ġexpenses": 7951,
      "Ġsizes": 7952,
      "Ġsculpt": 7953,
      "Ġcompete": 7954,
      "Ġbehavior": 7955,
      "Ġages": 7956,
      "Ġcenters": 7957,
      "Ġspo": 7958,
      "Ġconservation": 7959,
      "Ġpharmaceutical": 7960,
      "Ġandre": 7961,
      "Ġtransaction": 7962,
      "Ġsuspect": 7963,
      "lers": 7964,
      "Ġplugin": 7965,
      "Ġelectoral": 7966,
      "Ġtermin": 7967,
      "Ġrecyc": 7968,
      "Ġboasts": 7969,
      "Ġinsufficient": 7970,
      "Ġbusy": 7971,
      "ictions": 7972,
      "Ġexpanded": 7973,
      "unity": 7974,
      "Ġweakness": 7975,
      "Ġreb": 7976,
      "imedia": 7977,
      "ctor": 7978,
      "Ġinstantly": 7979,
      "Ġpostal": 7980,
      "Ġwednesday": 7981,
      "Ġmira": 7982,
      "Ġownership": 7983,
      "Ġtrouble": 7984,
      "Ġadj": 7985,
      "Ġoptimal": 7986,
      "soever": 7987,
      "Ġzo": 7988,
      "Ġterritories": 7989,
      "Ġlingu": 7990,
      "Ġintentions": 7991,
      "Ġriv": 7992,
      "Ġrespects": 7993,
      "Ġspectrum": 7994,
      "deb": 7995,
      "Ġrefused": 7996,
      "Ġreass": 7997,
      "Ġjump": 7998,
      "icially": 7999,
      "ellow": 8000,
      "Ġlively": 8001,
      "Ġconvey": 8002,
      "Ġconform": 8003,
      "Ġbosnia": 8004,
      "emed": 8005,
      "Ġagent": 8006,
      "Ġliterature": 8007,
      "Ġspecially": 8008,
      "Ġfreight": 8009,
      "Ġmuslim": 8010,
      "Ġclarity": 8011,
      "Ġconventions": 8012,
      "Ġflying": 8013,
      "Ġdestinations": 8014,
      "Ġsympath": 8015,
      "Ġcanon": 8016,
      "liament": 8017,
      "Ġcamping": 8018,
      "Ġcatalogue": 8019,
      "Ġjurisdiction": 8020,
      "umes": 8021,
      "raid": 8022,
      "Ġoperated": 8023,
      "you": 8024,
      "Ġscar": 8025,
      "Ġtransitional": 8026,
      "Ġti": 8027,
      "Ġjointly": 8028,
      "Ġtragic": 8029,
      "Ġbid": 8030,
      "Ġkr": 8031,
      "Ġwillingness": 8032,
      "Ġreward": 8033,
      "Ġexpressly": 8034,
      "Ġmechanical": 8035,
      "Ġgulf": 8036,
      "Ġmorocco": 8037,
      "Ġrecru": 8038,
      "Ġinser": 8039,
      "Ġsuggests": 8040,
      "Ġgear": 8041,
      "Ġfrequency": 8042,
      "Ġslopes": 8043,
      "Ġarchive": 8044,
      "Ġlogo": 8045,
      "kl": 8046,
      "Ġrelief": 8047,
      "Ġtelecommunications": 8048,
      "Ġwolf": 8049,
      "Ġpossess": 8050,
      "plus": 8051,
      "Ġmoz": 8052,
      "Ġapple": 8053,
      "Ġapparently": 8054,
      "itan": 8055,
      "Ġmaxim": 8056,
      "Ġleon": 8057,
      "Ġlaser": 8058,
      "Ġprocure": 8059,
      "Ġbou": 8060,
      "Ġdriven": 8061,
      "Ġchemicals": 8062,
      "Ġevolution": 8063,
      "Ġ120": 8064,
      "oked": 8065,
      "Ġbigger": 8066,
      "Ġarranged": 8067,
      "edge": 8068,
      "Ġdual": 8069,
      "Ġlets": 8070,
      "Ġgrass": 8071,
      "Ġtariff": 8072,
      "2003": 8073,
      "Ġwashington": 8074,
      "Ġwherever": 8075,
      "Ġ600": 8076,
      "Ġarray": 8077,
      "Ġdirectors": 8078,
      "Ġcomposed": 8079,
      "Ġtragedy": 8080,
      "Ġpace": 8081,
      "rain": 8082,
      "ando": 8083,
      "Ġtaiwan": 8084,
      "Ġscot": 8085,
      "Ġpurchased": 8086,
      "Ġdevoted": 8087,
      "Ġpurchasing": 8088,
      "Ġdump": 8089,
      "Ġcosm": 8090,
      "fo": 8091,
      "Ġterrible": 8092,
      "Ġremoval": 8093,
      "Ġecho": 8094,
      "Ġwhatsoever": 8095,
      "oning": 8096,
      "Ġrobert": 8097,
      "Ġinterinstitutional": 8098,
      "Ġ38": 8099,
      "Ġrevised": 8100,
      "ronic": 8101,
      "Ġsweet": 8102,
      "cult": 8103,
      "pie": 8104,
      "ami": 8105,
      "Ġchic": 8106,
      "Ġeconomics": 8107,
      "Ġresearchers": 8108,
      "Ġgentoo": 8109,
      "Ġdimensions": 8110,
      "zu": 8111,
      "Ġbund": 8112,
      "2009": 8113,
      "dep": 8114,
      "Ġtransit": 8115,
      "Ġmeanwhile": 8116,
      "medi": 8117,
      "illance": 8118,
      "Ġmodify": 8119,
      "Ġpensions": 8120,
      "Ġ({{": 8121,
      "Ġbrother": 8122,
      "Ġgym": 8123,
      "Ġresidents": 8124,
      "Ġusd": 8125,
      "Ġfalling": 8126,
      "Ġaluminium": 8127,
      "Ġarena": 8128,
      "bul": 8129,
      "Ġcentr": 8130,
      "Ġbuying": 8131,
      "Ġstead": 8132,
      "Ġtoilet": 8133,
      "Ġpaths": 8134,
      "Ġspec": 8135,
      "ibly": 8136,
      "Ġlaundry": 8137,
      "Ġcontinuously": 8138,
      "Ġgranting": 8139,
      "Ġmental": 8140,
      "Ġarchitectural": 8141,
      "Ġpreparations": 8142,
      "Ġobservation": 8143,
      "eness": 8144,
      "Ġfinds": 8145,
      "plan": 8146,
      "Ġconvenience": 8147,
      "Ġpursuant": 8148,
      "}})": 8149,
      "inational": 8150,
      "Ġforgotten": 8151,
      "31": 8152,
      "Ġconj": 8153,
      "Ġyoun": 8154,
      "parliament": 8155,
      "Ġwinner": 8156,
      "Ġbrands": 8157,
      "Ġdelays": 8158,
      "beit": 8159,
      "Ġdoubts": 8160,
      "Ġbeef": 8161,
      "ounter": 8162,
      "Ġtunis": 8163,
      "Ġmachinery": 8164,
      "Ġintegrity": 8165,
      "Ġairbus": 8166,
      "Ġcaf": 8167,
      "Ġpalestinians": 8168,
      "Ġarrangement": 8169,
      "Ġhier": 8170,
      "Ġadri": 8171,
      "Ġcollapse": 8172,
      "Ġmonuments": 8173,
      "hot": 8174,
      "ogne": 8175,
      "Ġemployers": 8176,
      "Ġconversion": 8177,
      "Ġtypically": 8178,
      "Ġadmitted": 8179,
      "Ġmarri": 8180,
      "Ġmanufactured": 8181,
      "Ġinsight": 8182,
      "Ġoppose": 8183,
      "Ġbureaucr": 8184,
      "Ġmanip": 8185,
      "wall": 8186,
      "working": 8187,
      "gas": 8188,
      "Ġmonte": 8189,
      "Ġtrig": 8190,
      "Ġacademic": 8191,
      "ilation": 8192,
      "Ġtrains": 8193,
      "sv": 8194,
      "ikes": 8195,
      "Ġautomation": 8196,
      "Ġembar": 8197,
      "Ġethical": 8198,
      "Ġclim": 8199,
      "Ġpromoted": 8200,
      "ounds": 8201,
      "Ġproductive": 8202,
      "2008": 8203,
      "Ġtrace": 8204,
      "Ġsalt": 8205,
      "Ġfinnish": 8206,
      "Ġinstallations": 8207,
      "Ġdeadline": 8208,
      "Ġkal": 8209,
      "Ġafraid": 8210,
      "Ġaffecting": 8211,
      "Ġcrystal": 8212,
      "Ġsurveillance": 8213,
      "tes": 8214,
      "Ġsap": 8215,
      "Ġbrid": 8216,
      "Ġsevent": 8217,
      "Ġperpet": 8218,
      "2002": 8219,
      "Ġ1970": 8220,
      "Ġlandscap": 8221,
      "Ġelig": 8222,
      "Ġdelete": 8223,
      "ao": 8224,
      "ĠÑģ": 8225,
      "Ġmovies": 8226,
      "Ġduration": 8227,
      "Ġnewspaper": 8228,
      "mus": 8229,
      "Ġaccuracy": 8230,
      "ician": 8231,
      "Ġgay": 8232,
      "Ġlosing": 8233,
      "Ġirre": 8234,
      "aser": 8235,
      "Ġgoth": 8236,
      "Ġclock": 8237,
      "Ġsoldi": 8238,
      "ÑĮ": 8239,
      "Ġcord": 8240,
      "ocation": 8241,
      "arest": 8242,
      "Ġbav": 8243,
      "Ġsake": 8244,
      "Ġworkshop": 8245,
      "Ġrenewed": 8246,
      "Ġsudan": 8247,
      "Ġcameras": 8248,
      "Ġthy": 8249,
      "Ġbm": 8250,
      "Ġhen": 8251,
      "Ġviney": 8252,
      "Ġdefense": 8253,
      "Ġvisits": 8254,
      "Ġ1991": 8255,
      "igious": 8256,
      "Ġvirus": 8257,
      "Ġconcerts": 8258,
      "ropol": 8259,
      "apest": 8260,
      "Ġcircle": 8261,
      "Ġpocket": 8262,
      "Ġneu": 8263,
      "Ġadh": 8264,
      "Ġexamined": 8265,
      "Ġprofound": 8266,
      "Ġsoldiers": 8267,
      "Ġ{": 8268,
      "Ġdeclare": 8269,
      "christian": 8270,
      "Ġfon": 8271,
      "Ġmouth": 8272,
      "Ġfrequent": 8273,
      "Ġgnu": 8274,
      "pack": 8275,
      "Ġcorrespond": 8276,
      "conditioning": 8277,
      "Ġfalse": 8278,
      "Ġbang": 8279,
      "sole": 8280,
      "Ġassurance": 8281,
      "Ġdrag": 8282,
      "ungs": 8283,
      "Ġwinds": 8284,
      "Ġfocusing": 8285,
      "uct": 8286,
      "Ġrefuse": 8287,
      "Ġpressing": 8288,
      "Ġprecious": 8289,
      "Ġrecover": 8290,
      "Ġlogical": 8291,
      "check": 8292,
      "Ġquantity": 8293,
      "rison": 8294,
      "Ġbooked": 8295,
      "makers": 8296,
      "Ġfron": 8297,
      "Ġbelongs": 8298,
      "Ġdistinction": 8299,
      "Ġofficially": 8300,
      "Ġsegment": 8301,
      ".)": 8302,
      "Ġcher": 8303,
      "Ġfocuses": 8304,
      "Ġbroader": 8305,
      "Ġspell": 8306,
      "Ġpublications": 8307,
      "Ġroots": 8308,
      "Ġregulated": 8309,
      "Ġstopped": 8310,
      "Ġinquiry": 8311,
      "Ġknew": 8312,
      "Ġinnovations": 8313,
      "Ġconstructed": 8314,
      "Ġstretch": 8315,
      "Ġschedule": 8316,
      "55": 8317,
      "Ġvariable": 8318,
      "Ġloans": 8319,
      "Ġsharp": 8320,
      "Ġbureauc": 8321,
      "Ġprivat": 8322,
      "Ġalternatives": 8323,
      "Ġ1989": 8324,
      "lan": 8325,
      "Ġgaza": 8326,
      "ulates": 8327,
      "Ġacquisition": 8328,
      "Ġsandy": 8329,
      "obe": 8330,
      "Ġfib": 8331,
      "Ġicon": 8332,
      "jan": 8333,
      "vin": 8334,
      "mitting": 8335,
      "emb": 8336,
      "Ġstressed": 8337,
      "system": 8338,
      "kers": 8339,
      "Ġmigr": 8340,
      "irts": 8341,
      "Ġshock": 8342,
      "udes": 8343,
      "asting": 8344,
      "Ġnoon": 8345,
      "tech": 8346,
      "fle": 8347,
      "Ġspare": 8348,
      "orses": 8349,
      "Ġairline": 8350,
      "Ġ34": 8351,
      "Ġmultinational": 8352,
      "Ġachievements": 8353,
      "icing": 8354,
      "Ġadvise": 8355,
      "holm": 8356,
      "Ġsupplementary": 8357,
      "Ġcatalog": 8358,
      "Ġturns": 8359,
      "07": 8360,
      "Ġdrives": 8361,
      "Ġguitar": 8362,
      "Ġceiling": 8363,
      "Ġconstra": 8364,
      "pg": 8365,
      "opard": 8366,
      "Ġsyria": 8367,
      "Ġgreenhouse": 8368,
      "Ġembed": 8369,
      "hen": 8370,
      "ipher": 8371,
      "rick": 8372,
      "Ġaffordable": 8373,
      "Ġhumanity": 8374,
      "Ġdeserve": 8375,
      "gers": 8376,
      "Ġchurches": 8377,
      "Ġcorporation": 8378,
      "Ġsalzburg": 8379,
      "Ġnationals": 8380,
      "she": 8381,
      "amin": 8382,
      "Ġencrypt": 8383,
      "obile": 8384,
      "Ġgirl": 8385,
      "Ġconfident": 8386,
      "ingly": 8387,
      "Ġneighbor": 8388,
      "ounder": 8389,
      "Ġperce": 8390,
      "Ġspiritual": 8391,
      "Ġexplicitly": 8392,
      "Ġbudapest": 8393,
      "Ġpopulations": 8394,
      "Ġheadquarters": 8395,
      "Ġundertake": 8396,
      "Ġcitizenship": 8397,
      "Ġeuropol": 8398,
      "Ġprestigious": 8399,
      "commerce": 8400,
      "stone": 8401,
      "Ġscore": 8402,
      "Ġcivilian": 8403,
      "Ġsuited": 8404,
      "Ġpatents": 8405,
      "rous": 8406,
      "Ġmaps": 8407,
      "Ġnecessity": 8408,
      "Ġbeneficial": 8409,
      "Ġindicators": 8410,
      "Ġreflection": 8411,
      "Ġmilan": 8412,
      "reens": 8413,
      "Ġfried": 8414,
      "Ġuncertainty": 8415,
      "Ġcontinental": 8416,
      "67": 8417,
      "Ġcancelled": 8418,
      "develop": 8419,
      "2006": 8420,
      "stat": 8421,
      "Ġphotographs": 8422,
      "Ġges": 8423,
      "Ġliby": 8424,
      "Ġprecision": 8425,
      "cop": 8426,
      "list": 8427,
      "Ġpiano": 8428,
      "Ġvene": 8429,
      "Ġprocurement": 8430,
      "Ġtub": 8431,
      "Ġrelaxed": 8432,
      "Ġignore": 8433,
      "'d": 8434,
      "ava": 8435,
      "Ġmaced": 8436,
      "tail": 8437,
      "Ġthomas": 8438,
      "Ġleather": 8439,
      "Ġbond": 8440,
      "Ġrou": 8441,
      "Ġmale": 8442,
      "Ġnur": 8443,
      "look": 8444,
      "Ġmeasuring": 8445,
      "ĠÐ²": 8446,
      "Ġapplicant": 8447,
      "Ġfeedback": 8448,
      "Ġclothing": 8449,
      "Ġunusual": 8450,
      "Ġsemi": 8451,
      "Ġprevented": 8452,
      "Ġtropical": 8453,
      "acing": 8454,
      "Ġrevealed": 8455,
      "Ġdeterior": 8456,
      "Ġorganize": 8457,
      "Ġvisitor": 8458,
      "Ġphotography": 8459,
      "Ġsuspended": 8460,
      "Ġolympic": 8461,
      "Ġsony": 8462,
      "Ġunt": 8463,
      "astricht": 8464,
      "Ġtrained": 8465,
      "Ġreplacement": 8466,
      "gb": 8467,
      "Ġpersec": 8468,
      "Ġposts": 8469,
      "Ġreleases": 8470,
      "days": 8471,
      "elect": 8472,
      "Ġadvertise": 8473,
      "Ġtaxpayers": 8474,
      "oni": 8475,
      "Ġcologne": 8476,
      "Ġunknown": 8477,
      "Ġwake": 8478,
      "Ġdebated": 8479,
      "Ġmurder": 8480,
      "Ġkids": 8481,
      "Ġbiological": 8482,
      "Ġpetitions": 8483,
      "Ġwage": 8484,
      "vol": 8485,
      "Ġpse": 8486,
      "Ġsignals": 8487,
      "Ġkl": 8488,
      "iler": 8489,
      "Ġpeak": 8490,
      "Ġputin": 8491,
      "Ġfarms": 8492,
      "Ġcharles": 8493,
      "Ġhur": 8494,
      "Ġdowntown": 8495,
      "Ġcongratulations": 8496,
      "Ġpreserved": 8497,
      "Ġrecession": 8498,
      "Ġsecurities": 8499,
      "Ġalph": 8500,
      "Ġschol": 8501,
      "Ġsummary": 8502,
      "hm": 8503,
      "Ġpassport": 8504,
      "Ġlev": 8505,
      "Ġadmit": 8506,
      "alling": 8507,
      "Ġpartition": 8508,
      "Ġram": 8509,
      "Ġruling": 8510,
      "Ġbiodiversity": 8511,
      "Ġdiver": 8512,
      "Ġtransatlantic": 8513,
      "Ġnegotiated": 8514,
      "Ġmaastricht": 8515,
      "Ġsubstit": 8516,
      "Ġsilence": 8517,
      "Ġchose": 8518,
      "Ġbrain": 8519,
      "Ġqualifications": 8520,
      "limited": 8521,
      "Ġspecify": 8522,
      "Ġdisplays": 8523,
      "Ġthreatened": 8524,
      "dered": 8525,
      "Ġblu": 8526,
      "Ġstops": 8527,
      "Ġstayed": 8528,
      "Ġfails": 8529,
      "Ġthanking": 8530,
      "Ġperspect": 8531,
      "whel": 8532,
      "otechn": 8533,
      "but": 8534,
      "iest": 8535,
      "izer": 8536,
      "Ġcreativity": 8537,
      "Ġsigning": 8538,
      "Ġreader": 8539,
      "Ġhostelsclub": 8540,
      "raction": 8541,
      "Ġjames": 8542,
      "Ġcentrally": 8543,
      "cur": 8544,
      "Ġvend": 8545,
      "Ġshut": 8546,
      "Ġrank": 8547,
      "Ġranging": 8548,
      "aving": 8549,
      "Ġmirror": 8550,
      "Ġratified": 8551,
      "Ġproximity": 8552,
      "ti": 8553,
      "Ġinject": 8554,
      "Ġniger": 8555,
      "Ġgrat": 8556,
      "Ġrealize": 8557,
      "Ġbench": 8558,
      "yers": 8559,
      "isen": 8560,
      "Ġmoves": 8561,
      "Ġconfront": 8562,
      "Ġmistakes": 8563,
      "Ġclosing": 8564,
      "Ġcertainty": 8565,
      "Ġfavourite": 8566,
      "Ġmc": 8567,
      "Ġ1000": 8568,
      "icted": 8569,
      "Ġrobust": 8570,
      "Ġillness": 8571,
      "Ġros": 8572,
      "Ġ95": 8573,
      "Ġphones": 8574,
      "Ġplacing": 8575,
      "47": 8576,
      "Ġjudgment": 8577,
      "Ġmandatory": 8578,
      "Ġpatterns": 8579,
      "Ġalike": 8580,
      "Ġwithdrawal": 8581,
      "icycle": 8582,
      "ĠÎ": 8583,
      "Ġpays": 8584,
      "ogen": 8585,
      "Ġattended": 8586,
      "65": 8587,
      "Ġbudd": 8588,
      "Ġdeaths": 8589,
      "isco": 8590,
      "Ġcooking": 8591,
      "Ġrivers": 8592,
      "Ġlikewise": 8593,
      "Ġnegotiate": 8594,
      "Ġlighting": 8595,
      "Ġoverwhel": 8596,
      "irs": 8597,
      "Ġrating": 8598,
      "mony": 8599,
      "Ġtrem": 8600,
      "Ġshot": 8601,
      "bc": 8602,
      "Ġbehold": 8603,
      "regular": 8604,
      "Ġsom": 8605,
      "unte": 8606,
      "Ġimported": 8607,
      "Ġdeficits": 8608,
      "xic": 8609,
      "Ġster": 8610,
      "Ġsystematic": 8611,
      "Ġjustify": 8612,
      "Ġcomprises": 8613,
      "nings": 8614,
      "Ġloy": 8615,
      "Ġafterwards": 8616,
      "Ġ900": 8617,
      "elve": 8618,
      "ushing": 8619,
      "cier": 8620,
      "Ġaccum": 8621,
      "Ġgenerous": 8622,
      "ungen": 8623,
      "Ġpapers": 8624,
      "Ġindicates": 8625,
      "encia": 8626,
      "Ġcoach": 8627,
      "Ġbureaucracy": 8628,
      "Ġsignature": 8629,
      "Ġnotably": 8630,
      "Ġstatistical": 8631,
      "Ġviolent": 8632,
      "Ġperspectives": 8633,
      "power": 8634,
      "Ġgla": 8635,
      "Ġenrich": 8636,
      "Ġcolumn": 8637,
      "chi": 8638,
      "Ġworkshops": 8639,
      "Ġslowly": 8640,
      "Ġdrinking": 8641,
      "Ġcontributing": 8642,
      "Ġdemonstrates": 8643,
      "Ġconsistently": 8644,
      "Ġdollars": 8645,
      "Ġhesitate": 8646,
      "Ġtorture": 8647,
      "Ġ33": 8648,
      "yes": 8649,
      "Ġheavily": 8650,
      "Ġstad": 8651,
      "Ġmultimedia": 8652,
      "Ġfifteen": 8653,
      "Ġworrying": 8654,
      "Ġorientation": 8655,
      "enz": 8656,
      "ifi": 8657,
      "Ġsolo": 8658,
      "ounded": 8659,
      "Ġcapture": 8660,
      "Ġminimal": 8661,
      "Ġdisappear": 8662,
      "Ġduplic": 8663,
      "Ġsessions": 8664,
      "Ġhonor": 8665,
      "Ġprivileged": 8666,
      "Ġdating": 8667,
      "rooms": 8668,
      "Ġchocol": 8669,
      "xi": 8670,
      "Ġtank": 8671,
      "Ġcommerce": 8672,
      "seeing": 8673,
      "Ġconveniently": 8674,
      "Ġhan": 8675,
      "asion": 8676,
      "ouses": 8677,
      "Ġformation": 8678,
      "case": 8679,
      "ÂŃ": 8680,
      "inos": 8681,
      "Ġpresc": 8682,
      "Ġ65": 8683,
      "Ġemerged": 8684,
      "Ġclaimed": 8685,
      "oric": 8686,
      "Ġoccurs": 8687,
      "Ġcoordinate": 8688,
      "Ġdiam": 8689,
      "Ã¸": 8690,
      "Ġintervene": 8691,
      "Ġgraphic": 8692,
      "utsch": 8693,
      "Ġelderly": 8694,
      "Ġprelim": 8695,
      "Ġcopies": 8696,
      "este": 8697,
      "Ġattain": 8698,
      "Ð´": 8699,
      "Ġmol": 8700,
      "Ġtips": 8701,
      "Ġfavorite": 8702,
      "Ġtap": 8703,
      "Ġvillas": 8704,
      "Ġimposing": 8705,
      "Ġchoosing": 8706,
      "greg": 8707,
      "Ġtimely": 8708,
      "Ġavo": 8709,
      "ppy": 8710,
      "Ġargue": 8711,
      "Ġtemple": 8712,
      "Ġallocation": 8713,
      "Ġcompetences": 8714,
      "Ġimbal": 8715,
      "Ġracism": 8716,
      "pc": 8717,
      "Ġintense": 8718,
      "exist": 8719,
      "86": 8720,
      "Ġnotified": 8721,
      "Ġbse": 8722,
      "Ġratio": 8723,
      "Ġpine": 8724,
      "Ġbour": 8725,
      "rome": 8726,
      "Ġposted": 8727,
      "Ġjazz": 8728,
      "Ġsetup": 8729,
      "itra": 8730,
      "versi": 8731,
      "Ġpartial": 8732,
      "44": 8733,
      "Ġhet": 8734,
      "bles": 8735,
      "Ġdownloaded": 8736,
      "Ġpacific": 8737,
      "Ġunanimously": 8738,
      "iera": 8739,
      "Ġcreature": 8740,
      "Ġcredible": 8741,
      "Ġenchant": 8742,
      "Ġbrut": 8743,
      "Ġ55": 8744,
      "Ġexperiencing": 8745,
      "rition": 8746,
      "Ġstain": 8747,
      "gor": 8748,
      "Ġmonaster": 8749,
      "Ġfundament": 8750,
      "Ġbak": 8751,
      "Ġzones": 8752,
      "Ġinterim": 8753,
      "Ġintegral": 8754,
      "Ġgest": 8755,
      "umed": 8756,
      "Ġcontractual": 8757,
      "Ġvictim": 8758,
      "Ġpremises": 8759,
      "Ġintermedi": 8760,
      "Ġpreferences": 8761,
      "Ġdisputes": 8762,
      "Ġreceipt": 8763,
      "weg": 8764,
      "enburg": 8765,
      "Ġpreca": 8766,
      "Ġkeen": 8767,
      "Ġequity": 8768,
      "Ġevaluate": 8769,
      "Ġyugoslavia": 8770,
      "etically": 8771,
      "agon": 8772,
      "Ġfinanced": 8773,
      "Ġadobe": 8774,
      "Ġredund": 8775,
      "Ġharmony": 8776,
      "abwe": 8777,
      "Ġrefund": 8778,
      "Ġtransformation": 8779,
      "Ġlithuania": 8780,
      "Ġeradic": 8781,
      "group": 8782,
      "Ġunions": 8783,
      "Ġpractically": 8784,
      "Ġvoy": 8785,
      "oe": 8786,
      "Ġracing": 8787,
      "Ġzimb": 8788,
      "Ġlovers": 8789,
      "Ġinitiated": 8790,
      "Ġcaught": 8791,
      "Ġcontrolling": 8792,
      "Ġfestiv": 8793,
      "Ġtheore": 8794,
      "Ġfisch": 8795,
      "Ġpartnerships": 8796,
      "Ġconverted": 8797,
      "Ġtues": 8798,
      "Ġproph": 8799,
      "Ġpotentially": 8800,
      "Ġengineers": 8801,
      "Ġsentence": 8802,
      "Ġtonnes": 8803,
      "lif": 8804,
      "rations": 8805,
      "uman": 8806,
      "Ġtranspos": 8807,
      "Ġoccupied": 8808,
      "ocratic": 8809,
      "Ġpreliminary": 8810,
      "Ġburma": 8811,
      "Ġterrorists": 8812,
      "ori": 8813,
      "Ġarbitrary": 8814,
      "Ġquark": 8815,
      "Ġweekly": 8816,
      "Ġshareholders": 8817,
      "estyle": 8818,
      "Ġcinema": 8819,
      "Ġslovenia": 8820,
      "Ġhtml": 8821,
      "Ġspecifications": 8822,
      "Ġvalle": 8823,
      "Ġmalta": 8824,
      "Ġrena": 8825,
      "Ġdirections": 8826,
      "Ġcoc": 8827,
      "Ġcheese": 8828,
      "Ġconvince": 8829,
      "Ġcoordin": 8830,
      "Ġcoverage": 8831,
      "after": 8832,
      "Ġzimbabwe": 8833,
      "Ġentries": 8834,
      "Ġartificial": 8835,
      "Ġscreens": 8836,
      "Ġcrown": 8837,
      "Ġdegrees": 8838,
      "ardo": 8839,
      "Ġheated": 8840,
      "Ġteacher": 8841,
      "Ġbattery": 8842,
      "Ġtemperatures": 8843,
      "Ġexposure": 8844,
      "iment": 8845,
      "Ġmeg": 8846,
      "Ġvoters": 8847,
      "unk": 8848,
      "Ġelectronics": 8849,
      "Ġpursued": 8850,
      "Ġexplos": 8851,
      "field": 8852,
      "Ġstance": 8853,
      "Ġlicence": 8854,
      "bod": 8855,
      "Ġhaird": 8856,
      "Ġwilli": 8857,
      "iforn": 8858,
      "Ġperforming": 8859,
      "Ġcircuit": 8860,
      "Ġcant": 8861,
      "esis": 8862,
      "operation": 8863,
      "Ġfindings": 8864,
      "sing": 8865,
      "Ġprote": 8866,
      "Ġvolunte": 8867,
      "uzzi": 8868,
      "Ġessence": 8869,
      "iscrimin": 8870,
      "Ġunemployed": 8871,
      "Ġexperiment": 8872,
      "Ġagrees": 8873,
      "ede": 8874,
      "Ġdefining": 8875,
      "Ġpig": 8876,
      "Ġfitted": 8877,
      "Ġseal": 8878,
      "Ġcombining": 8879,
      "isa": 8880,
      "Ġisn": 8881,
      "Ġdear": 8882,
      "amo": 8883,
      "Ġquart": 8884,
      "Ġanswered": 8885,
      "Ġul": 8886,
      "Ġstorm": 8887,
      "Ġlaboratory": 8888,
      "Ġkeeps": 8889,
      "Ġlowest": 8890,
      "ilingual": 8891,
      "Ġwarmly": 8892,
      "Ġexpanding": 8893,
      "Ġshif": 8894,
      "Ġirregular": 8895,
      "step": 8896,
      "Ġyellow": 8897,
      "Ġexchanges": 8898,
      "Ġunst": 8899,
      "Ġdepri": 8900,
      "Ġviewed": 8901,
      "Ġscrut": 8902,
      "Ġcompare": 8903,
      "versial": 8904,
      "Ġblame": 8905,
      "Ġincur": 8906,
      "Ġspecialities": 8907,
      "icks": 8908,
      "outs": 8909,
      "Ġbirds": 8910,
      "ji": 8911,
      "Ġvin": 8912,
      "Ġresorts": 8913,
      "Ġbare": 8914,
      "nik": 8915,
      "Ġdetri": 8916,
      "Ġsuggestion": 8917,
      "Ġambition": 8918,
      "esco": 8919,
      "Ġrect": 8920,
      "Ġgath": 8921,
      "Ġeste": 8922,
      "Ġrespectively": 8923,
      "Ġtempt": 8924,
      "Ġrefurb": 8925,
      "Ġpedest": 8926,
      "Ġchan": 8927,
      "Ġperformances": 8928,
      "Ġsporting": 8929,
      "Ġthreshold": 8930,
      "Ġpione": 8931,
      "Ġdiscovery": 8932,
      "Ġhandled": 8933,
      "Ġaccommodate": 8934,
      "Ġcelebrate": 8935,
      "ye": 8936,
      "asis": 8937,
      "Ġstays": 8938,
      "Ġguidance": 8939,
      "oft": 8940,
      "Ġreun": 8941,
      "Ġuss": 8942,
      "Ġassured": 8943,
      "effective": 8944,
      "Ġwis": 8945,
      "Ġdress": 8946,
      "Ġjet": 8947,
      "Ġhighway": 8948,
      "Ġpatch": 8949,
      "Ġdescribes": 8950,
      "Ġargentina": 8951,
      "aus": 8952,
      "Ġmyth": 8953,
      "Ġborrow": 8954,
      "Ġenlarged": 8955,
      "Ġplatforms": 8956,
      "Ġuncom": 8957,
      "Ġaudit": 8958,
      "88": 8959,
      "rating": 8960,
      "stuff": 8961,
      "Ġviable": 8962,
      "à¸": 8963,
      "ijing": 8964,
      "Ġtribute": 8965,
      "Ġpix": 8966,
      "Ġsees": 8967,
[...]
